{
  "version": "1.0",
  "truncation": null,
  "padding": null,
  "added_tokens": [
    {
      "id": 0,
      "content": "<unk>",
      "single_word": false,
      "lstrip": false,
      "rstrip": false,
      "normalized": false,
      "special": true
    },
    {
      "id": 1,
      "content": "<bos>",
      "single_word": false,
      "lstrip": false,
      "rstrip": false,
      "normalized": false,
      "special": true
    }
  ],
  "normalizer": null,
  "pre_tokenizer": {
    "type": "ByteLevel",
    "add_prefix_space": true,
    "trim_offsets": true,
    "use_regex": true
  },
  "post_processor": null,
  "decoder": {
    "type": "ByteLevel",
    "add_prefix_space": true,
    "trim_offsets": true,
    "use_regex": true
  },
  "model": {
    "type": "BPE",
    "dropout": null,
    "unk_token": "<unk>",
    "continuing_subword_prefix": null,
    "end_of_word_suffix": null,
    "fuse_unk": false,
    "byte_fallback": false,
    "ignore_merges": false,
    "vocab": {
      "<unk>": 0,
      "<bos>": 1,
      "!": 2,
      "\"": 3,
      "#": 4,
      "$": 5,
      "%": 6,
      "&": 7,
      "'": 8,
      "(": 9,
      ")": 10,
      "*": 11,
      "+": 12,
      ",": 13,
      "-": 14,
      ".": 15,
      "/": 16,
      "0": 17,
      "1": 18,
      "2": 19,
      "3": 20,
      "4": 21,
      "5": 22,
      "6": 23,
      "7": 24,
      "8": 25,
      "9": 26,
      ":": 27,
      ";": 28,
      "<": 29,
      "=": 30,
      ">": 31,
      "?": 32,
      "@": 33,
      "A": 34,
      "B": 35,
      "C": 36,
      "D": 37,
      "E": 38,
      "F": 39,
      "G": 40,
      "H": 41,
      "I": 42,
      "J": 43,
      "K": 44,
      "L": 45,
      "M": 46,
      "N": 47,
      "O": 48,
      "P": 49,
      "Q": 50,
      "R": 51,
      "S": 52,
      "T": 53,
      "U": 54,
      "V": 55,
      "W": 56,
      "X": 57,
      "Y": 58,
      "Z": 59,
      "[": 60,
      "\\": 61,
      "]": 62,
      "^": 63,
      "_": 64,
      "`": 65,
      "a": 66,
      "b": 67,
      "c": 68,
      "d": 69,
      "e": 70,
      "f": 71,
      "g": 72,
      "h": 73,
      "i": 74,
      "j": 75,
      "k": 76,
      "l": 77,
      "m": 78,
      "n": 79,
      "o": 80,
      "p": 81,
      "q": 82,
      "r": 83,
      "s": 84,
      "t": 85,
      "u": 86,
      "v": 87,
      "w": 88,
      "x": 89,
      "y": 90,
      "z": 91,
      "{": 92,
      "|": 93,
      "}": 94,
      "~": 95,
      "¡": 96,
      "¢": 97,
      "£": 98,
      "¤": 99,
      "¥": 100,
      "¦": 101,
      "§": 102,
      "¨": 103,
      "©": 104,
      "ª": 105,
      "«": 106,
      "¬": 107,
      "®": 108,
      "¯": 109,
      "°": 110,
      "±": 111,
      "²": 112,
      "³": 113,
      "´": 114,
      "µ": 115,
      "¶": 116,
      "·": 117,
      "¸": 118,
      "¹": 119,
      "º": 120,
      "»": 121,
      "¼": 122,
      "½": 123,
      "¾": 124,
      "¿": 125,
      "À": 126,
      "Á": 127,
      "Â": 128,
      "Ã": 129,
      "Ä": 130,
      "Å": 131,
      "Æ": 132,
      "Ç": 133,
      "È": 134,
      "É": 135,
      "Ê": 136,
      "Ë": 137,
      "Ì": 138,
      "Í": 139,
      "Î": 140,
      "Ï": 141,
      "Ð": 142,
      "Ñ": 143,
      "Ò": 144,
      "Ó": 145,
      "Ô": 146,
      "Õ": 147,
      "Ö": 148,
      "×": 149,
      "Ø": 150,
      "Ù": 151,
      "Ú": 152,
      "Û": 153,
      "Ü": 154,
      "Ý": 155,
      "Þ": 156,
      "ß": 157,
      "à": 158,
      "á": 159,
      "â": 160,
      "ã": 161,
      "ä": 162,
      "å": 163,
      "æ": 164,
      "ç": 165,
      "è": 166,
      "é": 167,
      "ê": 168,
      "ë": 169,
      "ì": 170,
      "í": 171,
      "î": 172,
      "ï": 173,
      "ð": 174,
      "ñ": 175,
      "ò": 176,
      "ó": 177,
      "ô": 178,
      "õ": 179,
      "ö": 180,
      "÷": 181,
      "ø": 182,
      "ù": 183,
      "ú": 184,
      "û": 185,
      "ü": 186,
      "ý": 187,
      "þ": 188,
      "ÿ": 189,
      "Ā": 190,
      "ā": 191,
      "Ă": 192,
      "ă": 193,
      "Ą": 194,
      "ą": 195,
      "Ć": 196,
      "ć": 197,
      "Ĉ": 198,
      "ĉ": 199,
      "Ċ": 200,
      "ċ": 201,
      "Č": 202,
      "č": 203,
      "Ď": 204,
      "ď": 205,
      "Đ": 206,
      "đ": 207,
      "Ē": 208,
      "ē": 209,
      "Ĕ": 210,
      "ĕ": 211,
      "Ė": 212,
      "ė": 213,
      "Ę": 214,
      "ę": 215,
      "Ě": 216,
      "ě": 217,
      "Ĝ": 218,
      "ĝ": 219,
      "Ğ": 220,
      "ğ": 221,
      "Ġ": 222,
      "ġ": 223,
      "Ģ": 224,
      "ģ": 225,
      "Ĥ": 226,
      "ĥ": 227,
      "Ħ": 228,
      "ħ": 229,
      "Ĩ": 230,
      "ĩ": 231,
      "Ī": 232,
      "ī": 233,
      "Ĭ": 234,
      "ĭ": 235,
      "Į": 236,
      "į": 237,
      "İ": 238,
      "ı": 239,
      "Ĳ": 240,
      "ĳ": 241,
      "Ĵ": 242,
      "ĵ": 243,
      "Ķ": 244,
      "ķ": 245,
      "ĸ": 246,
      "Ĺ": 247,
      "ĺ": 248,
      "Ļ": 249,
      "ļ": 250,
      "Ľ": 251,
      "ľ": 252,
      "Ŀ": 253,
      "ŀ": 254,
      "Ł": 255,
      "ł": 256,
      "Ń": 257,
      "Ġt": 258,
      "Ġa": 259,
      "en": 260,
      "É£": 261,
      "Ġd": 262,
      "Ġn": 263,
      "Ġy": 264,
      "Ġi": 265,
      "á¸": 266,
      "an": 267,
      "Ġu": 268,
      "er": 269,
      "ra": 270,
      "al": 271,
      "Ġye": 272,
      "in": 273,
      "eg": 274,
      "á¹": 275,
      "ma": 276,
      "Ġs": 277,
      "á¸į": 278,
      "Ġw": 279,
      "la": 280,
      "el": 281,
      "em": 282,
      "á¸¥": 283,
      "me": 284,
      "Ġad": 285,
      "ÉĽ": 286,
      "Ġta": 287,
      "is": 288,
      "ĠA": 289,
      "kk": 290,
      "ar": 291,
      "ĠÉ£": 292,
      "as": 293,
      "Ġl": 294,
      "Ġte": 295,
      "tt": 296,
      "á¹Ń": 297,
      "ef": 298,
      "Ġyi": 299,
      "ĠT": 300,
      "li": 301,
      "Ġdeg": 302,
      "eÉ£": 303,
      "na": 304,
      "es": 305,
      "ed": 306,
      "mi": 307,
      "ni": 308,
      "ay": 309,
      "ur": 310,
      "Ġara": 311,
      "Ġti": 312,
      "ri": 313,
      "da": 314,
      "ĠÉ£er": 315,
      "Ġakk": 316,
      "it": 317,
      "aw": 318,
      "áº": 319,
      "eb": 320,
      "áºĵ": 321,
      "ut": 322,
      "Ġur": 323,
      "eá¸į": 324,
      "ĠI": 325,
      "ss": 326,
      "ĠM": 327,
      "Ġk": 328,
      "sen": 329,
      "id": 330,
      "ĠD": 331,
      "ru": 332,
      "ag": 333,
      "ĠÉ£ef": 334,
      "Ġdi": 335,
      "zi": 336,
      "un": 337,
      "Ġam": 338,
      "Ç§": 339,
      "Äį": 340,
      "Ġtu": 341,
      "wa": 342,
      "yen": 343,
      "Ġma": 344,
      "Ġwa": 345,
      "ĠU": 346,
      "iw": 347,
      "et": 348,
      "ya": 349,
      "ba": 350,
      "eq": 351,
      "Ġ(": 352,
      "ul": 353,
      "ir": 354,
      "Ġ-": 355,
      "ĠY": 356,
      "Ġtt": 357,
      "á¹Ľ": 358,
      "á¹£": 359,
      "Ġyett": 360,
      "ĠS": 361,
      "men": 362,
      "Ġas": 363,
      "dd": 364,
      "edd": 365,
      "Ġyel": 366,
      "Ġus": 367,
      "ett": 368,
      "ĠL": 369,
      "mu": 370,
      "Ġ:": 371,
      "wen": 372,
      "á¹Ńá¹Ń": 373,
      "il": 374,
      "ga": 375,
      "nni": 376,
      "ĠÂ": 377,
      "lan": 378,
      "..": 379,
      "agi": 380,
      "É£a": 381,
      "wal": 382,
      "Ġakken": 383,
      "ez": 384,
      "am": 385,
      "sa": 386,
      "Ġ1": 387,
      "Ġc": 388,
      "Ġseg": 389,
      "qq": 390,
      "aÉ£": 391,
      "ran": 392,
      "ek": 393,
      "wi": 394,
      "Ġm": 395,
      "uÉ£": 396,
      "ent": 397,
      "ekk": 398,
      "man": 399,
      "egg": 400,
      "Ġis": 401,
      "at": 402,
      "mek": 403,
      "Ġac": 404,
      "Ġle": 405,
      "im": 406,
      "Ġf": 407,
      "ĠneÉ£": 408,
      "Ġb": 409,
      "ren": 410,
      "us": 411,
      "ell": 412,
      "ĠB": 413,
      "Ġyis": 414,
      "Ġg": 415,
      "Ġla": 416,
      "mer": 417,
      "lay": 418,
      "uf": 419,
      "ĠÂ«": 420,
      "Ġan": 421,
      "ÄįÄį": 422,
      "ĠUr": 423,
      "ud": 424,
      "lit": 425,
      "ew": 426,
      "ant": 427,
      "iÉ£": 428,
      "ec": 429,
      "ella": 430,
      "ĠÆ": 431,
      "Ġyes": 432,
      "ĠTa": 433,
      "ĠN": 434,
      "Ġar": 435,
      "ÉĽa": 436,
      "Ġtem": 437,
      "urt": 438,
      "Ġtes": 439,
      "Ġway": 440,
      "Ġid": 441,
      "eá¸¥": 442,
      "Ġ,": 443,
      "mez": 444,
      "Ġkra": 445,
      "ca": 446,
      "med": 447,
      "ess": 448,
      "Ġyiwen": 449,
      "qb": 450,
      "mes": 451,
      "á¸įen": 452,
      "Ġ2": 453,
      "di": 454,
      "kken": 455,
      "dan": 456,
      "ziÉ£": 457,
      "Ġz": 458,
      "enna": 459,
      "yi": 460,
      "á¹Ńas": 461,
      "Ġtett": 462,
      "alen": 463,
      "bi": 464,
      "elli": 465,
      "Ã©": 466,
      "Ġr": 467,
      "Ġyella": 468,
      "ta": 469,
      "ti": 470,
      "neÉ£": 471,
      "eÉĽ": 472,
      "Ġum": 473,
      "Ġkan": 474,
      "Ġama": 475,
      "asen": 476,
      "ĠAd": 477,
      "Ġtal": 478,
      "ĠW": 479,
      "du": 480,
      "Ġmi": 481,
      "Ġyem": 482,
      "Ġyess": 483,
      "Ġ\"": 484,
      "kan": 485,
      "on": 486,
      "nsen": 487,
      "Ġimi": 488,
      "Ġayen": 489,
      "Ġyer": 490,
      "Ġula": 491,
      "ci": 492,
      "xx": 493,
      "den": 494,
      "zal": 495,
      "ĠMa": 496,
      "maziÉ£": 497,
      "len": 498,
      "Ġnett": 499,
      "Ġme": 500,
      "ĠTi": 501,
      "fa": 502,
      "win": 503,
      "art": 504,
      "...": 505,
      "Ġwin": 506,
      "dem": 507,
      "Ġts": 508,
      "si": 509,
      "emm": 510,
      "Ġakked": 511,
      "aren": 512,
      "utlay": 513,
      "ka": 514,
      "Ġun": 515,
      "ura": 516,
      "uá¸¥": 517,
      "ĠR": 518,
      "Ġss": 519,
      "eqq": 520,
      "ert": 521,
      "xxam": 522,
      "um": 523,
      "Ġug": 524,
      "qbay": 525,
      "Ç§Ç§": 526,
      "ad": 527,
      "zen": 528,
      "maziÉ£t": 529,
      "Ġyellan": 530,
      "ĠaÉ£": 531,
      "ĠAt": 532,
      "ug": 533,
      "af": 534,
      "Ġtas": 535,
      "meÉ£": 536,
      "Ġtutlay": 537,
      "ĠÆĲ": 538,
      "Ġyal": 539,
      "yin": 540,
      "Â»": 541,
      "ex": 542,
      "Ġyiw": 543,
      "ĠDeg": 544,
      "iá¸į": 545,
      "ist": 546,
      "ĠC": 547,
      "ĠÂ»": 548,
      "nu": 549,
      "Ġx": 550,
      "ruá¸¥": 551,
      "Ġten": 552,
      "Ġass": 553,
      "Ġtez": 554,
      "Ġyid": 555,
      "Ġfell": 556,
      "Ġyez": 557,
      "Ġgar": 558,
      "Ġag": 559,
      "ĠuÉ£": 560,
      "war": 561,
      "Ġnni": 562,
      "murt": 563,
      "ten": 564,
      "emma": 565,
      "Ġak": 566,
      "eh": 567,
      "Ġsi": 568,
      "Ġyeb": 569,
      "ku": 570,
      "raw": 571,
      "ĠF": 572,
      "Ġtag": 573,
      "ak": 574,
      "rid": 575,
      "Ġsin": 576,
      "Ġlá¸¥": 577,
      "awal": 578,
      "Ġtme": 579,
      "Ġtama": 580,
      "ass": 581,
      "Ġuma": 582,
      "ĠAs": 583,
      "Ġwid": 584,
      "Ġil": 585,
      "Ġaá¹Ńas": 586,
      "ban": 587,
      "Ġtef": 588,
      "ber": 589,
      "hi": 590,
      "Ġacu": 591,
      "cu": 592,
      "elt": 593,
      "Ġwayen": 594,
      "Ġ.": 595,
      "Ġim": 596,
      "Ġay": 597,
      "nan": 598,
      "ha": 599,
      "Ġde": 600,
      "medya": 601,
      "ik": 602,
      "gal": 603,
      "fer": 604,
      "qbaylit": 605,
      "uÉ£al": 606,
      "eá¹Ńá¹Ń": 607,
      "Ġawal": 608,
      "Ġtutlayt": 609,
      "Ġyiwet": 610,
      "Ġal": 611,
      "ĠK": 612,
      "Ġin": 613,
      "ris": 614,
      "ĠÉĽ": 615,
      "aÉ£en": 616,
      "ezz": 617,
      "Ġá¸¥": 618,
      "É£en": 619,
      "eff": 620,
      "ÄįÄįi": 621,
      "elma": 622,
      "Ġtin": 623,
      "ayen": 624,
      "Ġp": 625,
      "laq": 626,
      "Ġyim": 627,
      "bu": 628,
      "Ġyef": 629,
      "Ġteb": 630,
      "Ġanda": 631,
      "Ġaz": 632,
      "á¸¤": 633,
      "Ġyin": 634,
      "tin": 635,
      "ala": 636,
      "Ġter": 637,
      "Ġtura": 638,
      "Ġ?": 639,
      "ĠÉ£ur": 640,
      "eá¹Ľ": 641,
      "ĠÆĶ": 642,
      "nneÉ£": 643,
      "ddart": 644,
      "bedd": 645,
      "ej": 646,
      "gara": 647,
      "ĠtÉ£": 648,
      "Ġtmurt": 649,
      "Ġwis": 650,
      "qa": 651,
      "ĠAm": 652,
      "if": 653,
      "Ġuf": 654,
      "Ġllan": 655,
      "Ġmaca": 656,
      "gen": 657,
      ").": 658,
      "mir": 659,
      "sent": 660,
      "Ġ19": 661,
      "ĠiÉ£": 662,
      "uq": 663,
      "Ġtaz": 664,
      "leá¸į": 665,
      "Ġwu": 666,
      "ĠtaÉ£": 667,
      "ĠZ": 668,
      "ĠdaÉ£en": 669,
      "re": 670,
      "Ġ3": 671,
      "int": 672,
      "Ġtis": 673,
      "Ġyenna": 674,
      "nit": 675,
      "Ġtaddart": 676,
      "est": 677,
      "Â»,": 678,
      "ric": 679,
      "iyi": 680,
      "yett": 681,
      "ub": 682,
      "iwin": 683,
      "brid": 684,
      "Ġwal": 685,
      "za": 686,
      "Ġwakken": 687,
      "Ġ20": 688,
      "á¹£á¹£": 689,
      "rab": 690,
      "Ġá¸¤": 691,
      "Ġtan": 692,
      "Ġame": 693,
      "zu": 694,
      "edda": 695,
      "lis": 696,
      "Ġaf": 697,
      "Ġda": 698,
      "eggas": 699,
      "wan": 700,
      "É£i": 701,
      "Ġba": 702,
      "ĠtmaziÉ£t": 703,
      "Ġcc": 704,
      "Ġ!": 705,
      "á¸įris": 706,
      "Ġdu": 707,
      "Ġtay": 708,
      "á¹Ńá¹Ńut": 709,
      "wit": 710,
      "),": 711,
      "Ġamek": 712,
      "ger": 713,
      "rar": 714,
      "ebbi": 715,
      "Ġnekk": 716,
      "Ġnetta": 717,
      "Ġtew": 718,
      "Ġtess": 719,
      "ines": 720,
      "mezwar": 721,
      "Ġtaf": 722,
      "ct": 723,
      "Ġtam": 724,
      "Ġdd": 725,
      "Ġtid": 726,
      "Ġtame": 727,
      "Ġleq": 728,
      "emt": 729,
      "Ġacku": 730,
      "Ġtik": 731,
      "mawen": 732,
      "ili": 733,
      "ali": 734,
      "Ġakka": 735,
      "á¸¥a": 736,
      "Ġilaq": 737,
      "Ġtud": 738,
      "á¸¥ric": 739,
      "fu": 740,
      "erra": 741,
      "reá¸į": 742,
      "gaz": 743,
      "ĠTas": 744,
      "Ġqq": 745,
      "ÉĽan": 746,
      "Ġisem": 747,
      "Ġulac": 748,
      "Ġala": 749,
      "áºĵáºĵ": 750,
      "meslay": 751,
      "Ġazal": 752,
      "nen": 753,
      "om": 754,
      "á¸¥al": 755,
      "Ġá¹": 756,
      "Ġud": 757,
      "ĠteÉ£": 758,
      "zik": 759,
      "namek": 760,
      "ĠiÉĽ": 761,
      "Ġteg": 762,
      "ayt": 763,
      "nat": 764,
      "ĠmaÄįÄįi": 765,
      "Ġat": 766,
      "Ġtar": 767,
      "Ġyew": 768,
      "gi": 769,
      "Ġaya": 770,
      "erru": 771,
      "fen": 772,
      "ab": 773,
      "aÉĽ": 774,
      "Ġuz": 775,
      "Ġnniá¸įen": 776,
      "ĠMi": 777,
      "Ġ4": 778,
      "dden": 779,
      "ĠdÉ£a": 780,
      "Ġix": 781,
      "Ġiz": 782,
      "ĠIs": 783,
      "Ġiman": 784,
      "É£al": 785,
      "cen": 786,
      "les": 787,
      "dam": 788,
      "end": 789,
      "efk": 790,
      "Ġiw": 791,
      "Ġá¹Ńá¹Ń": 792,
      "yu": 793,
      "eww": 794,
      "uren": 795,
      "zan": 796,
      "ult": 797,
      "Ġtella": 798,
      "Ġwawal": 799,
      "awi": 800,
      "ekka": 801,
      "Ġiá¸¥": 802,
      "awalen": 803,
      "ĠG": 804,
      "Ġ/": 805,
      "Ġï": 806,
      "Ġzik": 807,
      "err": 808,
      "fan": 809,
      "lal": 810,
      "Ġbelli": 811,
      "iwen": 812,
      "Ġleá¸¥": 813,
      "Ġwass": 814,
      "ĠH": 815,
      "Ġtim": 816,
      "eÄįÄį": 817,
      "ou": 818,
      "Ġtmu": 819,
      "É£er": 820,
      "ini": 821,
      "Ġaq": 822,
      "ĠleÉĽ": 823,
      "á¸įt": 824,
      "Ġ;": 825,
      "Ġtug": 826,
      "qu": 827,
      "Ġya": 828,
      "ufa": 829,
      "medyaz": 830,
      "Ġyeqq": 831,
      "yan": 832,
      "áºĵri": 833,
      "uk": 834,
      "ib": 835,
      "É£an": 836,
      "reÉ£": 837,
      "danen": 838,
      "Ġiwa": 839,
      "leÉ£": 840,
      "gan": 841,
      "á¸įa": 842,
      "unt": 843,
      "awen": 844,
      "feÉ£": 845,
      "eggasen": 846,
      "ĠAn": 847,
      "Ġtudert": 848,
      "Ġuseggas": 849,
      "irt": 850,
      "Ġwar": 851,
      "rit": 852,
      "Ġsnat": 853,
      "Ġyemma": 854,
      "uri": 855,
      "Ġwas": 856,
      "ray": 857,
      "Ġâ": 858,
      "tti": 859,
      "wt": 860,
      "mud": 861,
      "Ġwi": 862,
      "ect": 863,
      "Ġtf": 864,
      "qqran": 865,
      "Ġdin": 866,
      "Ġ5": 867,
      "aru": 868,
      "ĠP": 869,
      "ekla": 870,
      "Ġtira": 871,
      "lu": 872,
      "sit": 873,
      "yag": 874,
      "was": 875,
      "cem": 876,
      "Ġ[": 877,
      "ĠDi": 878,
      "Ġwan": 879,
      "ben": 880,
      "Ġtaqbaylit": 881,
      "itt": 882,
      "ĠAmek": 883,
      "Ġyerna": 884,
      "ey": 885,
      "eÇ§Ç§": 886,
      "rin": 887,
      "alt": 888,
      "ssan": 889,
      "Ġnes": 890,
      "nes": 891,
      "ebb": 892,
      "ĠMuá¸¥": 893,
      "Ġj": 894,
      "st": 895,
      "udd": 896,
      "Ġleb": 897,
      "res": 898,
      "Ġlx": 899,
      "ĠTizi": 900,
      "xef": 901,
      "ĠyesÉĽa": 902,
      "ĠtaÉĽ": 903,
      "Ġig": 904,
      "elmaden": 905,
      "00": 906,
      "ayer": 907,
      "mar": 908,
      "Ġwaá¹Ńas": 909,
      "Ġyen": 910,
      "á¸įan": 911,
      "Ġyekk": 912,
      "Ġul": 913,
      "mut": 914,
      "ĠyuÉ£al": 915,
      "Ġlq": 916,
      "Ġir": 917,
      "leá¸įt": 918,
      "Ġuxxam": 919,
      "Ġif": 920,
      "mezwaru": 921,
      "dat": 922,
      "Ġq": 923,
      "Ġime": 924,
      "iq": 925,
      "or": 926,
      "Ġzz": 927,
      "Ġit": 928,
      "Ġá¹£á¹£": 929,
      "wac": 930,
      "Ġtaw": 931,
      "yas": 932,
      "nut": 933,
      "Ġyili": 934,
      "Ġlem": 935,
      "ĠlÉĽ": 936,
      "Ġtig": 937,
      "ĠX": 938,
      "bay": 939,
      "lem": 940,
      "der": 941,
      "exdem": 942,
      "Ġyu": 943,
      "awin": 944,
      "rabt": 945,
      "Ġihi": 946,
      "Ġbaba": 947,
      "Ġlex": 948,
      "Ġteqbaylit": 949,
      "á¹Ńa": 950,
      "ig": 951,
      "mal": 952,
      "áºĵar": 953,
      "ĠJ": 954,
      "É£li": 955,
      "Ġtma": 956,
      "ilt": 957,
      "iwant": 958,
      "ĠtalÉ£a": 959,
      "aya": 960,
      "Ġness": 961,
      "Ġacá¸¥al": 962,
      "din": 963,
      "Ġiyi": 964,
      "Ġyisem": 965,
      "Ġ6": 966,
      "Ġabrid": 967,
      "ker": 968,
      "Ġwawalen": 969,
      "Ġwak": 970,
      "yes": 971,
      "ter": 972,
      "han": 973,
      "Ġuq": 974,
      "Ġmmi": 975,
      "ÉĽna": 976,
      "Ġamezwaru": 977,
      "Ġiá¸į": 978,
      "Ġima": 979,
      "yess": 980,
      "aweá¸į": 981,
      "ewwi": 982,
      "lin": 983,
      "xedd": 984,
      "ĠE": 985,
      "way": 986,
      "ĠQ": 987,
      "ÉĽi": 988,
      "Ġyettwa": 989,
      "zz": 990,
      "emmel": 991,
      "Ġyelli": 992,
      "Ġwul": 993,
      "á¸¥en": 994,
      "yer": 995,
      "ĠyesÉĽan": 996,
      "aá¸į": 997,
      "meá¸į": 998,
      "dad": 999,
      "emmi": 1000,
      "idir": 1001,
      "liÉ£": 1002,
      "edmen": 1003,
      "Ġddu": 1004,
      "naf": 1005,
      "umi": 1006,
      "Ġyeá¹Ńá¹Ń": 1007,
      "ynut": 1008,
      "Ġtemna": 1009,
      "ers": 1010,
      "Ġtla": 1011,
      "baÉĽ": 1012,
      "Ġiwakken": 1013,
      "Ġwud": 1014,
      "Ġh": 1015,
      "Ġwaya": 1016,
      "zem": 1017,
      "Ġtaggara": 1018,
      "ĠTom": 1019,
      "xel": 1020,
      "iyen": 1021,
      "layen": 1022,
      "Ġtikk": 1023,
      "Ġtems": 1024,
      "ac": 1025,
      "eáºĵ": 1026,
      "ĠUla": 1027,
      "sist": 1028,
      "rir": 1029,
      "ro": 1030,
      "ĠAkken": 1031,
      "ara": 1032,
      "nadi": 1033,
      "ĠAr": 1034,
      "ĠtuÉ£al": 1035,
      "Ġtili": 1036,
      "isen": 1037,
      "Ġyir": 1038,
      "Ġtmeá¹Ńá¹Ńut": 1039,
      "daÉ£": 1040,
      "ĠRebbi": 1041,
      "Ġyiseggasen": 1042,
      "Ġic": 1043,
      "ĠBu": 1044,
      "Ġnez": 1045,
      "elmad": 1046,
      "mma": 1047,
      "medyazt": 1048,
      "le": 1049,
      "qen": 1050,
      "Ã¨": 1051,
      "efra": 1052,
      "xdem": 1053,
      "wara": 1054,
      "Ġtmetti": 1055,
      "Ġaw": 1056,
      "idi": 1057,
      "deg": 1058,
      "bayel": 1059,
      "beddel": 1060,
      "Ġaxxam": 1061,
      "ken": 1062,
      "hat": 1063,
      "Ġnettat": 1064,
      "nul": 1065,
      "eddi": 1066,
      "Ġ7": 1067,
      "tion": 1068,
      "Ġyeg": 1069,
      "Ġarmi": 1070,
      "ezzayer": 1071,
      "nniá¸įen": 1072,
      "Ġtn": 1073,
      "mend": 1074,
      "Ġwun": 1075,
      "á¹Ľa": 1076,
      "wali": 1077,
      "sentel": 1078,
      "Ġqqaren": 1079,
      "mt": 1080,
      "Ġtk": 1081,
      "ĠtiÉ£": 1082,
      "Ġ0": 1083,
      "Ġyiá¸į": 1084,
      "ion": 1085,
      "gu": 1086,
      "cic": 1087,
      "Ġtallit": 1088,
      "dÉ£a": 1089,
      "Ġger": 1090,
      "qbel": 1091,
      "hil": 1092,
      "Ġitt": 1093,
      "egz": 1094,
      "wel": 1095,
      "Ġugar": 1096,
      "rat": 1097,
      "Ġtidet": 1098,
      "ĠSi": 1099,
      "Ġmedden": 1100,
      "É£eÉ£": 1101,
      "iá¸¥": 1102,
      "baz": 1103,
      "Ġtul": 1104,
      "Ġtel": 1105,
      "Ġtá¸¥": 1106,
      "Ġteá¸¥": 1107,
      "Ġideg": 1108,
      "Ġyezmer": 1109,
      "nar": 1110,
      "Ġmazal": 1111,
      "ĠaÉĽ": 1112,
      "san": 1113,
      "âµ": 1114,
      "lam": 1115,
      "Ġyiman": 1116,
      "Ġteqq": 1117,
      "ĠtesÉĽa": 1118,
      "\".": 1119,
      "Ġkraá¸į": 1120,
      "Ġyeá¸¥": 1121,
      "Ġwaman": 1122,
      "ĠyeÉĽ": 1123,
      "Ġib": 1124,
      "cc": 1125,
      "É£ar": 1126,
      "ĠtÉĽ": 1127,
      "maÉĽ": 1128,
      "ĠÉ£as": 1129,
      "Ġuá¸įris": 1130,
      "rawt": 1131,
      "Ġtazwara": 1132,
      "Ġik": 1133,
      "effir": 1134,
      "Ġtsekla": 1135,
      "Ġtl": 1136,
      "É£ur": 1137,
      "Ġasen": 1138,
      "Ġumdan": 1139,
      "Ġyeá¸į": 1140,
      "efru": 1141,
      "Ġuk": 1142,
      "ĠTam": 1143,
      "su": 1144,
      "ĠIxef": 1145,
      "Ç§a": 1146,
      "ĠÂ».": 1147,
      "Ġ8": 1148,
      "wir": 1149,
      "ebá¸¥": 1150,
      "Ġ201": 1151,
      "mus": 1152,
      "ilin": 1153,
      "tar": 1154,
      "Ġyek": 1155,
      "ĠAy": 1156,
      "Ġtek": 1157,
      "ĠLezzayer": 1158,
      "É£u": 1159,
      "ruy": 1160,
      "imen": 1161,
      "ilen": 1162,
      "ebba": 1163,
      "hem": 1164,
      "Ġdes": 1165,
      "awt": 1166,
      "á¸įin": 1167,
      "laf": 1168,
      "á¹Ńi": 1169,
      "Ġtima": 1170,
      "uma": 1171,
      "wacult": 1172,
      "Ġtedd": 1173,
      "ĠSeg": 1174,
      "rad": 1175,
      "Ġles": 1176,
      "Ġaá¸¥": 1177,
      "eddan": 1178,
      "Ġnn": 1179,
      "Ġiq": 1180,
      "Ġumez": 1181,
      "Ġwudem": 1182,
      "Ġted": 1183,
      "Ġwayeá¸į": 1184,
      "mel": 1185,
      "Ġyismawen": 1186,
      "Ġamen": 1187,
      "efka": 1188,
      "yenna": 1189,
      "ĠAl": 1190,
      "iten": 1191,
      "te": 1192,
      "Ġyedd": 1193,
      "daw": 1194,
      "que": 1195,
      "Ġruá¸¥": 1196,
      "ĠuÉĽ": 1197,
      "Ġdeffir": 1198,
      "wala": 1199,
      "Ġameqqran": 1200,
      "Ġmeqq": 1201,
      "ĠYella": 1202,
      "fi": 1203,
      "ĠtaÉĽrabt": 1204,
      "sel": 1205,
      "bla": 1206,
      "ref": 1207,
      "ki": 1208,
      "zun": 1209,
      "ĠIÉ£": 1210,
      "ĠïĤ": 1211,
      "deÉ£": 1212,
      "uran": 1213,
      "ja": 1214,
      "dint": 1215,
      "Ġubrid": 1216,
      "ĠAss": 1217,
      "qel": 1218,
      "fel": 1219,
      "cah": 1220,
      "ari": 1221,
      "beá¸¥": 1222,
      "Ġwussan": 1223,
      "ÉĽen": 1224,
      "Ġax": 1225,
      "rif": 1226,
      "ner": 1227,
      "gar": 1228,
      "yaá¸į": 1229,
      "Ġyil": 1230,
      "ĠTt": 1231,
      "Ġtikkelt": 1232,
      "ch": 1233,
      "ĠyeÄįÄį": 1234,
      "ĠsÉĽ": 1235,
      "inist": 1236,
      "bar": 1237,
      "Ġtaq": 1238,
      "Ġiruá¸¥": 1239,
      "ĠAg": 1240,
      "ransist": 1241,
      "dud": 1242,
      "Ġá¹Ľ": 1243,
      "ĠTan": 1244,
      "Ġ'": 1245,
      "ÆĲ": 1246,
      "eddu": 1247,
      "Ġtenna": 1248,
      "weá¸į": 1249,
      "mezdaÉ£": 1250,
      "nt": 1251,
      "ĠAá¹Ńas": 1252,
      "erbaz": 1253,
      "Ġyec": 1254,
      "Ġtameá¹Ńá¹Ńut": 1255,
      "mezwarut": 1256,
      "Ġ*": 1257,
      "gun": 1258,
      "teq": 1259,
      "Ġdaxel": 1260,
      "Ġungal": 1261,
      "meslayen": 1262,
      "Ġ9": 1263,
      "Ġá¹Ń": 1264,
      "Ġwamek": 1265,
      "Ġddunit": 1266,
      "ast": 1267,
      "bel": 1268,
      "Ġkk": 1269,
      "Ġtir": 1270,
      "mis": 1271,
      "nin": 1272,
      "Ġmli": 1273,
      "ĠladÉ£a": 1274,
      "ĠtamaziÉ£t": 1275,
      "kka": 1276,
      "ure": 1277,
      "ferd": 1278,
      "Ġtif": 1279,
      "riÉ£": 1280,
      "ĠAz": 1281,
      "dic": 1282,
      "Ġtayri": 1283,
      "ment": 1284,
      "get": 1285,
      "ĠÆĶef": 1286,
      "Ġá¹¬": 1287,
      "Ġyettili": 1288,
      "Ġusel": 1289,
      "nuÉ£": 1290,
      "áºĵi": 1291,
      "rayt": 1292,
      "ce": 1293,
      "ĠyeÇ§Ç§": 1294,
      "git": 1295,
      "gay": 1296,
      "ĠkeÄįÄį": 1297,
      "ĠYett": 1298,
      "niÉ£": 1299,
      "Ġasmi": 1300,
      "ĠlÇ§": 1301,
      "Ġyewwi": 1302,
      "Ġwungal": 1303,
      "É£iÉ£": 1304,
      "rum": 1305,
      "rem": 1306,
      "egga": 1307,
      "áºĵer": 1308,
      "Ġ10": 1309,
      "Ġdayen": 1310,
      "Ġneb": 1311,
      "Ġcwi": 1312,
      "yez": 1313,
      "Ġteq": 1314,
      "ĠIhi": 1315,
      "Ġtz": 1316,
      "ĠAma": 1317,
      "edÉ£eÉ£": 1318,
      "ĠAc": 1319,
      "ĠIl": 1320,
      "qbayli": 1321,
      "ĠTim": 1322,
      "wlan": 1323,
      "uc": 1324,
      "Ġtab": 1325,
      "ĠyeÉ£": 1326,
      "Ġ200": 1327,
      "Ġyif": 1328,
      "gt": 1329,
      "nnes": 1330,
      "naw": 1331,
      "á¹Ńuá¸¥": 1332,
      "Ġá¹ļ": 1333,
      "Ġnaf": 1334,
      "ĠYenna": 1335,
      "uá¸į": 1336,
      "ĠAk": 1337,
      "yel": 1338,
      "ĠLa": 1339,
      "cahut": 1340,
      "Ġtad": 1341,
      "ĠMaca": 1342,
      "Ġyed": 1343,
      "Ġtamezwarut": 1344,
      "beÉĽ": 1345,
      "Ġmebla": 1346,
      "Ġunamek": 1347,
      "mert": 1348,
      "Ġanamek": 1349,
      "our": 1350,
      "ĠyebÉ£a": 1351,
      "rac": 1352,
      "Ġtil": 1353,
      "cict": 1354,
      "anen": 1355,
      "Ġmliá¸¥": 1356,
      "Ġwasmi": 1357,
      "hu": 1358,
      "Ġminist": 1359,
      "fir": 1360,
      "ĠyiÉ£": 1361,
      "Ġtiz": 1362,
      "meÉĽ": 1363,
      "mil": 1364,
      "nal": 1365,
      "qi": 1366,
      "tu": 1367,
      "Ġlá¸¥al": 1368,
      "Ġuc": 1369,
      "Ġamkan": 1370,
      "eqqar": 1371,
      "urar": 1372,
      "laÉ£": 1373,
      "ic": 1374,
      "ĠLeq": 1375,
      "ĠMuá¸¥end": 1376,
      "ĠAyen": 1377,
      "Ġyima": 1378,
      "Ġargaz": 1379,
      "Ġtayeá¸į": 1380,
      "Ġtutlayin": 1381,
      "mit": 1382,
      "udam": 1383,
      "Ġgma": 1384,
      "ĠTag": 1385,
      "ĠTaw": 1386,
      "Ġtila": 1387,
      "far": 1388,
      "Ġtaá¸¥": 1389,
      "Ġumata": 1390,
      "É£iá¸į": 1391,
      "Ġusen": 1392,
      "yar": 1393,
      "ani": 1394,
      "ĠFran": 1395,
      "bad": 1396,
      "ĠÇ": 1397,
      "alay": 1398,
      "erd": 1399,
      "sab": 1400,
      "Ġlqa": 1401,
      "Ġalmi": 1402,
      "á¸įi": 1403,
      "Ġlw": 1404,
      "kel": 1405,
      "Ġtg": 1406,
      "nam": 1407,
      "Ġani": 1408,
      "ebd": 1409,
      "ĠSidi": 1410,
      "enf": 1411,
      "Ġtak": 1412,
      "rus": 1413,
      "Ġleh": 1414,
      "Ġbu": 1415,
      "ukk": 1416,
      "ĠNekk": 1417,
      "Ġyerzan": 1418,
      "eqqa": 1419,
      "qt": 1420,
      "Ġwem": 1421,
      "Ġtamurt": 1422,
      "zer": 1423,
      "ĠAwal": 1424,
      "Ġtent": 1425,
      "ewweá¸į": 1426,
      "awsa": 1427,
      "ebá¸¥it": 1428,
      "waÉ£": 1429,
      "ĠTaz": 1430,
      "wurt": 1431,
      "Ġyexdem": 1432,
      "É£el": 1433,
      "Ġudem": 1434,
      "bir": 1435,
      "Ġtwacult": 1436,
      "nsent": 1437,
      "cix": 1438,
      "Ġahat": 1439,
      "xeddim": 1440,
      "iá¸įen": 1441,
      "Ġcwiá¹Ń": 1442,
      "ÉĻ": 1443,
      "á¸¥t": 1444,
      "á¹£a": 1445,
      "Ġnufa": 1446,
      "Ġamdan": 1447,
      "Ġams": 1448,
      "nas": 1449,
      "ens": 1450,
      "waÇ§": 1451,
      "19": 1452,
      "ebÉĽa": 1453,
      "áºĴ": 1454,
      "Ġiwumi": 1455,
      "Ãª": 1456,
      "áºĵra": 1457,
      "yirt": 1458,
      "Ã¢": 1459,
      "ĠWin": 1460,
      "ĠIsem": 1461,
      "ĠDÉ£a": 1462,
      "Ġtaá¹£": 1463,
      "ĠtÉ£iwant": 1464,
      "Ġleqdic": 1465,
      "dit": 1466,
      "sut": 1467,
      "kayt": 1468,
      "Ġtmedyazt": 1469,
      "wura": 1470,
      "nag": 1471,
      "emres": 1472,
      "Ġtamu": 1473,
      "Ġyelhan": 1474,
      "Ġtuf": 1475,
      "Ġafus": 1476,
      "Ġwad": 1477,
      "Ġaman": 1478,
      "Ġuá¸į": 1479,
      "á¹Ľen": 1480,
      "ĠuÉ£erbaz": 1481,
      "Ġtruá¸¥": 1482,
      "ĠIm": 1483,
      "Ġtx": 1484,
      "Ġyefka": 1485,
      "Ġuga": 1486,
      "Ġyettwas": 1487,
      "nun": 1488,
      "\",": 1489,
      "uft": 1490,
      "reá¸¥": 1491,
      "maziÉ£en": 1492,
      "Ġyimdanen": 1493,
      "ras": 1494,
      "bal": 1495,
      "Ġet": 1496,
      "Ġtec": 1497,
      "Ġtime": 1498,
      "Ġufus": 1499,
      "Ġáºĵ": 1500,
      "Ġleqbayel": 1501,
      "eddem": 1502,
      "lisen": 1503,
      "niwin": 1504,
      "ation": 1505,
      "Ġyidles": 1506,
      "Ġ+": 1507,
      "ezzi": 1508,
      "inu": 1509,
      "Ġwer": 1510,
      "ddit": 1511,
      "gazen": 1512,
      "Ġyakk": 1513,
      "emren": 1514,
      "aá¹Ń": 1515,
      "â´": 1516,
      "Ġsem": 1517,
      "Ġwazal": 1518,
      "ina": 1519,
      "Ġuqbel": 1520,
      "jj": 1521,
      "qran": 1522,
      "ezzu": 1523,
      "cid": 1524,
      "Ġume": 1525,
      "Ġ18": 1526,
      "dec": 1527,
      "Ġagi": 1528,
      "ĠIn": 1529,
      "ÉĽaw": 1530,
      "ire": 1531,
      "tett": 1532,
      "mas": 1533,
      "Ġumawal": 1534,
      "assen": 1535,
      "Ġwag": 1536,
      "á¸įrisen": 1537,
      "effeÉ£": 1538,
      "Ġsdat": 1539,
      "rib": 1540,
      "Ġamzun": 1541,
      "kar": 1542,
      "lalen": 1543,
      "Ġyinelmaden": 1544,
      "Ġimir": 1545,
      "Ġuáºĵ": 1546,
      "Ġnem": 1547,
      "Ġamenzu": 1548,
      "Ġnezmer": 1549,
      "nem": 1550,
      "Ġv": 1551,
      "Ġtemnaá¸įt": 1552,
      "Ġuá¸¥ric": 1553,
      "Ġtaj": 1554,
      "bib": 1555,
      "ĠUn": 1556,
      "eá¹Ńá¹Ńa": 1557,
      "duk": 1558,
      "garaden": 1559,
      "Ġyakan": 1560,
      "ĠO": 1561,
      "Ġuss": 1562,
      "Ġzdat": 1563,
      "20": 1564,
      "Ġtáºĵ": 1565,
      "sin": 1566,
      "Ġkul": 1567,
      "ĠsÉ£ur": 1568,
      "Ġurgaz": 1569,
      "Ġnek": 1570,
      "ĠyuÉ£": 1571,
      "Ġij": 1572,
      "eqda": 1573,
      "alit": 1574,
      "ĠMo": 1575,
      "ĠTaf": 1576,
      "Ġwumi": 1577,
      "ram": 1578,
      "awit": 1579,
      "Ġtmer": 1580,
      "Ġyig": 1581,
      "Ġwiyaá¸į": 1582,
      "ĠFransa": 1583,
      "Ġtekk": 1584,
      "Ġlba": 1585,
      "ĠÆĶer": 1586,
      "Ġïĥ": 1587,
      "Ġkem": 1588,
      "lus": 1589,
      "Ġwam": 1590,
      "hen": 1591,
      "Ġwakud": 1592,
      "las": 1593,
      "Ġicu": 1594,
      "ĠTal": 1595,
      "Ġuá¸¥": 1596,
      "ellid": 1597,
      "ĠÄįÄį": 1598,
      "Ġyemmut": 1599,
      "Ġtimawit": 1600,
      "Ġyeqqim": 1601,
      "ebbu": 1602,
      "ĠLlan": 1603,
      "Ġnut": 1604,
      "Ġmu": 1605,
      "Ġimen": 1606,
      "ĠAq": 1607,
      "Ġiban": 1608,
      "Ġxas": 1609,
      "ĠBen": 1610,
      "Ġsyin": 1611,
      "Ġtc": 1612,
      "her": 1613,
      "Ġ11": 1614,
      "Ġdagi": 1615,
      "uss": 1616,
      "Ġsen": 1617,
      "lil": 1618,
      "Ġtq": 1619,
      "Ġiss": 1620,
      "á¸įu": 1621,
      "ĠTett": 1622,
      "Ġumyag": 1623,
      "Ġmerra": 1624,
      "á¸įal": 1625,
      "Ġ...": 1626,
      "ĠTala": 1627,
      "nect": 1628,
      "asent": 1629,
      "Ġllant": 1630,
      "Ġtaá¹£ebá¸¥it": 1631,
      "ĠSa": 1632,
      "ĠAá¸¥ric": 1633,
      "Ġwallen": 1634,
      "rÃ©": 1635,
      "sas": 1636,
      "ĠYu": 1637,
      "eá¹£": 1638,
      "Ġddaw": 1639,
      "cá¹Ńuá¸¥": 1640,
      "ĠÂ»,": 1641,
      "Ġ15": 1642,
      "Ġawalen": 1643,
      "ĠyeffeÉ£": 1644,
      "yeÇ§Ç§": 1645,
      "eá¹Ľá¹Ľ": 1646,
      "ayri": 1647,
      "ol": 1648,
      "Ġá¸į": 1649,
      "Ġnexdem": 1650,
      "Ġyerra": 1651,
      "iz": 1652,
      "Ġilmend": 1653,
      "yt": 1654,
      "Ġxedmen": 1655,
      "ÉĽu": 1656,
      "ĠYal": 1657,
      "gad": 1658,
      "meÉ£ra": 1659,
      "ĠïĤ·": 1660,
      "gayet": 1661,
      "Ġtej": 1662,
      "erf": 1663,
      "ĠÇ¦": 1664,
      "Ġ12": 1665,
      "eqt": 1666,
      "Ġtemdint": 1667,
      "Ġlf": 1668,
      "Ġtlata": 1669,
      "Ġana": 1670,
      "Ġweá¸¥": 1671,
      "ÉĽid": 1672,
      "Ġih": 1673,
      "Ġwacu": 1674,
      "ser": 1675,
      "walt": 1676,
      "Ġll": 1677,
      "Ġyura": 1678,
      "eá¸įru": 1679,
      "teqsi": 1680,
      "Ġaseggas": 1681,
      "Ġteá¸į": 1682,
      "eddun": 1683,
      "xal": 1684,
      "yef": 1685,
      "ĠÃ": 1686,
      "Ġlawan": 1687,
      "Ġusentel": 1688,
      "Ġwug": 1689,
      "ĠtalÉ£": 1690,
      "ĠYiwen": 1691,
      "eÇ§": 1692,
      "eÉ£t": 1693,
      "Ġsb": 1694,
      "elmi": 1695,
      "eqdec": 1696,
      "eur": 1697,
      "mad": 1698,
      "Ġibedd": 1699,
      "gir": 1700,
      "Ġumi": 1701,
      "ĠlebÉ£i": 1702,
      "Ġtala": 1703,
      "badut": 1704,
      "amen": 1705,
      "Ġtw": 1706,
      "ulen": 1707,
      "eddmen": 1708,
      "gur": 1709,
      "reb": 1710,
      "seÉ£": 1711,
      "let": 1712,
      "rur": 1713,
      "sul": 1714,
      "kem": 1715,
      "Ġdakken": 1716,
      "Ġwe": 1717,
      "run": 1718,
      "yekk": 1719,
      "ĠTin": 1720,
      "Ġ%": 1721,
      "Ġteá¹Ńá¹Ń": 1722,
      "Ġtudd": 1723,
      "ux": 1724,
      "wadem": 1725,
      "irem": 1726,
      "Ġbab": 1727,
      "neÉ£laf": 1728,
      "meáºĵ": 1729,
      "á¸¥u": 1730,
      "ĠImi": 1731,
      "min": 1732,
      "ziz": 1733,
      "Ġttar": 1734,
      "Ġdinna": 1735,
      "ĠSs": 1736,
      "waá¸¥": 1737,
      "Ġumezruy": 1738,
      "kant": 1739,
      "tes": 1740,
      "raá¸¥": 1741,
      "Ġyug": 1742,
      "Ġtuget": 1743,
      "raá¸į": 1744,
      "ÉĽt": 1745,
      "Ġ)": 1746,
      "ĠNett": 1747,
      "az": 1748,
      "ĠUlac": 1749,
      "ne": 1750,
      "Ġaj": 1751,
      "Ġamaru": 1752,
      "ĠBgayet": 1753,
      "Ġyiz": 1754,
      "rew": 1755,
      "siwin": 1756,
      "ĠteÄįÄį": 1757,
      "ĠteÉĽ": 1758,
      "Ġ14": 1759,
      "Ø§": 1760,
      "ĠTaÉ£": 1761,
      "Ã¨re": 1762,
      "Ġmeqqren": 1763,
      "ĠYi": 1764,
      "emmast": 1765,
      "ĠZz": 1766,
      "ah": 1767,
      "Ġab": 1768,
      "ĠAxxam": 1769,
      "Ġ199": 1770,
      "ferdisen": 1771,
      "ulin": 1772,
      "uá¹Ľ": 1773,
      "Ġtefransist": 1774,
      "Ġtams": 1775,
      "Ġá¹£": 1776,
      "ĠlaÉĽ": 1777,
      "ĠassaÉ£": 1778,
      "ejdan": 1779,
      "Ġnutni": 1780,
      "liman": 1781,
      "edmeÉ£": 1782,
      "ĠMar": 1783,
      "ĠMaÄįÄįi": 1784,
      "Ġamaynut": 1785,
      "wet": 1786,
      "emmu": 1787,
      "Ġ13": 1788,
      "ĠAb": 1789,
      "ĠtuÉ£": 1790,
      "Ġccna": 1791,
      "Ġwat": 1792,
      "Ġ198": 1793,
      "wiÉ£": 1794,
      "erna": 1795,
      "ust": 1796,
      "Ġyixef": 1797,
      "Ġanida": 1798,
      "ĠMd": 1799,
      "dim": 1800,
      "Ġá¹¢": 1801,
      "ÉĽad": 1802,
      "Ġini": 1803,
      "Ġyebda": 1804,
      "nulfu": 1805,
      "Ġniá¸įen": 1806,
      "Ġumkan": 1807,
      "Ġpro": 1808,
      "neá¸į": 1809,
      "Ġtat": 1810,
      "Ġtuss": 1811,
      "á¹Ńij": 1812,
      "ĠLeqbayel": 1813,
      "seá¸į": 1814,
      "ĠTura": 1815,
      "ĠTame": 1816,
      "Ġtemnaá¸įin": 1817,
      "fiÉ£": 1818,
      "ĠiÉ£ef": 1819,
      "ĠsÉĽan": 1820,
      "ileÉ£": 1821,
      "Ġiger": 1822,
      "afen": 1823,
      "ĠtaÉ£iwant": 1824,
      "ĠáºĴ": 1825,
      "ĠÆĶas": 1826,
      "Ġwammud": 1827,
      "erb": 1828,
      "Ġiseggasen": 1829,
      "Ġalamma": 1830,
      "ÉĽed": 1831,
      "Ġyeá¹Ńá¹Ńef": 1832,
      "raÉ£": 1833,
      "ĠYes": 1834,
      "eá¹£á¹£": 1835,
      "lent": 1836,
      "ine": 1837,
      "á¹Ńá¹Ńan": 1838,
      "nil": 1839,
      "Ġusefru": 1840,
      "Ġwarraw": 1841,
      "ĠIlaq": 1842,
      "ĠiÉĽeddan": 1843,
      "Ġrr": 1844,
      "ĠAÉ£": 1845,
      "ĠÆĲli": 1846,
      "ĠuneÉ£laf": 1847,
      "Ġtikli": 1848,
      "yant": 1849,
      "Ġaáºĵ": 1850,
      "ellu": 1851,
      "berdan": 1852,
      "rimen": 1853,
      "emmur": 1854,
      "Ġlweqt": 1855,
      "aq": 1856,
      "uÉ£en": 1857,
      "uqilt": 1858,
      "uh": 1859,
      "Ġimu": 1860,
      "ĠLá¸¥": 1861,
      "meÉ£ri": 1862,
      "zÉ£a": 1863,
      "iwelt": 1864,
      "ĠTama": 1865,
      "ĠlliÉ£": 1866,
      "ĠII": 1867,
      "Ġtafat": 1868,
      "asi": 1869,
      "ĠBel": 1870,
      "ĠtebÉ£iá¸į": 1871,
      "met": 1872,
      "ĠTu": 1873,
      "ĠTamaziÉ£t": 1874,
      "ĠtmuÉ£li": 1875,
      "Ġyex": 1876,
      "maten": 1877,
      "áºĵriÉ£": 1878,
      "list": 1879,
      "á¹Ľan": 1880,
      "ekcem": 1881,
      "allen": 1882,
      "ĠbÉ£iÉ£": 1883,
      "Ġcon": 1884,
      "cuha": 1885,
      "kt": 1886,
      "á¸įiq": 1887,
      "Ġaá¸¥ric": 1888,
      "Ġá¹Ľá¹Ľ": 1889,
      "ugen": 1890,
      "iweá¸į": 1891,
      "nteÉ£": 1892,
      "sb": 1893,
      "Ġudlis": 1894,
      "Ġwexxam": 1895,
      "):": 1896,
      "day": 1897,
      "iniÉ£": 1898,
      "ecmen": 1899,
      "Ġtic": 1900,
      "dukk": 1901,
      "Ġussan": 1902,
      "Ġty": 1903,
      "É£art": 1904,
      "rant": 1905,
      "Ġyekka": 1906,
      "Ġtj": 1907,
      "de": 1908,
      "Ġ<": 1909,
      "á¸¥ricen": 1910,
      "Ġumen": 1911,
      "Ġamez": 1912,
      "Â».": 1913,
      "ix": 1914,
      "mat": 1915,
      "ĠAÉĽ": 1916,
      "gin": 1917,
      "ĠUs": 1918,
      "baÉĽt": 1919,
      "Ġyime": 1920,
      "ellal": 1921,
      "say": 1922,
      "seb": 1923,
      "raf": 1924,
      "oo": 1925,
      "ufan": 1926,
      "Ġteáºĵ": 1927,
      "Ġteáºĵri": 1928,
      "ĠTaÉĽ": 1929,
      "ĠAf": 1930,
      "Ġlew": 1931,
      "Ġilelli": 1932,
      "lif": 1933,
      "Ġtlawin": 1934,
      "Ġwassa": 1935,
      "fÉ£en": 1936,
      "rek": 1937,
      "Ġtikwal": 1938,
      "Ġwagi": 1939,
      "essa": 1940,
      "milt": 1941,
      "eá¹Ń": 1942,
      "Ġtewwi": 1943,
      "Ġwur": 1944,
      "arut": 1945,
      "rirt": 1946,
      "garad": 1947,
      "Ġtex": 1948,
      "Ġmgal": 1949,
      "á¸įeÉ£": 1950,
      "Ġums": 1951,
      "Ġtasleá¸įt": 1952,
      "Ġ16": 1953,
      "uj": 1954,
      "ĠnneÉ£": 1955,
      "Ġtesleá¸įt": 1956,
      "tent": 1957,
      "mezwura": 1958,
      "Ġtant": 1959,
      "rt": 1960,
      "hel": 1961,
      "ĠyiÉ£er": 1962,
      "Ġaá¸įris": 1963,
      "ulud": 1964,
      "Ġismawen": 1965,
      "egzawal": 1966,
      "aá¸¥": 1967,
      "Ġá¹ļebbi": 1968,
      "lilit": 1969,
      "Ġtugna": 1970,
      "ĠnniÉ£": 1971,
      "eá¹Ńá¹Ńef": 1972,
      "ĠTar": 1973,
      "Ġadeg": 1974,
      "irin": 1975,
      "zzu": 1976,
      "iwel": 1977,
      "ĠtesÉĽ": 1978,
      "Ġlxir": 1979,
      "Ġberra": 1980,
      "ĠIÉ£il": 1981,
      "satin": 1982,
      "ĠuÉ£alen": 1983,
      "ĠAnamek": 1984,
      "iren": 1985,
      "rez": 1986,
      "Ġlmut": 1987,
      "ĠYewweá¸į": 1988,
      "Ġci": 1989,
      "ertit": 1990,
      "nwen": 1991,
      "Ġtelli": 1992,
      "Ġamedya": 1993,
      "ĠTasleá¸įt": 1994,
      "Ġtigawt": 1995,
      "yeá¸į": 1996,
      "layt": 1997,
      "Ġwadeg": 1998,
      "Ġministre": 1999,
      "ness": 2000,
      "á¹Ńan": 2001,
      "xxamt": 2002,
      "Ġyezmir": 2003,
      "Ġtmura": 2004,
      "ĠáºĵriÉ£": 2005,
      "mid": 2006,
      "Ġnnig": 2007,
      "berkan": 2008,
      "Ġyeá¸įran": 2009,
      "Ġaáºĵar": 2010,
      "anin": 2011,
      "Ġunadi": 2012,
      "mekti": 2013,
      "fali": 2014,
      "Ġwakal": 2015,
      "Ç§u": 2016,
      "ĠtamuÉ£li": 2017,
      "enni": 2018,
      "Ġimdanen": 2019,
      "efren": 2020,
      "ĠMass": 2021,
      "uqel": 2022,
      "meÉĽna": 2023,
      "Ġtergal": 2024,
      "uter": 2025,
      "Ġtagnit": 2026,
      "genni": 2027,
      "Ġweá¸¥d": 2028,
      "ÉĽer": 2029,
      "ĠAá¸¥": 2030,
      "Ġkemm": 2031,
      "Ġssuq": 2032,
      "ÉĽin": 2033,
      "ĠleÉĽmer": 2034,
      "bed": 2035,
      "Ġumaá¸įal": 2036,
      "''": 2037,
      "cum": 2038,
      "qay": 2039,
      "sif": 2040,
      "Ġyufa": 2041,
      "Ġttem": 2042,
      "Ġtib": 2043,
      "hal": 2044,
      "Ç§in": 2045,
      "ĠKra": 2046,
      "Ġlk": 2047,
      "Ġtiw": 2048,
      "Ġïĥĺ": 2049,
      "Ġnsen": 2050,
      "Ġub": 2051,
      "Ġuáºĵar": 2052,
      "latin": 2053,
      "awsiwin": 2054,
      "ufeÉ£": 2055,
      "lant": 2056,
      "sum": 2057,
      "Ġen": 2058,
      "Ġyekcem": 2059,
      "ama": 2060,
      "damen": 2061,
      "ĠCcix": 2062,
      "ima": 2063,
      "ER": 2064,
      "Ġtac": 2065,
      "ĠTes": 2066,
      "É£unt": 2067,
      "meá¸¥": 2068,
      "eáºĵáºĵ": 2069,
      "yefk": 2070,
      "nawen": 2071,
      "sental": 2072,
      "Ġyiwudam": 2073,
      "....": 2074,
      "ĠimezdaÉ£": 2075,
      "ĠzedÉ£eÉ£": 2076,
      "Ġ17": 2077,
      "Ġá¸¤med": 2078,
      "zt": 2079,
      "ĠneÉĽ": 2080,
      "ĠSaÉĽ": 2081,
      "Ġtamen": 2082,
      "baá¸¥": 2083,
      "akin": 2084,
      "Ġyemgaraden": 2085,
      "Ġasentel": 2086,
      "ÆĶ": 2087,
      "yem": 2088,
      "alu": 2089,
      "ĠtÉ£a": 2090,
      "Ġunti": 2091,
      "ĠV": 2092,
      "raren": 2093,
      "beÉ£": 2094,
      "Ġudd": 2095,
      "ririt": 2096,
      "xeddem": 2097,
      "sayen": 2098,
      "kit": 2099,
      "Ġanwa": 2100,
      "Ġicudden": 2101,
      "rut": 2102,
      "riqt": 2103,
      "lat": 2104,
      "Ġtarrayt": 2105,
      "se": 2106,
      "rud": 2107,
      "ĠyeÉĽnan": 2108,
      "Ġamalay": 2109,
      "Ġayagi": 2110,
      "Ġtmes": 2111,
      "nerni": 2112,
      "neb": 2113,
      "ĠAcu": 2114,
      "bes": 2115,
      "ĠYess": 2116,
      "xxamen": 2117,
      "ĠSliman": 2118,
      "Ĺı": 2119,
      "Ġyeqqar": 2120,
      "del": 2121,
      "Ġaqbayli": 2122,
      "Ġtefyirt": 2123,
      "ĠDda": 2124,
      "á¹£er": 2125,
      "Ġyezga": 2126,
      "ĠTiÉ£": 2127,
      "Ġyewweá¸į": 2128,
      "edÉ£en": 2129,
      "kul": 2130,
      "ĠSal": 2131,
      "á¹£el": 2132,
      "uÉ£alen": 2133,
      "wes": 2134,
      "Ġ$": 2135,
      "á¹Ńel": 2136,
      "eqqim": 2137,
      "Ġyettw": 2138,
      "Ġimawlan": 2139,
      "hed": 2140,
      "nini": 2141,
      "Ġtilawt": 2142,
      "yul": 2143,
      "eld": 2144,
      "Ġlu": 2145,
      "dawit": 2146,
      "qed": 2147,
      "emmat": 2148,
      "bin": 2149,
      "hwa": 2150,
      "ezmer": 2151,
      "rart": 2152,
      "sis": 2153,
      "ement": 2154,
      "Ġuselmed": 2155,
      "Ġwaddad": 2156,
      "tess": 2157,
      "Ġallen": 2158,
      "lah": 2159,
      "meslayt": 2160,
      "aÉ£t": 2161,
      "Ġtawsit": 2162,
      "Ġteqqim": 2163,
      "zemreá¸į": 2164,
      "bur": 2165,
      "eá¹Ńá¹Ńal": 2166,
      "emmer": 2167,
      "iá¹Ľ": 2168,
      "Ġyimu": 2169,
      "Ġyisefra": 2170,
      "eá¸įruyen": 2171,
      "Ġakkin": 2172,
      "ĠnesÉĽi": 2173,
      "aleÉ£": 2174,
      "Ġtimu": 2175,
      "Ġtwal": 2176,
      "ĠamaziÉ£": 2177,
      "ecc": 2178,
      "nek": 2179,
      "Ġumaru": 2180,
      "Ġca": 2181,
      "á¸¥er": 2182,
      "uddem": 2183,
      "feá¸į": 2184,
      "eggaru": 2185,
      "ĠteÉ£zi": 2186,
      "dak": 2187,
      "ction": 2188,
      "eyy": 2189,
      "Ġtmacahut": 2190,
      "Ġyemdanen": 2191,
      "Ġyettidir": 2192,
      "Ġyet": 2193,
      "OU": 2194,
      "Ġtezrawt": 2195,
      "Ġtikelt": 2196,
      "egzi": 2197,
      "imt": 2198,
      "ĠAkli": 2199,
      "É£aren": 2200,
      "ĠZzedÉ£eÉ£": 2201,
      "AL": 2202,
      "qamu": 2203,
      "Ġyimi": 2204,
      "net": 2205,
      "Ġufella": 2206,
      "Ġtegnit": 2207,
      "Ġtun": 2208,
      "Ġtullist": 2209,
      "Ġasuf": 2210,
      "Ġlek": 2211,
      "awá¸įen": 2212,
      "Ġtur": 2213,
      "Ġwarrac": 2214,
      "iÉĽ": 2215,
      "rent": 2216,
      "au": 2217,
      "Ġumezgun": 2218,
      "laya": 2219,
      "Ġyessen": 2220,
      "Ġyeq": 2221,
      "eqs": 2222,
      "Ġtsedd": 2223,
      "ĠTis": 2224,
      "Ġtus": 2225,
      "Ġixeddem": 2226,
      "ĠQq": 2227,
      "Ġuqerru": 2228,
      "zin": 2229,
      "Ġtezga": 2230,
      "Ġines": 2231,
      "medyaten": 2232,
      "Ç§Ç§a": 2233,
      "ĠyimezdaÉ£": 2234,
      "qqrant": 2235,
      "emmed": 2236,
      "Ġugafa": 2237,
      "eqdac": 2238,
      "Â«": 2239,
      "sulÉ£a": 2240,
      "yagen": 2241,
      "tta": 2242,
      "aá¹Ńer": 2243,
      "EN": 2244,
      "á¸Į": 2245,
      "ĠAkka": 2246,
      "ebdu": 2247,
      "Ã®": 2248,
      "Ġlá¸¥if": 2249,
      "yini": 2250,
      "rawla": 2251,
      "Ġteá¸¥kayt": 2252,
      "Ġnnan": 2253,
      "mirt": 2254,
      "Ġlexla": 2255,
      "ĠYidir": 2256,
      "Ġagejdan": 2257,
      "Ġukk": 2258,
      "á¹Ľuá¸¥": 2259,
      "Ç§Ç§an": 2260,
      "ader": 2261,
      "nawt": 2262,
      "op": 2263,
      "á¸¥i": 2264,
      "zit": 2265,
      "fed": 2266,
      "rak": 2267,
      "falit": 2268,
      "hegg": 2269,
      "sef": 2270,
      "ĠMary": 2271,
      "áºĵul": 2272,
      "emmleÉ£": 2273,
      "lec": 2274,
      "raq": 2275,
      "Ġner": 2276,
      "Ġazekka": 2277,
      "Ġaqerru": 2278,
      "yellan": 2279,
      "Ġiáºĵ": 2280,
      "Ġáºĵáºĵ": 2281,
      "ĠAsmi": 2282,
      "awan": 2283,
      "Ġtims": 2284,
      "naÉ£": 2285,
      "Ġannect": 2286,
      "Ġruá¸¥eÉ£": 2287,
      "Ġlma": 2288,
      "Ġyezrin": 2289,
      "Ġtagara": 2290,
      "Ġtewwurt": 2291,
      "ĨĴ": 2292,
      "Ġumu": 2293,
      "Ġsur": 2294,
      "dduk": 2295,
      "As": 2296,
      "yew": 2297,
      "Ġtwi": 2298,
      "Ġtmen": 2299,
      "iwt": 2300,
      "Ġnt": 2301,
      "ebtar": 2302,
      "kin": 2303,
      "ale": 2304,
      "ĠÆĲebd": 2305,
      "Ta": 2306,
      "ufi": 2307,
      "Ġnekkni": 2308,
      "nÃ©": 2309,
      "Ġne": 2310,
      "amul": 2311,
      "Ġtlemmast": 2312,
      "ferá¸¥": 2313,
      "wer": 2314,
      "erá¸¥": 2315,
      "Ġyetta": 2316,
      "ĠxedmeÉ£": 2317,
      "Ġ{": 2318,
      "Ġtettili": 2319,
      "yefkan": 2320,
      "Ġlec": 2321,
      "ÉĽedda": 2322,
      "Ġssa": 2323,
      "Ġadlis": 2324,
      "ĠTef": 2325,
      "Ġtameqqrant": 2326,
      "yit": 2327,
      "Ġuj": 2328,
      "ĠTmaziÉ£t": 2329,
      "Ġlwi": 2330,
      "Ġtm": 2331,
      "ulfan": 2332,
      "Ġttwa": 2333,
      "ĠlqaÉĽa": 2334,
      "uffeÉ£": 2335,
      "rawen": 2336,
      "dammen": 2337,
      "MA": 2338,
      "naá¸įt": 2339,
      "ĠtebÉ£a": 2340,
      "ÙĦ": 2341,
      "ĠuÉ£lif": 2342,
      "elá¸¥": 2343,
      "baá¸¥a": 2344,
      "lib": 2345,
      "Ġttwal": 2346,
      "emmas": 2347,
      "awa": 2348,
      "mekt": 2349,
      "ĠâĹı": 2350,
      "Ġisefra": 2351,
      "ĠmeÉĽna": 2352,
      "Ġyernu": 2353,
      "ĠlÉ£a": 2354,
      "Ġzzit": 2355,
      "lel": 2356,
      "Ġha": 2357,
      "Ġneg": 2358,
      "Ġtiá¹Ń": 2359,
      "Ġinelmaden": 2360,
      "Ġfella": 2361,
      "Ġakud": 2362,
      "Ġá¹£á¹£enf": 2363,
      "RA": 2364,
      "Ġaá¸į": 2365,
      "rag": 2366,
      "wat": 2367,
      "yya": 2368,
      "gired": 2369,
      "Ġatt": 2370,
      "Ġlá¸¥a": 2371,
      "eyya": 2372,
      "rawin": 2373,
      "arin": 2374,
      "edma": 2375,
      "Ġbedd": 2376,
      "Ġyennayer": 2377,
      "muq": 2378,
      "ĠAcá¸¥al": 2379,
      "lul": 2380,
      "ĠÃ©": 2381,
      "nnig": 2382,
      "Ġxeddmen": 2383,
      "Ġtamedyazt": 2384,
      "Ġyiá¸įrisen": 2385,
      "xedmen": 2386,
      "raz": 2387,
      "á¹£ib": 2388,
      "Ġubeddel": 2389,
      "ssa": 2390,
      "iban": 2391,
      "Ġsek": 2392,
      "Ġtewsatin": 2393,
      "Ġuxeddim": 2394,
      "unin": 2395,
      "ĠyebÉ£an": 2396,
      "qer": 2397,
      "arren": 2398,
      "Ġ''": 2399,
      "Ġtmerna": 2400,
      "sem": 2401,
      "yeg": 2402,
      "isa": 2403,
      "eá¹Ńá¹Ńalen": 2404,
      "Ġmelmi": 2405,
      "10": 2406,
      "Ġtudrin": 2407,
      "ĠteÉ£ri": 2408,
      "remt": 2409,
      "á¹Ńu": 2410,
      "Ġyimawlan": 2411,
      "wiÉĽt": 2412,
      "ekker": 2413,
      "Ġilem": 2414,
      "Ġtefsut": 2415,
      "inek": 2416,
      "Ġmeáºĵáºĵ": 2417,
      "ji": 2418,
      "ĠTili": 2419,
      "tut": 2420,
      "yewwi": 2421,
      "Ġwen": 2422,
      "Ġttaw": 2423,
      "ĠØ": 2424,
      "Ġamyag": 2425,
      "utlayt": 2426,
      "ĠtÉ£awsa": 2427,
      "ferdis": 2428,
      "yus": 2429,
      "Ġrnu": 2430,
      "aken": 2431,
      "ĠleÉĽqel": 2432,
      "ĠBa": 2433,
      "ret": 2434,
      "á¹Ńeq": 2435,
      "che": 2436,
      "Ġtfekka": 2437,
      "Ġiswi": 2438,
      "gel": 2439,
      "ĠTub": 2440,
      "ekkes": 2441,
      "req": 2442,
      "Ġuna": 2443,
      "Ġakin": 2444,
      "uz": 2445,
      "rest": 2446,
      "Ġakal": 2447,
      "emmad": 2448,
      "uct": 2449,
      "yal": 2450,
      "Ġth": 2451,
      "Ġweb": 2452,
      "tas": 2453,
      "Ġruá¸¥en": 2454,
      "bas": 2455,
      "beá¸į": 2456,
      "eÉ£li": 2457,
      "Ġ25": 2458,
      "aneÉ£": 2459,
      "Ġmaá¸įi": 2460,
      "Ġyuran": 2461,
      "ĠAáºĵar": 2462,
      "galen": 2463,
      "Ġlmu": 2464,
      "ĠTeb": 2465,
      "Ġilin": 2466,
      "zizen": 2467,
      "har": 2468,
      "ĠTug": 2469,
      "ĠMas": 2470,
      "eggarut": 2471,
      "fun": 2472,
      "ĠMen": 2473,
      "Ġtemsalt": 2474,
      "Ġamur": 2475,
      "Ġtta": 2476,
      "ĠWezzu": 2477,
      "Ġifa": 2478,
      "ĠAmedya": 2479,
      "ĠGar": 2480,
      "yeÇ§Ç§an": 2481,
      "Ġimes": 2482,
      "Ġifer": 2483,
      "eggaÉ£": 2484,
      "natin": 2485,
      "dabu": 2486,
      "ĠIsmawen": 2487,
      "ev": 2488,
      "nayen": 2489,
      "ĠministÃ¨re": 2490,
      "meáºĵyen": 2491,
      "Ad": 2492,
      "eft": 2493,
      "aten": 2494,
      "ĠyeÇ§Ç§a": 2495,
      "ĠyeÉ£li": 2496,
      "ĠNniÉ£": 2497,
      "Ġsrid": 2498,
      "Ġatan": 2499,
      "rim": 2500,
      "Ġamatu": 2501,
      "mireÉ£": 2502,
      "iden": 2503,
      "Ġasel": 2504,
      "Ġaneggaru": 2505,
      "laá¸¥": 2506,
      "ĠyettuÉ£al": 2507,
      "uddes": 2508,
      "sub": 2509,
      "uÉ£er": 2510,
      "elle": 2511,
      "Ġrray": 2512,
      "Ġtalwit": 2513,
      "iá¸¥ala": 2514,
      "siwen": 2515,
      "Ġiá¸¥emmel": 2516,
      "allet": 2517,
      "Ġtexxamt": 2518,
      "Ġtikti": 2519,
      "Ġe": 2520,
      "Ġtami": 2521,
      "Ġ195": 2522,
      "ĠMÉĽ": 2523,
      "ĠdiÉ£en": 2524,
      "ĠSyin": 2525,
      "leb": 2526,
      "ĠTella": 2527,
      "yeqq": 2528,
      "Ġaxeddim": 2529,
      "Ġyak": 2530,
      "erri": 2531,
      "neg": 2532,
      "nett": 2533,
      "nus": 2534,
      "ĠTid": 2535,
      "Ġpar": 2536,
      "ĠtaÉ£ult": 2537,
      "Ġifassen": 2538,
      "ort": 2539,
      "Ġ}": 2540,
      "emmlen": 2541,
      "assin": 2542,
      "ĠwallaÉ£": 2543,
      "Ġtewsit": 2544,
      "ĠtalÉ£iwin": 2545,
      "200": 2546,
      "ental": 2547,
      "Ġyessefk": 2548,
      "niá¸į": 2549,
      "ĠId": 2550,
      "Ġlebni": 2551,
      "Ġinu": 2552,
      "lemt": 2553,
      "Ġns": 2554,
      "á¹Ńar": 2555,
      "Ġameqran": 2556,
      "Ġ196": 2557,
      "Ġ=": 2558,
      "emreÉ£": 2559,
      "Ġtameddit": 2560,
      "Ġweg": 2561,
      "ynuten": 2562,
      "yura": 2563,
      "etma": 2564,
      "sant": 2565,
      "tiwin": 2566,
      "yun": 2567,
      "Ġwala": 2568,
      "ĠIf": 2569,
      "uv": 2570,
      "ĠtaÉ£awsa": 2571,
      "Ġsegmi": 2572,
      "tiniá¸į": 2573,
      "ham": 2574,
      "him": 2575,
      "Ġtesdawit": 2576,
      "ĠufiÉ£": 2577,
      "Ġteá¹Ńá¹Ńef": 2578,
      "Ġlwilaya": 2579,
      "Ġaru": 2580,
      "wint": 2581,
      "ĠNna": 2582,
      "ĠHa": 2583,
      "liwin": 2584,
      "Ġtum": 2585,
      "tsen": 2586,
      "Ġïģ": 2587,
      "atg": 2588,
      "Ġiwata": 2589,
      "Ġtawwurt": 2590,
      "oun": 2591,
      "erfan": 2592,
      "Ġtr": 2593,
      "Ġleá¹£": 2594,
      "ruf": 2595,
      "Ġâµ": 2596,
      "zut": 2597,
      "</": 2598,
      "Ġina": 2599,
      "isem": 2600,
      "ĠAla": 2601,
      "edmeá¸į": 2602,
      "Ġteqcict": 2603,
      "Ġtettwa": 2604,
      "Ġtaqcict": 2605,
      "ugan": 2606,
      "ĠtÉ£awsiwin": 2607,
      "Ġtmez": 2608,
      "ellaá¸¥t": 2609,
      "yawi": 2610,
      "efhem": 2611,
      "ĠYeb": 2612,
      "Ġzemren": 2613,
      "ela": 2614,
      "ĠteffeÉ£": 2615,
      "Ġimaynuten": 2616,
      "Ġtatrart": 2617,
      "Ġtsen": 2618,
      "Ġtiq": 2619,
      "bat": 2620,
      "ddurt": 2621,
      "mest": 2622,
      "Ġsakin": 2623,
      "Ġneqqar": 2624,
      "Ġtsiwelt": 2625,
      "ĠÆĲin": 2626,
      "Ġyebna": 2627,
      "Ġiwala": 2628,
      "iteddun": 2629,
      "ilif": 2630,
      "pp": 2631,
      "Ġah": 2632,
      "eggura": 2633,
      "ĠtÉ£uri": 2634,
      "á¸¥aÇ§": 2635,
      "Ġlwel": 2636,
      "Ġyelha": 2637,
      "Ġtagi": 2638,
      "usem": 2639,
      "ĠteÉ£ra": 2640,
      "mara": 2641,
      "ĠAhat": 2642,
      "Ġcom": 2643,
      "yur": 2644,
      "Ġsa": 2645,
      "Ġyecban": 2646,
      "beÉĽd": 2647,
      "muzÉ£a": 2648,
      "Ġlej": 2649,
      "ĠTig": 2650,
      "Ġlmal": 2651,
      "erma": 2652,
      "uru": 2653,
      "Ġtebda": 2654,
      "12": 2655,
      "diÉ£": 2656,
      "Ġliá¸¥ala": 2657,
      "Ġken": 2658,
      "Ġasek": 2659,
      "ĠleÉ£": 2660,
      "ĠTik": 2661,
      "ĠCc": 2662,
      "Ġtezmer": 2663,
      "ih": 2664,
      "mun": 2665,
      "Ġwuguren": 2666,
      "wu": 2667,
      "ddukk": 2668,
      "ĠSaÉĽid": 2669,
      "raya": 2670,
      "yewwin": 2671,
      "nej": 2672,
      "Ġ197": 2673,
      "Ġyekker": 2674,
      "ĠsÉĽiÉ£": 2675,
      "Ġamaruz": 2676,
      "ĠlÉ£aci": 2677,
      "ĠSb": 2678,
      "Ġumahil": 2679,
      "000": 2680,
      "18": 2681,
      "daÉ£en": 2682,
      "iyin": 2683,
      "yeb": 2684,
      "Ġallal": 2685,
      "Ġuselway": 2686,
      "qim": 2687,
      "Ġddin": 2688,
      "Ġtussna": 2689,
      "nebder": 2690,
      "imi": 2691,
      "Ġlferá¸¥": 2692,
      "Ġ30": 2693,
      "errumt": 2694,
      "Ġwanda": 2695,
      "ĠtmeÉ£ra": 2696,
      "uff": 2697,
      "teqsiyen": 2698,
      "Ġww": 2699,
      "Ġterra": 2700,
      "awel": 2701,
      "Ġalemmas": 2702,
      "Ġuá¸įar": 2703,
      "Ġyettwar": 2704,
      "Ġtugniwin": 2705,
      "á¹Ńaá¸¥": 2706,
      "ĠYiÉ£": 2707,
      "nant": 2708,
      "nawi": 2709,
      "Ġtebna": 2710,
      "uÉ£t": 2711,
      "ĠTiz": 2712,
      "yuÉ£al": 2713,
      "rasen": 2714,
      "Ġwes": 2715,
      "á¸¥end": 2716,
      "Ġtaáºĵ": 2717,
      "ĠyiÉĽ": 2718,
      "ral": 2719,
      "raben": 2720,
      "Ġamecá¹Ńuá¸¥": 2721,
      "Ġtekcem": 2722,
      "Ġumes": 2723,
      "alaÉ£": 2724,
      "Î¸": 2725,
      "ĠTez": 2726,
      "yaf": 2727,
      "Ġyiselmaden": 2728,
      "ĠyesÉĽi": 2729,
      "ĠAh": 2730,
      "emmaá¸į": 2731,
      "Ġyekkes": 2732,
      "ĠLwen": 2733,
      "ĠzmireÉ£": 2734,
      "oud": 2735,
      "umer": 2736,
      "vi": 2737,
      "Ġames": 2738,
      "ĠAw": 2739,
      "adi": 2740,
      "Ġlwelha": 2741,
      "ĠnuÉ£al": 2742,
      "ayin": 2743,
      "demt": 2744,
      "Ġunebdu": 2745,
      "Ġux": 2746,
      "Ġyisental": 2747,
      "Ġkullec": 2748,
      "Ġimezwura": 2749,
      "zayri": 2750,
      "Ġanect": 2751,
      "Ġlá¸¥eb": 2752,
      "unefk": 2753,
      "iret": 2754,
      "ĠTaqbaylit": 2755,
      "Ġtezmir": 2756,
      "Ġtifrat": 2757,
      "mam": 2758,
      "á¸¥an": 2759,
      "ÉĽedd": 2760,
      "ula": 2761,
      "Ġsm": 2762,
      "áºĵur": 2763,
      "ĠUzzu": 2764,
      "yeff": 2765,
      "Ġo": 2766,
      "Ġbac": 2767,
      "Ġudrar": 2768,
      "Ġtasa": 2769,
      "Ġlef": 2770,
      "Ġuw": 2771,
      "ĠIg": 2772,
      "mum": 2773,
      "Ġwed": 2774,
      "yaÉ£": 2775,
      "ĠAql": 2776,
      "Ġyiá¹Ńij": 2777,
      "Ġtaman": 2778,
      "Ġidrimen": 2779,
      "ĠIlul": 2780,
      "Ġixef": 2781,
      "uáºĵ": 2782,
      "Ġed": 2783,
      "Ġisen": 2784,
      "yemm": 2785,
      "Ġfa": 2786,
      "gra": 2787,
      "ebter": 2788,
      "ĠyeÇ§Ç§an": 2789,
      "eggen": 2790,
      "Ġarraw": 2791,
      "tab": 2792,
      "á¸įeb": 2793,
      "Ġmeurt": 2794,
      "ttant": 2795,
      "lim": 2796,
      "exdamen": 2797,
      "emmirt": 2798,
      "ĠdiÉ£": 2799,
      "meá¹Ľ": 2800,
      "Ġyiferdisen": 2801,
      "Ġlaman": 2802,
      "ĠEl": 2803,
      "nilest": 2804,
      "Ġtwilayt": 2805,
      "ĠlecÉ£al": 2806,
      "ĠMazal": 2807,
      "Ġfkan": 2808,
      "Ġtaneggarut": 2809,
      "Ġtawacult": 2810,
      "liyin": 2811,
      "Ġuswir": 2812,
      "Ġuzemmur": 2813,
      "erwes": 2814,
      "ĠneÉĽreá¸į": 2815,
      "sayt": 2816,
      "ĠMari": 2817,
      "Ġyidlisen": 2818,
      "Ġyettban": 2819,
      "Ġaqcic": 2820,
      "Ġ24": 2821,
      "berran": 2822,
      "ĠAnda": 2823,
      "ĠXas": 2824,
      "erá¸į": 2825,
      "Ġyix": 2826,
      "erq": 2827,
      "ĠumennuÉ£": 2828,
      "Ġazamul": 2829,
      "ĠLwennas": 2830,
      "ot": 2831,
      "áºĵa": 2832,
      "usin": 2833,
      "Ġimeá¹Ńá¹Ń": 2834,
      "Ma": 2835,
      "udert": 2836,
      "Ġtazrawt": 2837,
      "Ġunnar": 2838,
      "fk": 2839,
      "erfi": 2840,
      "ĠÙ": 2841,
      "Ġugur": 2842,
      "oc": 2843,
      "Ġibeddel": 2844,
      "Ġsya": 2845,
      "assassin": 2846,
      "Ġnekkini": 2847,
      "É£est": 2848,
      ".\"": 2849,
      "arra": 2850,
      "Ġdrus": 2851,
      "Ġawadem": 2852,
      "elwit": 2853,
      "Ġnnu": 2854,
      "garen": 2855,
      "yeá¸¥": 2856,
      "Ġrebbi": 2857,
      "Ġimensi": 2858,
      "á¹Ľu": 2859,
      "ĠTaÉĽrabt": 2860,
      "11": 2861,
      "estant": 2862,
      "ĠlÉ£": 2863,
      "ĠbÉ£an": 2864,
      "medda": 2865,
      "Ġqrib": 2866,
      "Ġamedyaz": 2867,
      "ĠAsif": 2868,
      "ĠÉ£ezzi": 2869,
      "udan": 2870,
      "yezgan": 2871,
      "Ġtexdem": 2872,
      "ĠaÉ£el": 2873,
      "Ġtasekla": 2874,
      "Ġugellid": 2875,
      "Ġtuff": 2876,
      "tan": 2877,
      "Ã´": 2878,
      "Ġyemxal": 2879,
      "eáºĵra": 2880,
      "Ġtasnal": 2881,
      "uqq": 2882,
      "ssni": 2883,
      "eqsa": 2884,
      "Ġtezlit": 2885,
      "Ġtb": 2886,
      "Ġunelmad": 2887,
      "ĠAya": 2888,
      "grad": 2889,
      "Ġansi": 2890,
      "Ġtazz": 2891,
      "Ġlqahwa": 2892,
      "ÉĽac": 2893,
      "Ġiá¹£": 2894,
      "ĠTenna": 2895,
      "Ġlxedma": 2896,
      "seg": 2897,
      "mant": 2898,
      "ĠUg": 2899,
      "edder": 2900,
      "Ġtaluft": 2901,
      "Ġ194": 2902,
      "eqdacen": 2903,
      "Ġumedya": 2904,
      "Ġtizi": 2905,
      "Ġizemren": 2906,
      "Ġqqimen": 2907,
      "emmar": 2908,
      "Ġtmucuha": 2909,
      "Ġnessaweá¸į": 2910,
      "ĠTawrirt": 2911,
      "riq": 2912,
      "ĠIÉĽ": 2913,
      "issen": 2914,
      "Ġtergalin": 2915,
      "erk": 2916,
      "lawen": 2917,
      "eá¹Ľá¹Ľa": 2918,
      "ĠIb": 2919,
      "Ġtall": 2920,
      "Ġseksu": 2921,
      "Ġyettawi": 2922,
      "Ã©nÃ©": 2923,
      "Ġmaci": 2924,
      "á¹Ľá¹Ľa": 2925,
      "Ġyedda": 2926,
      "Ġyilem": 2927,
      "riá¸į": 2928,
      "selÉ£u": 2929,
      "Ġwemdan": 2930,
      "ïģ": 2931,
      "ana": 2932,
      "á¸įiwin": 2933,
      "ÉĽun": 2934,
      "ĠAme": 2935,
      "kim": 2936,
      "ebá¸¥en": 2937,
      "Ġamawal": 2938,
      "Ġyiá¸¥ricen": 2939,
      "Ġyettak": 2940,
      "yanin": 2941,
      "waculin": 2942,
      "neÉĽ": 2943,
      "á¹Ńá¹Ńun": 2944,
      "Ã©c": 2945,
      "baÉĽd": 2946,
      "ĠtuÉ£alin": 2947,
      "Ġst": 2948,
      "qqaren": 2949,
      "beddil": 2950,
      "ĠNetta": 2951,
      "Ġusegzawal": 2952,
      "usmi": 2953,
      "ĠTem": 2954,
      "Ġccix": 2955,
      "Ġyemmal": 2956,
      "Ġtmi": 2957,
      "iwenni": 2958,
      "ĠBÉ£iÉ£": 2959,
      "Ġxem": 2960,
      "ĠiÉĽedda": 2961,
      "ĠTimmuzÉ£a": 2962,
      "ehmeÉ£": 2963,
      "ĠyeÄįÄįur": 2964,
      "ĠUsqamu": 2965,
      "jun": 2966,
      "Ġaddad": 2967,
      "Ġ23": 2968,
      "Ġyimes": 2969,
      "Ġleá¸¥sab": 2970,
      "ĠQqaren": 2971,
      "Ġlehna": 2972,
      "ĠiÉ£er": 2973,
      "misin": 2974,
      "ersiw": 2975,
      "nagraw": 2976,
      "Ġiga": 2977,
      "ĠUnnig": 2978,
      "ila": 2979,
      "ĠMD": 2980,
      "Ġtemáºĵi": 2981,
      "Ġyifassen": 2982,
      "ĠTubiret": 2983,
      "ebban": 2984,
      "Ġwinna": 2985,
      "AM": 2986,
      "ĠTil": 2987,
      "kabar": 2988,
      "Ġlb": 2989,
      "nation": 2990,
      "Ġtax": 2991,
      "Ġer": 2992,
      "Ġyul": 2993,
      "areÉ£": 2994,
      "baá¸į": 2995,
      "leÉĽ": 2996,
      "ĠYerna": 2997,
      "Ġtemsal": 2998,
      "qbayliyen": 2999,
      "kud": 3000,
      "enq": 3001,
      "ĠIz": 3002,
      "Ġtmus": 3003,
      "Ġqu": 3004,
      "Ġtru": 3005,
      "Ġtucc": 3006,
      "Ġtefka": 3007,
      "Ġtaá¸¥kayt": 3008,
      "Ġlá¸¥ebs": 3009,
      "erc": 3010,
      "mawan": 3011,
      "usef": 3012,
      "Ġwatmaten": 3013,
      "tenna": 3014,
      "ranin": 3015,
      "ĠWer": 3016,
      "umt": 3017,
      "eÇ§Ç§i": 3018,
      "medyazen": 3019,
      "ĠccÉ£el": 3020,
      "ÉĽeddi": 3021,
      "ĠWi": 3022,
      "Ġnnif": 3023,
      "Ġtegrawla": 3024,
      "ĠMulud": 3025,
      "Ġtesna": 3026,
      "Ġilaqen": 3027,
      "Ġamsawal": 3028,
      "ĠUl": 3029,
      "ĠDa": 3030,
      "Ġmass": 3031,
      "Ġtafransist": 3032,
      "ĠMuá¸¥emmed": 3033,
      "ĠIh": 3034,
      "uni": 3035,
      "Ġyeáºĵra": 3036,
      "uten": 3037,
      "eggag": 3038,
      "did": 3039,
      "Ġasefru": 3040,
      "ĠArgaz": 3041,
      "ekcum": 3042,
      "Ġuguren": 3043,
      "Ġsett": 3044,
      "dun": 3045,
      "elsan": 3046,
      "hin": 3047,
      "ĠWar": 3048,
      "mezdaÉ£en": 3049,
      "nefk": 3050,
      "tem": 3051,
      "ĠgÃ©nÃ©": 3052,
      "emmem": 3053,
      "ĠâĨĴ": 3054,
      "Ġtamsalt": 3055,
      "Ġ_": 3056,
      "ern": 3057,
      "duda": 3058,
      "ĠTasÉ£unt": 3059,
      "Ġleá¹£naf": 3060,
      "leq": 3061,
      "Ġumedyaz": 3062,
      "Ġli": 3063,
      "ulfu": 3064,
      "Ġyirgazen": 3065,
      "va": 3066,
      "É£un": 3067,
      "ĠyimsulÉ£a": 3068,
      "yeh": 3069,
      "maren": 3070,
      "Ġ22": 3071,
      "umma": 3072,
      "Ġtlelli": 3073,
      "ĠÆĶur": 3074,
      "Ġtmeslayt": 3075,
      "eggalen": 3076,
      "Ġyebrir": 3077,
      "ĠBou": 3078,
      "ĠwalaÉ£": 3079,
      "Ġtaru": 3080,
      "wayed": 3081,
      "ĠtiÉ£ri": 3082,
      "Ġyiberdan": 3083,
      "Ġulamma": 3084,
      "ĠTefriqt": 3085,
      "Ġawen": 3086,
      "ccen": 3087,
      "lo": 3088,
      "yat": 3089,
      "ĠRac": 3090,
      "ekki": 3091,
      "zeÉ£t": 3092,
      "zel": 3093,
      "ĠlÉ£er": 3094,
      "Ġyusa": 3095,
      "Ġwaggur": 3096,
      "reg": 3097,
      "yefka": 3098,
      "badu": 3099,
      "Ġssin": 3100,
      "anib": 3101,
      "Ġumsawal": 3102,
      "Ġiwudam": 3103,
      "Ġisemma": 3104,
      "ĠTameá¹Ńá¹Ńut": 3105,
      "ĠdaÉ£": 3106,
      "siyen": 3107,
      "ĠYusa": 3108,
      "ĠSuq": 3109,
      "afaren": 3110,
      "Ġnella": 3111,
      "aris": 3112,
      "],": 3113,
      "Ġtegg": 3114,
      "ĠTun": 3115,
      "Ġtamdint": 3116,
      "ĠwassaÉ£": 3117,
      "Ġyej": 3118,
      "inin": 3119,
      "ebgen": 3120,
      "rand": 3121,
      "Ġ21": 3122,
      "zul": 3123,
      "ĠAyt": 3124,
      "sid": 3125,
      "Ġami": 3126,
      "Ġff": 3127,
      "Ġtezmert": 3128,
      "Ġuku": 3129,
      "á¸įawit": 3130,
      "áºĵen": 3131,
      "Ġtsuqilt": 3132,
      "uá¸¥te": 3133,
      "Ġtamacahut": 3134,
      "Ġleqraya": 3135,
      "Ġ40": 3136,
      "alas": 3137,
      "Ġwwin": 3138,
      "aá¸įma": 3139,
      "Ġteqqar": 3140,
      "ĠyiÉ£ersiwen": 3141,
      "ĠsebÉĽa": 3142,
      "ĠWa": 3143,
      "Ġnewwi": 3144,
      "ewt": 3145,
      "Ġayla": 3146,
      "á¹£aá¹£": 3147,
      "Ġwakka": 3148,
      "Ġcci": 3149,
      "ĠÃł": 3150,
      "Ġiy": 3151,
      "ĠBur": 3152,
      "Ġamá¸įiq": 3153,
      "ven": 3154,
      "ĠIá¸¥": 3155,
      "ĠMeÉĽ": 3156,
      "Ġrran": 3157,
      "itent": 3158,
      "lad": 3159,
      "ĠTutlayt": 3160,
      "aylu": 3161,
      "uta": 3162,
      "Ġ27": 3163,
      "alin": 3164,
      "ĠTif": 3165,
      "ema": 3166,
      "ezdu": 3167,
      "Ġwigi": 3168,
      "Ġyar": 3169,
      "Ġyiger": 3170,
      "ĠaÉ£elnaw": 3171,
      "ellah": 3172,
      "Ġaberkan": 3173,
      "Ġuwadem": 3174,
      "Ġyettilin": 3175,
      "ĠTaq": 3176,
      "Ġ28": 3177,
      "Ġyebá¸įa": 3178,
      "Í¡": 3179,
      "Ġdima": 3180,
      "ĠtaÉ£ect": 3181,
      "EL": 3182,
      "ij": 3183,
      "Ass": 3184,
      "Ġlmen": 3185,
      "Ġteh": 3186,
      "eblan": 3187,
      "cwar": 3188,
      "ĠAá¸įris": 3189,
      "Ġyidis": 3190,
      "ĠIwa": 3191,
      "uden": 3192,
      "aliyin": 3193,
      "Ġ26": 3194,
      "â´°": 3195,
      "rayin": 3196,
      "á¸įebb": 3197,
      "Ġtimes": 3198,
      "Ġtsertit": 3199,
      "Ġtezlatin": 3200,
      "Ġá¹¬á¹Ń": 3201,
      "Ġnekni": 3202,
      "beá¹Ľ": 3203,
      "Ġtbedd": 3204,
      "Ġá¹£á¹£ut": 3205,
      "Ġtemlilit": 3206,
      "Ġsser": 3207,
      "Ġá¸¥edd": 3208,
      "ĠterbaÉĽt": 3209,
      "red": 3210,
      "Ġut": 3211,
      "Ġumeslay": 3212,
      "á¸¥sub": 3213,
      "ejj": 3214,
      "Ġá¹Ńá¹Ńfen": 3215,
      "ĠnesÉĽa": 3216,
      "Ġigenni": 3217,
      "Ġssi": 3218,
      "elq": 3219,
      "ĠTiw": 3220,
      "yekkan": 3221,
      "'.": 3222,
      "nniÉ£": 3223,
      "Ġareá¹Ńá¹Ńal": 3224,
      "Ġirgazen": 3225,
      "Ġwaá¹Ńá¹Ńan": 3226,
      "ap": 3227,
      "Ġddeqs": 3228,
      "out": 3229,
      "Ġimiren": 3230,
      "ĠÉĽzizen": 3231,
      "ĠYiÉ£il": 3232,
      "fif": 3233,
      "Ġtfer": 3234,
      "Ġtajmilt": 3235,
      "Ġdda": 3236,
      "waÉ£it": 3237,
      "qan": 3238,
      "Ġkif": 3239,
      "ĠtesÉĽi": 3240,
      "durar": 3241,
      "dal": 3242,
      "É£ent": 3243,
      "ssu": 3244,
      "Ġtigawin": 3245,
      "Ġwergaz": 3246,
      "Ġmeáºĵáºĵi": 3247,
      "mett": 3248,
      "Ġmen": 3249,
      "elnawt": 3250,
      "zil": 3251,
      "ewwa": 3252,
      "bula": 3253,
      "Ġnefka": 3254,
      "Ġdiri": 3255,
      "Ġyettem": 3256,
      "Ġwadda": 3257,
      "Ġuddis": 3258,
      "Ġisel": 3259,
      "xemmi": 3260,
      "Ġudabu": 3261,
      "Ġssebba": 3262,
      "ezzin": 3263,
      "aby": 3264,
      "AD": 3265,
      "dar": 3266,
      "á¹£en": 3267,
      "Ġmm": 3268,
      "Ġtamaynut": 3269,
      "Ġmes": 3270,
      "É£ef": 3271,
      "ekkilen": 3272,
      "Ġteá¸įra": 3273,
      "ĠTmurt": 3274,
      "iti": 3275,
      "Ã©p": 3276,
      "Ã©ri": 3277,
      "ehh": 3278,
      "fuk": 3279,
      "teb": 3280,
      "Ġimer": 3281,
      "Ġttna": 3282,
      "Ġttawin": 3283,
      "Ġlbaá¹Ńel": 3284,
      "Ġneá¸¥": 3285,
      "Ġawez": 3286,
      "Am": 3287,
      "ĠyaÉĽ": 3288,
      "eggem": 3289,
      "Ġims": 3290,
      "Ġmeá¹Ľá¹Ľa": 3291,
      "Ġwez": 3292,
      "ĠAáºĵ": 3293,
      "ĠYug": 3294,
      "á¸įeá¸į": 3295,
      "amal": 3296,
      "Ġnezmir": 3297,
      "Ġtelliá¸į": 3298,
      "nef": 3299,
      "Ġasget": 3300,
      "Ġudmawan": 3301,
      "erdasen": 3302,
      "Ġtimetti": 3303,
      "â´»": 3304,
      "ruc": 3305,
      "dur": 3306,
      "ĠMu": 3307,
      "Ġyini": 3308,
      "Ġatg": 3309,
      "Ġttawil": 3310,
      "ĠLe": 3311,
      "ĠleÇ§": 3312,
      "ĠimÉ£i": 3313,
      "Ġtarwa": 3314,
      "cit": 3315,
      "kent": 3316,
      "xil": 3317,
      "Ġsway": 3318,
      "ĠTeg": 3319,
      "atin": 3320,
      "ÄĮ": 3321,
      "Ġaselmad": 3322,
      "egger": 3323,
      "ersiwen": 3324,
      "dukli": 3325,
      "ejdanen": 3326,
      "ox": 3327,
      "ĠAli": 3328,
      "Ġyessaweá¸į": 3329,
      "Ġineá¸įruyen": 3330,
      "ÙĬ": 3331,
      "Ġyettwali": 3332,
      "Ġ29": 3333,
      "ÉĽeÉ£": 3334,
      "ĠIr": 3335,
      "ĠtemÉ£art": 3336,
      "Ġtefyar": 3337,
      "maÉĽt": 3338,
      "ĠtesÉĽiá¸į": 3339,
      "Ġumalu": 3340,
      "nement": 3341,
      "yaru": 3342,
      "âĭ": 3343,
      "ĠïĤ§": 3344,
      "âĭħ": 3345,
      "Ġisa": 3346,
      "bab": 3347,
      "Ġch": 3348,
      "Ġrrif": 3349,
      "Ġuqcic": 3350,
      "ddukal": 3351,
      "Ġaferdis": 3352,
      "zirt": 3353,
      "ĠLá¸¥aÇ§": 3354,
      "yemmalen": 3355,
      "cá¹Ńaá¸¥": 3356,
      "Ġnu": 3357,
      "Ġtna": 3358,
      "Ġiberdan": 3359,
      "Ġisental": 3360,
      "kkan": 3361,
      "lifa": 3362,
      "Ġlaá¹£el": 3363,
      "Ġugraw": 3364,
      "ĠZik": 3365,
      "13": 3366,
      "15": 3367,
      "eltma": 3368,
      "Ġixedmen": 3369,
      "Ġtiririt": 3370,
      "Ġbdan": 3371,
      "jen": 3372,
      "ĠtÉĽedda": 3373,
      "nis": 3374,
      "riá¸¥": 3375,
      "ddu": 3376,
      "Ġwasif": 3377,
      "name": 3378,
      "Ġwurmir": 3379,
      "inna": 3380,
      "lak": 3381,
      "ĠYeá¹Ńá¹Ńef": 3382,
      "Ġtamawt": 3383,
      "Ġaql": 3384,
      "Ġyettu": 3385,
      "Ġtamatut": 3386,
      "Ġiá¸įelli": 3387,
      "Ġtaá¸į": 3388,
      "ĠTaj": 3389,
      "Ġwallalen": 3390,
      "Ġtikkal": 3391,
      "yir": 3392,
      "Ġaá¸¥erfi": 3393,
      "Ġtantala": 3394,
      "Ġuselmad": 3395,
      "Ġagraw": 3396,
      "ĠteÉ£li": 3397,
      "Ġtegnatin": 3398,
      "Ġjug": 3399,
      "yerr": 3400,
      "Ġttidir": 3401,
      "ubli": 3402,
      "17": 3403,
      "iwanin": 3404,
      "ĠTak": 3405,
      "qqranen": 3406,
      "Ġá¸¥emmleÉ£": 3407,
      "Ġtimmad": 3408,
      "Ġaxaá¹Ńer": 3409,
      "ĠAmawal": 3410,
      "Ġnruá¸¥": 3411,
      "ĠAnwa": 3412,
      "Ġamezruy": 3413,
      "Ġtesnilest": 3414,
      "ĠzemreÉ£": 3415,
      "ĠAms": 3416,
      "ennay": 3417,
      "Ġyessem": 3418,
      "eá¹Ńá¹Ńu": 3419,
      "Ġtilawin": 3420,
      "ĠAmez": 3421,
      "ĠaÉ£ilif": 3422,
      "ĠnebÉ£a": 3423,
      "namka": 3424,
      "Ġá¸Į": 3425,
      "ĠLeá¸¥": 3426,
      "Ġfer": 3427,
      "Ġtzemreá¸į": 3428,
      "Ġamer": 3429,
      "Ġtebá¸¥": 3430,
      "lisin": 3431,
      "Ġigejdanen": 3432,
      "ĠBaba": 3433,
      "ff": 3434,
      "áºĵab": 3435,
      "Ġnettaf": 3436,
      "ĠgÃ©nÃ©ral": 3437,
      "Ġtxedmeá¸į": 3438,
      "ĠAit": 3439,
      "cimi": 3440,
      "yita": 3441,
      "ĠUga": 3442,
      "Ġnezz": 3443,
      "lawin": 3444,
      "lisa": 3445,
      "ammer": 3446,
      "galt": 3447,
      "ÉĽet": 3448,
      "ĠLeÉĽ": 3449,
      "eÇ§Ç§a": 3450,
      "á¸įer": 3451,
      "Ġanelmad": 3452,
      "Ġkecmen": 3453,
      "Ġwadd": 3454,
      "ida": 3455,
      "ĠSmaÉĽ": 3456,
      "radyu": 3457,
      "Ġyiá¸¥": 3458,
      "ĠIni": 3459,
      "ĠFaá¸įma": 3460,
      "ier": 3461,
      "reá¸įt": 3462,
      ".,": 3463,
      "Ġyiri": 3464,
      "Ġyeáºĵ": 3465,
      "Ġusek": 3466,
      "Ġusnulfu": 3467,
      "Ġwannar": 3468,
      "raÇ§": 3469,
      "Ġdacu": 3470,
      "ĠYuba": 3471,
      "bit": 3472,
      "Ġtadd": 3473,
      "Ġidlisen": 3474,
      "Ġá¸¥ala": 3475,
      "ĠprÃ©": 3476,
      "ĠMal": 3477,
      "amel": 3478,
      "ĠBo": 3479,
      "Ġtulmisin": 3480,
      "yeÉ£": 3481,
      "Ġco": 3482,
      "Ġtargit": 3483,
      "Ġsemman": 3484,
      "ĠweÉ£": 3485,
      "Â°": 3486,
      "eá¸¥á¸¥u": 3487,
      "Ġpo": 3488,
      "ĠJe": 3489,
      "IS": 3490,
      "Ç§er": 3491,
      "Ġusirem": 3492,
      "ju": 3493,
      "Ġugdud": 3494,
      "emÉĽa": 3495,
      "ĠIlmend": 3496,
      "Ã©e": 3497,
      "Ġtuz": 3498,
      "Ġtuqq": 3499,
      "ĠtaÉ£elnawt": 3500,
      "heggi": 3501,
      "ĠÇ§Ç§": 3502,
      "bazen": 3503,
      "Ġineggura": 3504,
      "ĠQasi": 3505,
      "umata": 3506,
      "rist": 3507,
      "Ġsend": 3508,
      "umak": 3509,
      "emá¸įan": 3510,
      "ebgan": 3511,
      "ĠRa": 3512,
      "Ġtewweá¸į": 3513,
      "ĠTalÉ£a": 3514,
      "Ġaá¹Ńá¹Ńan": 3515,
      "ĠuÉ£aleÉ£": 3516,
      "bub": 3517,
      "Ġtuddar": 3518,
      "yeffÉ£en": 3519,
      "ĠYuÉ£al": 3520,
      "ĠRnu": 3521,
      "AN": 3522,
      "rahim": 3523,
      "Ġsgt": 3524,
      "eá¸¥bi": 3525,
      "ĠiÉ£ersiwen": 3526,
      "Tas": 3527,
      "Ġsyen": 3528,
      "ĠtarbaÉĽt": 3529,
      "IN": 3530,
      "ĠyimÉ£an": 3531,
      "kkes": 3532,
      "walen": 3533,
      "eddad": 3534,
      "Ġireá¹Ńá¹Ńalen": 3535,
      "yusan": 3536,
      "ts": 3537,
      "Ġtban": 3538,
      "exx": 3539,
      "erreá¸¥": 3540,
      "eÇ§Ç§ig": 3541,
      "24": 3542,
      "Ur": 3543,
      "yeffeÉ£": 3544,
      "Ġidammen": 3545,
      "ÉĽel": 3546,
      "Ġttilin": 3547,
      "Ġyinzan": 3548,
      "yella": 3549,
      "aá¹Ńi": 3550,
      "qam": 3551,
      "Ļ¦": 3552,
      "Ġtuk": 3553,
      "faliyin": 3554,
      "gayt": 3555,
      "guren": 3556,
      "tal": 3557,
      "Ġyuf": 3558,
      "Ġtawi": 3559,
      "zzel": 3560,
      "Ġjugement": 3561,
      "imeÉ£": 3562,
      "nasen": 3563,
      "ans": 3564,
      "Ġweltma": 3565,
      "unyu": 3566,
      "iwet": 3567,
      "Ġasirem": 3568,
      "Ġusrid": 3569,
      "ĠyebÉ£u": 3570,
      "Ġtamenzut": 3571,
      "mak": 3572,
      "ĠDd": 3573,
      "Ġammud": 3574,
      "Ġtezrawin": 3575,
      "ĠlÉĽes": 3576,
      "Ġussnan": 3577,
      "elluy": 3578,
      "ĠWid": 3579,
      "ifa": 3580,
      "Ġ|": 3581,
      "Ġacemma": 3582,
      "ĠIswi": 3583,
      "Ġnwala": 3584,
      "Ġyaya": 3585,
      "esteqsa": 3586,
      "Ġwidak": 3587,
      "Ġussid": 3588,
      "deá¸į": 3589,
      "ĠYeá¸¥": 3590,
      "rennu": 3591,
      "Ġwayes": 3592,
      "damnation": 3593,
      "ĠyeÄįÄįa": 3594,
      "ve": 3595,
      "á¸įel": 3596,
      "Ġidles": 3597,
      "Ġdder": 3598,
      "Ġ//": 3599,
      "ge": 3600,
      "ĠÄĮ": 3601,
      "rux": 3602,
      "Ġsemmus": 3603,
      "ĠawezÉ£i": 3604,
      "up": 3605,
      "yet": 3606,
      "raá¹Ń": 3607,
      "Ġsim": 3608,
      "Ġyimen": 3609,
      "rimt": 3610,
      "ezqi": 3611,
      "ĠrebÉĽa": 3612,
      "hamen": 3613,
      "Ġlebda": 3614,
      "Ġtmagit": 3615,
      "Ġwebrid": 3616,
      "kec": 3617,
      "ķĳ": 3618,
      "ĠimaziÉ£en": 3619,
      "adyu": 3620,
      "Ġ50": 3621,
      "ned": 3622,
      "ĠteswiÉĽt": 3623,
      "ĠTazrawt": 3624,
      "Ġyemmuten": 3625,
      "Ġtix": 3626,
      "áºĵin": 3627,
      "etwa": 3628,
      "enti": 3629,
      "ĠRuá¸¥": 3630,
      "uli": 3631,
      "Ġimek": 3632,
      "rier": 3633,
      "essi": 3634,
      "ĠBuÉĽ": 3635,
      "balu": 3636,
      "14": 3637,
      "nnan": 3638,
      "yec": 3639,
      "eá¸įra": 3640,
      "ĠCh": 3641,
      "nulfa": 3642,
      "uá¹£á¹£": 3643,
      "Ġlan": 3644,
      "ĠAcimi": 3645,
      "ehmen": 3646,
      ")-": 3647,
      "Ġso": 3648,
      "duction": 3649,
      "ĠAmmud": 3650,
      "Ġlemmer": 3651,
      "musnawen": 3652,
      "Ġtilelli": 3653,
      "Ġawi": 3654,
      "awed": 3655,
      "Ġasawen": 3656,
      "ĠlÉ£erba": 3657,
      "ĠAbrid": 3658,
      "ĠyesÉĽu": 3659,
      "ĠNeÉ£": 3660,
      "Ġtissit": 3661,
      "abá¸¥a": 3662,
      "Ġtaqb": 3663,
      "Ġlwa": 3664,
      "Ġleá¸¥zen": 3665,
      "ĠâĻ¦": 3666,
      ".Â»": 3667,
      "aá¹Ľ": 3668,
      "mulud": 3669,
      "Ġzzman": 3670,
      "ĠlÉĽali": 3671,
      "etnayen": 3672,
      "Ġsuf": 3673,
      "efox": 3674,
      "Ġttmeslayen": 3675,
      "ĠTira": 3676,
      "Ġyebnan": 3677,
      "nulfan": 3678,
      ".)": 3679,
      "Ġlsas": 3680,
      "eÉ£ru": 3681,
      "áºĵyan": 3682,
      "ĠLex": 3683,
      "ĠÆĲmer": 3684,
      "Ġlqern": 3685,
      "qeÉ£": 3686,
      "emhal": 3687,
      "Ġtey": 3688,
      "ruk": 3689,
      "Ġimal": 3690,
      "Ġalama": 3691,
      "ĠtÉ£ara": 3692,
      "zeÉ£": 3693,
      "rayen": 3694,
      "ĠDallet": 3695,
      "Ouv": 3696,
      "kelli": 3697,
      "ales": 3698,
      "Ġyic": 3699,
      "ĠLliÉ£": 3700,
      "uhad": 3701,
      "30": 3702,
      "dya": 3703,
      "dant": 3704,
      "ĠziÉ£": 3705,
      "mayen": 3706,
      "but": 3707,
      "itÃ©": 3708,
      "ekku": 3709,
      "Ġyugi": 3710,
      "emmiá¸į": 3711,
      "Ġyuk": 3712,
      "Ġwaá¸įu": 3713,
      "Ġyettar": 3714,
      "Ġannar": 3715,
      "Ġyeá¹Ńá¹Ńfen": 3716,
      "**": 3717,
      "tefk": 3718,
      "ĠzedÉ£en": 3719,
      "ĠAddad": 3720,
      "Ġaken": 3721,
      "Ġlukan": 3722,
      "Al": 3723,
      "Ġsebba": 3724,
      "meh": 3725,
      "á¸įent": 3726,
      "ĠIc": 3727,
      "Ġtayemmat": 3728,
      "ĠlÇ§a": 3729,
      "Ġnnuba": 3730,
      "mem": 3731,
      "Ġyaweá¸į": 3732,
      "ĠyimaziÉ£en": 3733,
      "ĠaÉ£rum": 3734,
      "Ġml": 3735,
      "banen": 3736,
      "bre": 3737,
      "ard": 3738,
      "Ġkun": 3739,
      "tique": 3740,
      "yuf": 3741,
      "É£eá¸į": 3742,
      "Ġkec": 3743,
      "Ġwahil": 3744,
      "Ġmeá¸¥sub": 3745,
      "Ġikemmel": 3746,
      "akken": 3747,
      "ep": 3748,
      "ked": 3749,
      "Ġiferdisen": 3750,
      "bac": 3751,
      "Ġiá¸¥ulfan": 3752,
      "Ġzzin": 3753,
      "adda": 3754,
      "AR": 3755,
      "ĠTudert": 3756,
      "eggan": 3757,
      "ĠuÉ£ur": 3758,
      "199": 3759,
      "Ġswayes": 3760,
      "á¸¥el": 3761,
      "ĠtaÉ£a": 3762,
      "ĠSsi": 3763,
      "Ġtruá¸¥eá¸į": 3764,
      "Ġlejdud": 3765,
      "Ġtbeddel": 3766,
      "aska": 3767,
      "ĠteÇ§Ç§": 3768,
      "ĠTzemreá¸į": 3769,
      "ĠÉĽemmi": 3770,
      "Ġiteddu": 3771,
      "ique": 3772,
      "Ġwaf": 3773,
      "jjay": 3774,
      "Ġtekker": 3775,
      "ĠamÉ£ar": 3776,
      "Ġyettawin": 3777,
      "Ġyiswi": 3778,
      "bert": 3779,
      "Ġtullisin": 3780,
      "Ġtergalt": 3781,
      "Ti": 3782,
      "Ġtwaculin": 3783,
      "ĠusileÉ£": 3784,
      "Ġyuli": 3785,
      "firen": 3786,
      "ebbuá¸į": 3787,
      "enquá¸¥te": 3788,
      "ĠTess": 3789,
      "Ġtettwas": 3790,
      "zzal": 3791,
      "Ġtabadut": 3792,
      "Ġteff": 3793,
      "Ġccbaá¸¥a": 3794,
      "ĠTamurt": 3795,
      "wart": 3796,
      "ĠIá¸į": 3797,
      "Ġyettá¸¥": 3798,
      "Ġyeff": 3799,
      "zar": 3800,
      "taf": 3801,
      "Ġagellid": 3802,
      "ĠSem": 3803,
      "walin": 3804,
      "Ġarrac": 3805,
      "Ġazzayri": 3806,
      "Ġá¹¢á¹£": 3807,
      "lef": 3808,
      "yasen": 3809,
      "ĠYemma": 3810,
      "Ġyettmeslay": 3811,
      "Ġtezri": 3812,
      "Ġtislit": 3813,
      "gunt": 3814,
      "elha": 3815,
      "iss": 3816,
      "ĠTul": 3817,
      "ĠUm": 3818,
      "ĠaÉ£erbaz": 3819,
      "Ġyezzi": 3820,
      "16": 3821,
      "cal": 3822,
      "Ġná¸¥": 3823,
      "raÉĽ": 3824,
      "Ġweq": 3825,
      "ares": 3826,
      "ĠTaddart": 3827,
      "yili": 3828,
      "he": 3829,
      "Ġteslit": 3830,
      "errun": 3831,
      "Ġwuccen": 3832,
      "lizit": 3833,
      "ĠMá¸¥end": 3834,
      "Ġtáºĵirt": 3835,
      "Ġcondamnation": 3836,
      "Ġciá¹Ń": 3837,
      "Ġïģ¶": 3838,
      "xir": 3839,
      "Ġufan": 3840,
      "Ġtuddsa": 3841,
      "Ø±": 3842,
      "ĠnaÉ£": 3843,
      "Ġaqdim": 3844,
      "âµī": 3845,
      "ie": 3846,
      "Ġnwali": 3847,
      "ĠMez": 3848,
      "rakalt": 3849,
      "lun": 3850,
      "á¸¥em": 3851,
      "eá¸įlib": 3852,
      "beá¸¥ri": 3853,
      "deb": 3854,
      "Ġday": 3855,
      "ĠyimezdaÉ£en": 3856,
      "senf": 3857,
      "wab": 3858,
      "Ġyettus": 3859,
      "Ġixeddmen": 3860,
      "wiren": 3861,
      "jer": 3862,
      "Ġimeslayen": 3863,
      "ĠYez": 3864,
      "ĠWaÉĽ": 3865,
      "Ġyessemres": 3866,
      "Ġtmeddit": 3867,
      "ĠÉĽec": 3868,
      "Ġafud": 3869,
      "Ġtbadut": 3870,
      "sp": 3871,
      "Ġtwen": 3872,
      "ĠIw": 3873,
      "Ġidurar": 3874,
      "exdam": 3875,
      "Sb": 3876,
      "Ã¯": 3877,
      "ellalt": 3878,
      "qbur": 3879,
      "Ġunáºĵul": 3880,
      "juhad": 3881,
      "yuÉ£en": 3882,
      "Ġtxeddem": 3883,
      "asin": 3884,
      "Ġbeá¹Ľá¹Ľa": 3885,
      "ĠwerÇ§in": 3886,
      "Ġlfeá¹Ńá¹Ńa": 3887,
      "Ġizen": 3888,
      "Ç§en": 3889,
      "ĠLemmer": 3890,
      "Ġyinumak": 3891,
      "Ġtarrayin": 3892,
      "dayt": 3893,
      "á¸¥eq": 3894,
      "efrek": 3895,
      "Ġrruá¸¥": 3896,
      "Ġtfelwit": 3897,
      "Ġyeddem": 3898,
      "Ġnemmeslay": 3899,
      "ĠUngal": 3900,
      "ellalin": 3901,
      "ĠwassaÉ£en": 3902,
      "=\"": 3903,
      "lac": 3904,
      "elda": 3905,
      "Ġyigenni": 3906,
      "rug": 3907,
      "ĠYezmer": 3908,
      "ĠYusef": 3909,
      "Ġtawuri": 3910,
      "kiÉ£": 3911,
      "Ġtukk": 3912,
      "afar": 3913,
      "Ġyewwet": 3914,
      "ĠyeÄįÄįuren": 3915,
      "qayed": 3916,
      "reÉĽ": 3917,
      "saÉĽ": 3918,
      "ĠuÉ£anib": 3919,
      "Ġilul": 3920,
      "Ġnezzeh": 3921,
      "//": 3922,
      "Ar": 3923,
      "ron": 3924,
      "ĠNnan": 3925,
      "Ġtenfalit": 3926,
      "ĠAzekka": 3927,
      "ĠBelÉĽid": 3928,
      "taw": 3929,
      "Ġef": 3930,
      "assnen": 3931,
      "cá¹Ńuá¸¥t": 3932,
      "Ġteáºĵgi": 3933,
      "liyen": 3934,
      "ĠDayen": 3935,
      "ĠNa": 3936,
      "Ġtra": 3937,
      "ĠTir": 3938,
      "amer": 3939,
      "Ġuglam": 3940,
      "Ġazwel": 3941,
      "Ġtiktiwin": 3942,
      "Ġwudmawen": 3943,
      "Ġyeáºĵáºĵ": 3944,
      "egwa": 3945,
      "ĠtameÉ£ra": 3946,
      "Ġtufa": 3947,
      "ruá¸¥u": 3948,
      "ĠumÉ£ar": 3949,
      "Ġtfar": 3950,
      "teÉĽ": 3951,
      "yeÉĽ": 3952,
      "Ġtsedda": 3953,
      "EM": 3954,
      "ois": 3955,
      "á¸įil": 3956,
      "Ġyik": 3957,
      "Ġddwa": 3958,
      "Ġimeqqranen": 3959,
      "and": 3960,
      "dinin": 3961,
      "usru": 3962,
      "Ġtmara": 3963,
      "Ġnebder": 3964,
      "Ġtmusni": 3965,
      "iya": 3966,
      "nak": 3967,
      "ĠLqayed": 3968,
      "Ġtamnaá¸įt": 3969,
      "Ġusenfar": 3970,
      "á¹Ľumi": 3971,
      "ĠParis": 3972,
      "Ġtyemmat": 3973,
      "At": 3974,
      "Ġiá¸įrisen": 3975,
      "Ġyiq": 3976,
      "Ġyiáºĵ": 3977,
      "Ġtemmut": 3978,
      "Ġyekkat": 3979,
      "!...": 3980,
      "ET": 3981,
      "qes": 3982,
      "Ġap": 3983,
      "Ġsbi": 3984,
      "riwen": 3985,
      "awat": 3986,
      "ĠWissen": 3987,
      "Ġterna": 3988,
      "Ġwansayen": 3989,
      "ml": 3990,
      "mul": 3991,
      "ĠneÄįÄį": 3992,
      "Ġyilin": 3993,
      "á¸įebbren": 3994,
      "nufa": 3995,
      "yezzin": 3996,
      "Ġtet": 3997,
      "ĠLal": 3998,
      "Ġmraw": 3999,
      "Ġtzeqqa": 4000,
      "dil": 4001,
      "Ġukabar": 4002,
      "elmed": 4003,
      "age": 4004,
      "Ġtirga": 4005,
      "ukkeÉ£": 4006,
      "--": 4007,
      "Ġila": 4008,
      "ĠiniÉ£": 4009,
      "Ġadrar": 4010,
      "Ġwamud": 4011,
      "Ġyilel": 4012,
      "ver": 4013,
      "Ã§": 4014,
      "ĠCabá¸¥a": 4015,
      "ĠFer": 4016,
      "ĠTawsit": 4017,
      "co": 4018,
      "Ġwac": 4019,
      "Ġttag": 4020,
      "umm": 4021,
      "Ġjeddi": 4022,
      "Ġsidi": 4023,
      "ĠLem": 4024,
      "aÉ£eá¸į": 4025,
      "Ġtasnam": 4026,
      "Ġyilmeáºĵyen": 4027,
      "Deg": 4028,
      "Ġanadi": 4029,
      "Ġser": 4030,
      "Ġiwul": 4031,
      "lilt": 4032,
      "neq": 4033,
      "Ġyaf": 4034,
      "á¹Ľt": 4035,
      "Ġkrad": 4036,
      "zzayri": 4037,
      "yennan": 4038,
      "eáºĵyan": 4039,
      "eqqamu": 4040,
      "mala": 4041,
      "tewwi": 4042,
      "ennayen": 4043,
      "tif": 4044,
      "Ġagdud": 4045,
      "eddamen": 4046,
      "cint": 4047,
      "Ġtker": 4048,
      "Ġsf": 4049,
      "Ġsumata": 4050,
      "Ġá¸¤a": 4051,
      "Ġtessuq": 4052,
      "Ġitett": 4053,
      "Ġtallelt": 4054,
      "elÉ£a": 4055,
      "nayt": 4056,
      "waá¸į": 4057,
      "á¹Ńá¹Ńaf": 4058,
      "Ġddurt": 4059,
      "Ġá¹Ńá¹Ńlam": 4060,
      "Ġ60": 4061,
      "Ġtabraá¹Ń": 4062,
      "Ġtáºĵuri": 4063,
      "Ġyiles": 4064,
      "Ġtiyita": 4065,
      "awiÉ£": 4066,
      "Ġxedd": 4067,
      "22": 4068,
      "akk": 4069,
      "miren": 4070,
      "Ġtmettant": 4071,
      "Ġtseddart": 4072,
      "aá¸įuf": 4073,
      "agen": 4074,
      "Ġttawi": 4075,
      "Ġyeá¹Ńá¹Ńafaren": 4076,
      "Ġanagar": 4077,
      "iha": 4078,
      "lafen": 4079,
      "elba": 4080,
      "metti": 4081,
      "Ġyixxamen": 4082,
      "ures": 4083,
      "Ġtfellaá¸¥t": 4084,
      "Ġiten": 4085,
      "Ġyimedyaten": 4086,
      "ĠSin": 4087,
      "ĠNezmer": 4088,
      "Ġá¸¥a": 4089,
      "Ġtaber": 4090,
      "ĠLmulud": 4091,
      "tik": 4092,
      "ĠMes": 4093,
      "ulfa": 4094,
      "Ġssut": 4095,
      "ĠtamÉ£art": 4096,
      "ĠqqimeÉ£": 4097,
      "Ġmeqqer": 4098,
      "Ġtamensayt": 4099,
      "sident": 4100,
      "ĠameÉ£": 4101,
      "raÇ§u": 4102,
      "asem": 4103,
      "áºĵit": 4104,
      "zig": 4105,
      "aki": 4106,
      "naya": 4107,
      "Ġwamma": 4108,
      "É£ac": 4109,
      "ellil": 4110,
      "ĠÆĲisa": 4111,
      "Ġtimucuha": 4112,
      "selÉ£uyen": 4113,
      "á¹Ńer": 4114,
      "ĠMeáºĵyan": 4115,
      "effur": 4116,
      "Ġyettwarun": 4117,
      "inen": 4118,
      "ĠlmeÉĽna": 4119,
      "Ġfran": 4120,
      "ĠBeá¹Ľ": 4121,
      "Ġugezdu": 4122,
      "ĠTanemmirt": 4123,
      "ĠuÄįÄįi": 4124,
      "Ġyedder": 4125,
      "Ġttidiren": 4126,
      "leá¸¥": 4127,
      "Ġurar": 4128,
      "Ġnef": 4129,
      "elá¸¥it": 4130,
      "ĠUgafa": 4131,
      "musni": 4132,
      "ĠAcku": 4133,
      "ĠÇģ": 4134,
      "Ġmeurtrier": 4135,
      "nent": 4136,
      "kkel": 4137,
      "Ġamellal": 4138,
      "Ġyerr": 4139,
      "Ġaked": 4140,
      "Ġïĥ¼": 4141,
      "Ġtesnawit": 4142,
      "os": 4143,
      "eqqen": 4144,
      "Ġaksum": 4145,
      "Ġtafyirt": 4146,
      "essas": 4147,
      "brand": 4148,
      "Ġtasuqilt": 4149,
      "Ġlá¸¥enni": 4150,
      "Ġ70": 4151,
      "waren": 4152,
      "á¸įit": 4153,
      "ĠTamedyazt": 4154,
      "aá¹£": 4155,
      "Ġtga": 4156,
      "ires": 4157,
      "Ġ35": 4158,
      "Ġllufan": 4159,
      "ĠImaziÉ£en": 4160,
      "ekkil": 4161,
      "atay": 4162,
      "ĠyuÉ£alen": 4163,
      "â´»âµ": 4164,
      "weÇ§": 4165,
      "Ġtuc": 4166,
      "Ġuseg": 4167,
      "ĠLÉĽ": 4168,
      "Ġtedda": 4169,
      "Ġuseqdec": 4170,
      "ĠleÉĽwayed": 4171,
      "Ġyekfa": 4172,
      "Ġxemsa": 4173,
      "belt": 4174,
      "Ġqbel": 4175,
      "unast": 4176,
      "Ġyettna": 4177,
      "Ġusemres": 4178,
      "ĠffÉ£en": 4179,
      "ĠÉĽeddan": 4180,
      "Ġ02": 4181,
      "Ġtman": 4182,
      "ĠlÉĽa": 4183,
      "Ġamá¸įan": 4184,
      "dukkel": 4185,
      "Ġnefren": 4186,
      "Ġyib": 4187,
      "ĠWlad": 4188,
      "Ġyineá¸įruyen": 4189,
      "Ġwaken": 4190,
      "olo": 4191,
      "Ġtuqqna": 4192,
      "isi": 4193,
      "Ġlaá¸¥": 4194,
      "diyen": 4195,
      "erfit": 4196,
      "Ġtusna": 4197,
      "ĠttwaliÉ£": 4198,
      "Ġimeá¹Ńá¹Ńawen": 4199,
      "25": 4200,
      "nec": 4201,
      "É£ant": 4202,
      "rzen": 4203,
      "ayda": 4204,
      "Ġlaáºĵ": 4205,
      "Ġwallal": 4206,
      "ĠkeÄįÄįini": 4207,
      "Ġ||": 4208,
      "ĠaÉ£en": 4209,
      "ĠyiniÉ£": 4210,
      "Ġ!...": 4211,
      "Ġav": 4212,
      "nay": 4213,
      "ayrit": 4214,
      "nuda": 4215,
      "ehd": 4216,
      "damsa": 4217,
      "ewwet": 4218,
      "Ġyigerdan": 4219,
      "Ġneá¸į": 4220,
      "Ġyur": 4221,
      "mec": 4222,
      "Ġyij": 4223,
      "awaá¸į": 4224,
      "saÉ£": 4225,
      "ĠTad": 4226,
      "ĠWeÉĽ": 4227,
      "Ġyimyagen": 4228,
      "Ġiselmaden": 4229,
      "urten": 4230,
      "Ġtinna": 4231,
      "IT": 4232,
      "Ġyit": 4233,
      "ĠBab": 4234,
      "Ġtazmert": 4235,
      "Ġciá¹Ńuá¸¥": 4236,
      "zef": 4237,
      "eqqi": 4238,
      "Ġtá¸¥emmel": 4239,
      "Ġtjerrumt": 4240,
      "Ġumá¸įiq": 4241,
      "Ġazref": 4242,
      "ationale": 4243,
      "An": 4244,
      "qar": 4245,
      "Ġyunyu": 4246,
      "Ġcu": 4247,
      "ĠÆĲa": 4248,
      "Ġ80": 4249,
      "hid": 4250,
      "Ġyawi": 4251,
      "Ġlmendad": 4252,
      "malen": 4253,
      "Ġtti": 4254,
      "Ġyisteqsiyen": 4255,
      "ĠuÉ£al": 4256,
      "ĠKk": 4257,
      "ĠAmá¸įan": 4258,
      "Ġtamecá¹Ńuá¸¥t": 4259,
      "Ġdderya": 4260,
      "meg": 4261,
      "nuá¸į": 4262,
      "Ġlá¸¥ir": 4263,
      "ĠwuÄįÄįi": 4264,
      "Ġnekkes": 4265,
      "Ġttawilat": 4266,
      "AS": 4267,
      "zib": 4268,
      "illa": 4269,
      "lalit": 4270,
      "kla": 4271,
      "Ã»": 4272,
      "faren": 4273,
      "Ġnelli": 4274,
      "Ġinzan": 4275,
      "Ġtwaliá¸į": 4276,
      "ww": 4277,
      "Ġnen": 4278,
      "Ġinna": 4279,
      "ĠAmyag": 4280,
      "Ġtafekka": 4281,
      "Ġâķĳ": 4282,
      "Ġlebá¸¥er": 4283,
      "Ġwungalen": 4284,
      "fus": 4285,
      "ĠsliÉ£": 4286,
      "mug": 4287,
      "Ġatmaten": 4288,
      "Ġ03": 4289,
      "cam": 4290,
      "adar": 4291,
      "meÉ£rut": 4292,
      "yettilin": 4293,
      "ukt": 4294,
      "Ġuáºĵawan": 4295,
      "Sig": 4296,
      "ĠdÃ©": 4297,
      "Ġyizer": 4298,
      "elles": 4299,
      "Ġ36": 4300,
      "rara": 4301,
      "Ġtimi": 4302,
      "ulf": 4303,
      "wiá¸¥t": 4304,
      "Ġmgaraden": 4305,
      "Ġtettak": 4306,
      "Ġtezzi": 4307,
      "ÉĽawna": 4308,
      "cin": 4309,
      "ia": 4310,
      "itni": 4311,
      "Ġusget": 4312,
      "taÉĽ": 4313,
      "egzaw": 4314,
      "Êģ": 4315,
      "erÉ£": 4316,
      "á¹¬": 4317,
      "ĠYen": 4318,
      "Ġtsusmi": 4319,
      "Ġ45": 4320,
      "Ġyizri": 4321,
      "Ġá¹Ľá¹Ľadyu": 4322,
      "ĠtamanaÉ£t": 4323,
      "eá¸¥biber": 4324,
      "abu": 4325,
      "ĠAsen": 4326,
      "ĠwaÉ£": 4327,
      "Ġtettidir": 4328,
      "ĠyaÉ£": 4329,
      "Ġusaru": 4330,
      "Ġtessen": 4331,
      "Ġizerfan": 4332,
      "arit": 4333,
      "ayad": 4334,
      "ĠDaÉ£en": 4335,
      "Ġmkul": 4336,
      "manen": 4337,
      "Ġaglam": 4338,
      "ĠAwalen": 4339,
      "tuÉ£al": 4340,
      "Ġtelma": 4341,
      "Ġiqq": 4342,
      "Ġtiyaá¸į": 4343,
      "ĠUz": 4344,
      "Ġ100": 4345,
      "alti": 4346,
      "lili": 4347,
      "uloud": 4348,
      "kanen": 4349,
      "ĠMuá¸¥ya": 4350,
      "wert": 4351,
      "ÙĨ": 4352,
      "Ġlmend": 4353,
      "awla": 4354,
      "ĠUf": 4355,
      "Ġugrud": 4356,
      "cci": 4357,
      "ĠAsentel": 4358,
      "ĠTur": 4359,
      "ĠIma": 4360,
      "eddin": 4361,
      "Ġgg": 4362,
      "emmay": 4363,
      "Ġinek": 4364,
      "ĠZi": 4365,
      "Ġsel": 4366,
      "Ġyemgarad": 4367,
      "msa": 4368,
      "yis": 4369,
      "muÉ£": 4370,
      "Ġyesla": 4371,
      "Ġlá¸¥eqq": 4372,
      "ĠÆĶiá¹Ľ": 4373,
      "Ġigerrzen": 4374,
      "ĠBeá¹Ľbeá¹Ľ": 4375,
      "ĠniÉ£": 4376,
      "Ġlh": 4377,
      "Ġtiáºĵ": 4378,
      "eggal": 4379,
      "Ġtegrest": 4380,
      "Ġyegg": 4381,
      "ĠLlant": 4382,
      "Ġnáºĵer": 4383,
      "Ġlis": 4384,
      "ĠTuÉ£al": 4385,
      "Ġimecá¹Ńaá¸¥": 4386,
      "ĠuÉĽeddi": 4387,
      "Ġaka": 4388,
      "ĠAman": 4389,
      "effa": 4390,
      "rig": 4391,
      "awes": 4392,
      "eba": 4393,
      "Ġyettwan": 4394,
      "ĠWat": 4395,
      "Ġunef": 4396,
      "Ġyefkan": 4397,
      "Ġkkan": 4398,
      "28": 4399,
      "á¸¥in": 4400,
      "ĠTay": 4401,
      "Ġmatta": 4402,
      "tini": 4403,
      "Ġtafeá¸į": 4404,
      "ĠáºĴriÉ£": 4405,
      "arim": 4406,
      "Ġisallen": 4407,
      "biz": 4408,
      "ĠaÉ£bel": 4409,
      "ous": 4410,
      "tam": 4411,
      "yeqqar": 4412,
      "ineÉ£": 4413,
      "Ġtantaliyin": 4414,
      "\">": 4415,
      "tat": 4416,
      "Ġunagraw": 4417,
      "ember": 4418,
      "ayes": 4419,
      "ebt": 4420,
      "ĠLetnayen": 4421,
      "imer": 4422,
      "Ġtmeddurt": 4423,
      "ĠaladÉ£a": 4424,
      "Ġwugur": 4425,
      "xa": 4426,
      "Ġiá¹Ńij": 4427,
      "Ġtaggayt": 4428,
      "ps": 4429,
      "ĠÎ": 4430,
      "Ġixxamen": 4431,
      "Ġasemmad": 4432,
      "ont": 4433,
      "Ġ33": 4434,
      "Ġá¹Ńá¹Ńrad": 4435,
      "erfiyen": 4436,
      "ĠTaÉ£iwant": 4437,
      "Ġaseklan": 4438,
      "á¸¥un": 4439,
      "lanen": 4440,
      "Ġyinzi": 4441,
      "ĠteÇ§Ç§a": 4442,
      "ĠttuÉ£": 4443,
      "ellist": 4444,
      "diya": 4445,
      "Ġttwalin": 4446,
      "Ġabeddel": 4447,
      "É£res": 4448,
      "Ġlbir": 4449,
      "kanun": 4450,
      "ĠaÉ£ersiw": 4451,
      "ejdanin": 4452,
      "Ġamezgun": 4453,
      "â´°âµ": 4454,
      "áºĵabit": 4455,
      "ĠtwaÉ£it": 4456,
      "eÉ£ti": 4457,
      "Ġmd": 4458,
      "ĠNek": 4459,
      "Ġssem": 4460,
      "Ġwulawen": 4461,
      "ĠamennuÉ£": 4462,
      "ĠIII": 4463,
      "raten": 4464,
      "ĠÉ£uct": 4465,
      "ĠTiáºĵri": 4466,
      "ĠFir": 4467,
      "Ġwissen": 4468,
      "Ġtmussni": 4469,
      "ĠsÉĽin": 4470,
      "diwin": 4471,
      "Ġyeqqnen": 4472,
      "Ġwannect": 4473,
      "ord": 4474,
      "ami": 4475,
      "Ġneáºĵra": 4476,
      "Ġaswir": 4477,
      "eddam": 4478,
      "Ġyeqqen": 4479,
      "Ġtnef": 4480,
      "ĠAgni": 4481,
      "Ġtaá¸¥erfit": 4482,
      "Ġticki": 4483,
      "anut": 4484,
      "ĠTab": 4485,
      "fak": 4486,
      "ĠAglam": 4487,
      "RI": 4488,
      "nekkes": 4489,
      "umar": 4490,
      "egza": 4491,
      "ÉĽeá¸į": 4492,
      "efden": 4493,
      "ĠMer": 4494,
      "meÉ£nasen": 4495,
      "Ġtebá¸įa": 4496,
      "Ġ32": 4497,
      "Ġicebá¸¥en": 4498,
      "ĠYerra": 4499,
      "bedden": 4500,
      "Ġtiwwura": 4501,
      "ĠprÃ©sident": 4502,
      "ĠÉĽa": 4503,
      "uriwin": 4504,
      "Ġtiá¸¥": 4505,
      "riri": 4506,
      "ĠleÉĽnaya": 4507,
      "ĠRacid": 4508,
      "ces": 4509,
      "qem": 4510,
      "ĠyimeÉ£ri": 4511,
      "Ġwaá¸¥": 4512,
      "reáºĵ": 4513,
      "ques": 4514,
      "Ġâ´": 4515,
      "ĠSmaÉĽil": 4516,
      "isin": 4517,
      "ĠImir": 4518,
      "Ç§eb": 4519,
      "Ġrri": 4520,
      "Ġumá¸įan": 4521,
      "effu": 4522,
      "Ġaselway": 4523,
      "ĠYugurten": 4524,
      "yla": 4525,
      "Ġyeh": 4526,
      "masen": 4527,
      "Ġttá¸¥": 4528,
      "Ġamahil": 4529,
      "des": 4530,
      "Ġtá¸į": 4531,
      "ĠimeÉ£ri": 4532,
      "ĠIss": 4533,
      "ĠKeÄįÄį": 4534,
      "unit": 4535,
      "wil": 4536,
      "Ġtabu": 4537,
      "yettwa": 4538,
      "ĠTasekla": 4539,
      "maÉĽen": 4540,
      "gayin": 4541,
      "ĠyiÉ£erbazen": 4542,
      "Ġtimsal": 4543,
      "dawi": 4544,
      "Ġbla": 4545,
      "elleq": 4546,
      "elleh": 4547,
      "ĠTiziri": 4548,
      "Ġtigejdanin": 4549,
      "Ġ01": 4550,
      "ebsi": 4551,
      "Ġyessi": 4552,
      "É£imi": 4553,
      "Ġwaddal": 4554,
      "fal": 4555,
      "ĠDagi": 4556,
      "ĠÉĽer": 4557,
      "ĠGer": 4558,
      "Ġirkelli": 4559,
      "Ġuqerruy": 4560,
      "ĠTunes": 4561,
      "kif": 4562,
      "ĠUfiÉ£": 4563,
      "iwed": 4564,
      "ĠtaÉ£uri": 4565,
      "meslayeÉ£": 4566,
      "gue": 4567,
      "ĠMouloud": 4568,
      "Ġteáºĵriá¸į": 4569,
      ".(": 4570,
      "Ġaber": 4571,
      "Ġameslay": 4572,
      "Ġuá¹Ńá¹Ńun": 4573,
      "Ġinzi": 4574,
      "dut": 4575,
      "misen": 4576,
      "pi": 4577,
      "ddi": 4578,
      "ĠBer": 4579,
      "Ġagens": 4580,
      "yettawin": 4581,
      "gie": 4582,
      "cicin": 4583,
      "ĠTams": 4584,
      "ĠlÉ£ella": 4585,
      "Ġtaqburt": 4586,
      "ĠAx": 4587,
      "ĠwaÉĽ": 4588,
      "manit": 4589,
      "Ġyisallen": 4590,
      "ĠweÉĽ": 4591,
      "elsant": 4592,
      "Ġttruá¸¥": 4593,
      "ĠKul": 4594,
      "nalÉ£a": 4595,
      "Ġyettwassnen": 4596,
      "ider": 4597,
      "zir": 4598,
      "ĠLbir": 4599,
      "Ġá¸¥em": 4600,
      "Ġccetwa": 4601,
      "Ġtikta": 4602,
      "ĠTikwal": 4603,
      "ĠyiniÉ£i": 4604,
      "mp": 4605,
      "Êĥ": 4606,
      "ution": 4607,
      "Ġyettnadi": 4608,
      "ekkar": 4609,
      "Ġune": 4610,
      "ĠyenÉ£a": 4611,
      "Ġtelha": 4612,
      "dent": 4613,
      "yegg": 4614,
      "ĠmaÉĽna": 4615,
      "Ġttwas": 4616,
      "Ġ2009": 4617,
      "ĠlÇ§ameÉĽ": 4618,
      "ĠÉ£el": 4619,
      "essar": 4620,
      "Ġccan": 4621,
      "ĠÉ£ezzif": 4622,
      "Ġkunwi": 4623,
      "hir": 4624,
      "Ġra": 4625,
      "Ġaba": 4626,
      "Ġdir": 4627,
      "ĠAtan": 4628,
      "Ġugama": 4629,
      "AC": 4630,
      "yagi": 4631,
      "ĠTen": 4632,
      "Ġtelmas": 4633,
      "nerr": 4634,
      "erni": 4635,
      "lid": 4636,
      "essu": 4637,
      "ĠAsuddem": 4638,
      "Ġnini": 4639,
      "aleb": 4640,
      "rie": 4641,
      "ĠNu": 4642,
      "Ġ31": 4643,
      "Ġ34": 4644,
      "II": 4645,
      "com": 4646,
      "qeá¸į": 4647,
      "Ġteáºĵáºĵ": 4648,
      "ita": 4649,
      "Ġkm": 4650,
      "ĠallaÉ£": 4651,
      "Ġccek": 4652,
      "geÉ£": 4653,
      "yeÄįÄį": 4654,
      "ĠAzal": 4655,
      "ĠazeggaÉ£": 4656,
      "ĠlemÉĽawna": 4657,
      "Ġwagguren": 4658,
      "ĠYimaziÉ£en": 4659,
      "Ġou": 4660,
      "ĠMan": 4661,
      "É£arin": 4662,
      "Ġ2017": 4663,
      "ĠØ§": 4664,
      "Ġuza": 4665,
      "Ġtimen": 4666,
      "ĠttÉĽ": 4667,
      "numi": 4668,
      "ĠAyagi": 4669,
      "ĠyiÉ£il": 4670,
      "duÉ£t": 4671,
      "ĠAkk": 4672,
      "Ġyinaw": 4673,
      "Ġiá¸įarren": 4674,
      "ynutin": 4675,
      "ĠyeÉ£ra": 4676,
      "Ġuddisen": 4677,
      "Ġtwala": 4678,
      "ebg": 4679,
      "Ġtalemmast": 4680,
      "Ġyeddan": 4681,
      "fawen": 4682,
      "waliá¸į": 4683,
      "Ġumgired": 4684,
      "Ġyerza": 4685,
      "Ġyettidiren": 4686,
      "ĠiÉ£a": 4687,
      "Ġtij": 4688,
      "qab": 4689,
      "ĠiÉ£il": 4690,
      "Ġ04": 4691,
      "ĠAyÉ£er": 4692,
      "eldun": 4693,
      "Ġren": 4694,
      "21": 4695,
      "aáºĵ": 4696,
      "ebla": 4697,
      "dir": 4698,
      "led": 4699,
      "Ġiáºĵer": 4700,
      "ratin": 4701,
      "Ġassa": 4702,
      "Ġyefk": 4703,
      "ternet": 4704,
      "ĠtejmaÉĽt": 4705,
      "rewt": 4706,
      "ĠtneÉ£": 4707,
      "Ġuzal": 4708,
      "ellat": 4709,
      "Ġâĸ": 4710,
      "yeqqimen": 4711,
      "Ġnxeddem": 4712,
      "anna": 4713,
      "emp": 4714,
      "Ġtidi": 4715,
      "Ġyergazen": 4716,
      "Ġuneá¸įlib": 4717,
      "Ġwanect": 4718,
      "Ã¨s": 4719,
      "eu": 4720,
      "Ġadabu": 4721,
      "Ġlbi": 4722,
      "Ç§an": 4723,
      "Ġwuzzal": 4724,
      "erdas": 4725,
      "Ġwwá¸įen": 4726,
      "sed": 4727,
      "sil": 4728,
      "elyan": 4729,
      "mart": 4730,
      "Ġtedder": 4731,
      "ĠyuÉ£en": 4732,
      "aa": 4733,
      "zur": 4734,
      "Ùħ": 4735,
      "ĠyettÉĽ": 4736,
      "Ġusebter": 4737,
      "emmal": 4738,
      "ukin": 4739,
      "Ġtimaynutin": 4740,
      "Ġmeqqar": 4741,
      "ïģ§": 4742,
      "rr": 4743,
      "Ġyeáºĵri": 4744,
      "Ġlmer": 4745,
      "Ġyidammen": 4746,
      "eddart": 4747,
      "Ġumagrad": 4748,
      "qal": 4749,
      "yl": 4750,
      "Ġtd": 4751,
      "Ġyefhem": 4752,
      "qrant": 4753,
      "meddakel": 4754,
      "].": 4755,
      "bun": 4756,
      "do": 4757,
      "weÉ£": 4758,
      "ufar": 4759,
      "onc": 4760,
      "emmleá¸į": 4761,
      "Ġjar": 4762,
      "egzawalen": 4763,
      "yekkes": 4764,
      "Ġtebá¸¥irt": 4765,
      "kemmi": 4766,
      "Ġunekcum": 4767,
      "Ġtwalaá¸į": 4768,
      "Ġumeskar": 4769,
      "mmi": 4770,
      "nexdem": 4771,
      "elsa": 4772,
      "Ġyidurar": 4773,
      "ĠLes": 4774,
      "Ġtlatin": 4775,
      "elmadt": 4776,
      "Ġteddun": 4777,
      "ĠSami": 4778,
      "ĠTugna": 4779,
      "ĠMassa": 4780,
      "ĠFirefox": 4781,
      "bt": 4782,
      "jur": 4783,
      "Ġtaá¹Ń": 4784,
      "Ġtamusni": 4785,
      "Ġlmi": 4786,
      "rik": 4787,
      "ĠDdu": 4788,
      "Ġilugan": 4789,
      "Ġlfayda": 4790,
      "Ġilemáºĵi": 4791,
      "ĠÎ£": 4792,
      "ii": 4793,
      "Ġnitni": 4794,
      "Ġiá¹Ľuá¸¥": 4795,
      "Ġlme": 4796,
      "Ġ).": 4797,
      "Ġtger": 4798,
      "á¸įilen": 4799,
      "Ġtamez": 4800,
      "Ġmo": 4801,
      "Ġtettawi": 4802,
      "taram": 4803,
      "eá¹Ńá¹Ńel": 4804,
      "Ġyeá¸¥bes": 4805,
      "Ġtririt": 4806,
      "á¹Ńeá¸į": 4807,
      "ĠmeÉ£res": 4808,
      "...)": 4809,
      "eyyi": 4810,
      "Ġtlufa": 4811,
      "Ġtwuri": 4812,
      "ĠteÄįÄįur": 4813,
      "sek": 4814,
      "ĠÇ§Ç§an": 4815,
      "á¹Ńen": 4816,
      "uref": 4817,
      "ĠIruá¸¥": 4818,
      "ette": 4819,
      "ĠLaÉĽ": 4820,
      "iá¸¥el": 4821,
      "Ġuccen": 4822,
      "ĠMarikan": 4823,
      "Ġnej": 4824,
      "Ġlo": 4825,
      "Ġmmut": 4826,
      "nulf": 4827,
      ",;": 4828,
      "erben": 4829,
      "edren": 4830,
      "ĠrÃ©": 4831,
      "Ġ2008": 4832,
      "Ġproc": 4833,
      "Ġnna": 4834,
      "issa": 4835,
      "Ġttekk": 4836,
      "Ġcbaá¸¥a": 4837,
      "ĠBuz": 4838,
      "ĠTamacahut": 4839,
      "Ġsimmal": 4840,
      "Ġsbiá¹Ńar": 4841,
      "bent": 4842,
      "fawat": 4843,
      "riwin": 4844,
      "Ġyettru": 4845,
      "ewlen": 4846,
      "Ġyerfed": 4847,
      "Ġyeddu": 4848,
      "ĠsÉĽant": 4849,
      "ĠtabÉ£est": 4850,
      "Ġtadelsant": 4851,
      "Ġyizerfan": 4852,
      "ceá¸į": 4853,
      "Ġtá¹£": 4854,
      "Ġtumert": 4855,
      "ille": 4856,
      "Ġameáºĵyan": 4857,
      "nez": 4858,
      "ayi": 4859,
      "ayed": 4860,
      "ekkun": 4861,
      "Ġaqerruy": 4862,
      "bus": 4863,
      "num": 4864,
      "Ġtlem": 4865,
      "inig": 4866,
      "''.": 4867,
      "inem": 4868,
      "ite": 4869,
      "Ġmar": 4870,
      "ĠLu": 4871,
      "Ġazem": 4872,
      "graden": 4873,
      "bl": 4874,
      "fken": 4875,
      "jan": 4876,
      "xen": 4877,
      "Ġuá¹£": 4878,
      "maÉĽna": 4879,
      "Ġtameslayt": 4880,
      "urif": 4881,
      "áºĵiyen": 4882,
      "ziá¸į": 4883,
      "ĠYiwet": 4884,
      "Ġtiniá¸į": 4885,
      "Ġnessa": 4886,
      "Ġtekkes": 4887,
      "kemmel": 4888,
      "Ġel": 4889,
      "ĠAna": 4890,
      "zenziÉ£": 4891,
      "Ġtelq": 4892,
      "ĠlÉĽesker": 4893,
      "gg": 4894,
      "Ġnerra": 4895,
      "rensist": 4896,
      "ĠayÉ£er": 4897,
      "Ġtedyanin": 4898,
      "unefken": 4899,
      "wilt": 4900,
      "É£em": 4901,
      "ĠAÉ£er": 4902,
      "Ġtettru": 4903,
      "Ġalma": 4904,
      "Ġtullas": 4905,
      "Ġaqbur": 4906,
      "Ġuzekka": 4907,
      "Ġiá¸¥erfiyen": 4908,
      "Ġ2010": 4909,
      "Ġtadyant": 4910,
      "Ġlá¸¥aÇ§a": 4911,
      "ho": 4912,
      "kid": 4913,
      "rec": 4914,
      "teÉ£": 4915,
      "Ġaga": 4916,
      "Ġyaru": 4917,
      "Ġyeá¹£": 4918,
      "á¸įar": 4919,
      "Ġtutt": 4920,
      "ĠBrahim": 4921,
      "ĠRo": 4922,
      "Ġyedles": 4923,
      "Ġá¹Ľá¹Ľay": 4924,
      "ÉĽuc": 4925,
      "á¹Ľab": 4926,
      "á¹Ńá¹Ńanen": 4927,
      "Ġtayunin": 4928,
      "efki": 4929,
      "lalt": 4930,
      "Ġ2019": 4931,
      "Ġtmenna": 4932,
      "Ġque": 4933,
      "ÉĽem": 4934,
      "dawen": 4935,
      "ebsen": 4936,
      "ruct": 4937,
      "baÉ£": 4938,
      "Ġyeldi": 4939,
      "zenz": 4940,
      "Ġtugdi": 4941,
      "dukal": 4942,
      "ES": 4943,
      "yawin": 4944,
      "nif": 4945,
      "ĠUd": 4946,
      "Ġyettmeslayen": 4947,
      "Ġyezgan": 4948,
      "erreb": 4949,
      "ĠYettili": 4950,
      "ĠAmi": 4951,
      "Ġlkanun": 4952,
      "miyen": 4953,
      "Ġkaby": 4954,
      "uneá¸¥": 4955,
      "Ġlax": 4956,
      "taá¸¥": 4957,
      "Ġtaggayin": 4958,
      "Ġ37": 4959,
      "reft": 4960,
      "lala": 4961,
      "liá¸į": 4962,
      "ĠLew": 4963,
      "Ġlexbar": 4964,
      "Ġtabrat": 4965,
      "ebbub": 4966,
      "ĠMeÉĽna": 4967,
      "Ġá¸¥aca": 4968,
      "mo": 4969,
      "rameÉ£": 4970,
      "emÉĽen": 4971,
      "esna": 4972,
      "uleÉ£": 4973,
      "Ġusem": 4974,
      "ĠtÉ£iwanin": 4975,
      "meslayin": 4976,
      "dukla": 4977,
      "lellit": 4978,
      "rer": 4979,
      "ration": 4980,
      "eli": 4981,
      "rikt": 4982,
      "Ġasem": 4983,
      "Ġnettu": 4984,
      "Ġyeqqimen": 4985,
      "23": 4986,
      "ĠUqbel": 4987,
      "ĠuÉ£mis": 4988,
      "ĠTebÉ£iá¸į": 4989,
      "eÇ§Ç§igen": 4990,
      "waj": 4991,
      "Ġallalen": 4992,
      "Ġá¹Ľuá¸¥": 4993,
      "Ġtamirant": 4994,
      "fkeÉ£": 4995,
      "Ġuneflus": 4996,
      "fkan": 4997,
      "minist": 4998,
      "iran": 4999,
      "Ġyessew": 5000,
      "Ġyerran": 5001,
      "ĠÆĲmara": 5002,
      "ĠuÉ£ella": 5003,
      "Ġiles": 5004,
      "wasen": 5005,
      "Ġtasental": 5006,
      "ĠAmer": 5007,
      "ilumi": 5008,
      "Ġazemmur": 5009,
      "endurt": 5010,
      "siÉ£": 5011,
      "Ġyiserdasen": 5012,
      "ĠYer": 5013,
      "Ġudfel": 5014,
      "Ġá¹Ńá¹Ńaq": 5015,
      "Ġimekli": 5016,
      "Ġicen": 5017,
      "áºĵan": 5018,
      "Ġtetta": 5019,
      "ĠAsuf": 5020,
      "Ġleá¸¥mala": 5021,
      "rumyen": 5022,
      "yeá¸įran": 5023,
      "Ġtaá¸įsa": 5024,
      ">>": 5025,
      "kiwin": 5026,
      "Ġdt": 5027,
      "Ġiqb": 5028,
      "alan": 5029,
      "á¸įis": 5030,
      "ziri": 5031,
      "ecca": 5032,
      "ĠtettuÉ£al": 5033,
      "ehden": 5034,
      "meÉ£riwin": 5035,
      "Ġtezmireá¸į": 5036,
      "kecmen": 5037,
      "yexdem": 5038,
      "unen": 5039,
      "ĠaneÉ£": 5040,
      "ĠAsget": 5041,
      "Ġyeww": 5042,
      "ddukkal": 5043,
      "Ġcode": 5044,
      "LI": 5045,
      "Mi": 5046,
      "duÉ£": 5047,
      "ĠiliÉ£": 5048,
      "ĠUÉ£": 5049,
      "ouche": 5050,
      "ĠyeÉ£ran": 5051,
      "ĠSalem": 5052,
      "Ġyimukan": 5053,
      "uá¹£á¹£en": 5054,
      "dda": 5055,
      "iÇ§": 5056,
      "Ġna": 5057,
      "ĠYewwi": 5058,
      "Ġusteqsi": 5059,
      "Ġtefk": 5060,
      "Ġtidett": 5061,
      "uddim": 5062,
      "Ġyettwaá¸¥": 5063,
      "raÉ£lan": 5064,
      "dayin": 5065,
      "Ġtukksa": 5066,
      "riden": 5067,
      "ehlen": 5068,
      "yettili": 5069,
      "Ġá¹£á¹£eá¸¥": 5070,
      "Ġiáºĵuran": 5071,
      "ĠÉ£ezzifen": 5072,
      "cer": 5073,
      "malt": 5074,
      "yek": 5075,
      "âĨĴ": 5076,
      "anni": 5077,
      "Ġyizem": 5078,
      "Ġamgired": 5079,
      "sik": 5080,
      "ĠZiÉ£": 5081,
      "Ġ48": 5082,
      "qayeq": 5083,
      "yufraren": 5084,
      "Ġest": 5085,
      "ĠtiÉĽ": 5086,
      "Ġtilisa": 5087,
      "uto": 5088,
      "ĠIger": 5089,
      "Ġtugi": 5090,
      "á¹Ľá¹Ľ": 5091,
      "ellel": 5092,
      "Ġwayla": 5093,
      "Ġtetteddu": 5094,
      "kuk": 5095,
      "Ġtimlilit": 5096,
      "yerran": 5097,
      "Ġtekfa": 5098,
      "Ġtedyant": 5099,
      "ĠtasnalÉ£a": 5100,
      "Dallet": 5101,
      "zayer": 5102,
      "á¹£il": 5103,
      "ddem": 5104,
      "bex": 5105,
      "É£iwin": 5106,
      "Ġlezzayer": 5107,
      "Ġteá¹£": 5108,
      "Ġusugen": 5109,
      "ellem": 5110,
      "Ġtsek": 5111,
      "afeÉ£": 5112,
      "Ġtenfaliyin": 5113,
      "erruj": 5114,
      "Ġlla": 5115,
      "ĠMelmi": 5116,
      "Ġmani": 5117,
      "ĠtÉ£ellist": 5118,
      "Ġ38": 5119,
      "Ġtanfalit": 5120,
      "eddac": 5121,
      "Ġudiwenni": 5122,
      "Ġtedbelt": 5123,
      "Ġtufiá¸į": 5124,
      "Ġaá¸įar": 5125,
      "Ġuzaraf": 5126,
      "ĠTeÉ£": 5127,
      "tiyen": 5128,
      "emmurt": 5129,
      "2004": 5130,
      "Ġtmiá¸į": 5131,
      "ĠIwakken": 5132,
      "xemmim": 5133,
      "sm": 5134,
      "Ġteáºĵra": 5135,
      "Ġtimer": 5136,
      "Ġusuddem": 5137,
      "Ġtetten": 5138,
      "taq": 5139,
      "Ġyemmeslay": 5140,
      "Ġtannumi": 5141,
      "Ġteddu": 5142,
      "duden": 5143,
      "yefki": 5144,
      "Ġtrakalt": 5145,
      "Ġtlalit": 5146,
      "É£iwt": 5147,
      "Ġnec": 5148,
      "ĠineÉ£": 5149,
      "Ġyeá¸¥ricen": 5150,
      "Ġsent": 5151,
      "á¸¥eÉ£": 5152,
      "ĠIt": 5153,
      "Ġusnerni": 5154,
      "Ġber": 5155,
      "Ġgan": 5156,
      "ennad": 5157,
      "emmam": 5158,
      "Ġlá¸¥eq": 5159,
      "ĠAsefru": 5160,
      "ĠTasek": 5161,
      "negmer": 5162,
      "Ġtqa": 5163,
      "É£il": 5164,
      "Ġnex": 5165,
      "Ġyizen": 5166,
      "dawan": 5167,
      "ĠMat": 5168,
      "Ġtettu": 5169,
      "nanen": 5170,
      "Ġwallus": 5171,
      "abla": 5172,
      "ĠBururu": 5173,
      "Ġni": 5174,
      "Ġtigi": 5175,
      "ĠSAL": 5176,
      "ellek": 5177,
      "hand": 5178,
      "Ġhref": 5179,
      "Ġyiá¸įes": 5180,
      "ĠJean": 5181,
      "krist": 5182,
      "qiq": 5183,
      "xedmeÉ£": 5184,
      "Ġex": 5185,
      "rax": 5186,
      "Ġsani": 5187,
      "edlen": 5188,
      "Ġasif": 5189,
      "wiá¸į": 5190,
      "Ã©qu": 5191,
      "zuz": 5192,
      "ns": 5193,
      "Ġlima": 5194,
      "ĠTma": 5195,
      "nig": 5196,
      "ĠIx": 5197,
      "Ġtulawin": 5198,
      "Ġuná¹£ib": 5199,
      "Ġizem": 5200,
      "Ġá¹£á¹£ifa": 5201,
      "ĠTtxil": 5202,
      "Ġiruá¸¥en": 5203,
      "Ġyettwassen": 5204,
      "Ġtasentalant": 5205,
      "Ġahil": 5206,
      "Ġimedyazen": 5207,
      "Ġsexdamen": 5208,
      "Ġtasen": 5209,
      "exte": 5210,
      "Ġwiden": 5211,
      "rusrid": 5212,
      "Ġlehlak": 5213,
      "Ġtuná¹£ib": 5214,
      "Ġyulyu": 5215,
      "lest": 5216,
      "yiÉ£": 5217,
      "idin": 5218,
      "ĠzzwaÇ§": 5219,
      "Ġtemsirin": 5220,
      "Ġ05": 5221,
      "rren": 5222,
      "Ġtusa": 5223,
      "á¹Ľum": 5224,
      "ĠtebÉ£est": 5225,
      "qila": 5226,
      "Ġproduction": 5227,
      "HI": 5228,
      "LA": 5229,
      "ÙĪ": 5230,
      "Ġasent": 5231,
      "issin": 5232,
      "Ġulama": 5233,
      "É£allen": 5234,
      "Ġ1980": 5235,
      "Ġukkuáºĵ": 5236,
      "Ġuba": 5237,
      "Ġseld": 5238,
      "Ġskud": 5239,
      "Ġafran": 5240,
      "Ġuzwel": 5241,
      "ebbas": 5242,
      "kun": 5243,
      "lek": 5244,
      "sf": 5245,
      "Ġwurar": 5246,
      "ati": 5247,
      "cabi": 5248,
      "Ġulawen": 5249,
      "Ġá¹¬awes": 5250,
      "Ġáºĵran": 5251,
      "bet": 5252,
      "ĠYa": 5253,
      "muqel": 5254,
      "ĠTac": 5255,
      "Ġatrar": 5256,
      "beÉĽda": 5257,
      "ÉĽawan": 5258,
      "Ġtaberkant": 5259,
      "eau": 5260,
      "Ġimedyaten": 5261,
      "Ġtter": 5262,
      "etti": 5263,
      "Ġiseg": 5264,
      "Ġyezdin": 5265,
      "errust": 5266,
      "oui": 5267,
      "Ġlemri": 5268,
      "bil": 5269,
      "uman": 5270,
      "ĠiÇ§": 5271,
      "onnement": 5272,
      "ehran": 5273,
      "Ġlá¸¥erma": 5274,
      "Ġyeá¸įfer": 5275,
      "Ġtatut": 5276,
      "assassinat": 5277,
      "âµīâµ": 5278,
      "40": 5279,
      "fiq": 5280,
      "qqar": 5281,
      "áºĵáºĵyan": 5282,
      "Ġusenfali": 5283,
      "henni": 5284,
      "ĠLá¸¥usin": 5285,
      "Ġagensay": 5286,
      "deÉĽ": 5287,
      "tawi": 5288,
      "Ġlmit": 5289,
      "Ġyelmed": 5290,
      "Ġxir": 5291,
      "ĠyezdeÉ£": 5292,
      "ĠÉĽla": 5293,
      "Ġuáºĵeá¹Ńá¹Ńa": 5294,
      "nekni": 5295,
      "eÄį": 5296,
      "gum": 5297,
      "Ġru": 5298,
      "É£in": 5299,
      "allit": 5300,
      "Ġtament": 5301,
      "Ġlmel": 5302,
      "ĠMay": 5303,
      "ĠMeá¸¥": 5304,
      "ĠlameÉĽna": 5305,
      "ĠyimselÉ£uyen": 5306,
      "Ġtansa": 5307,
      "Ġtessaweá¸į": 5308,
      "fuyla": 5309,
      "Ġtemsirt": 5310,
      "Ġyemxalafen": 5311,
      "AssaÉ£": 5312,
      "yaÉĽ": 5313,
      "Ġusebtar": 5314,
      "á¹Ńá¹Ńef": 5315,
      "Ġbeá¹Ńá¹Ńu": 5316,
      "Ġyisebtar": 5317,
      "ĠNess": 5318,
      "emmut": 5319,
      "Ġyidgan": 5320,
      "Ġá¸¤em": 5321,
      "das": 5322,
      "pit": 5323,
      "anun": 5324,
      "Ġpas": 5325,
      "Ġyecna": 5326,
      "Ġneh": 5327,
      "Ġisefka": 5328,
      "mekta": 5329,
      "ĠTamu": 5330,
      "ĠaÉ£yul": 5331,
      "ĠtuÉ£mas": 5332,
      "dimt": 5333,
      "Ġukuáºĵ": 5334,
      "lata": 5335,
      "Ġyettaru": 5336,
      "Ġugeffur": 5337,
      "Ġirden": 5338,
      "Ø§Ø": 5339,
      "Ġinumak": 5340,
      "ddukkla": 5341,
      "xt": 5342,
      "dac": 5343,
      "Ġttw": 5344,
      "faq": 5345,
      "uraren": 5346,
      "ĠÉĽli": 5347,
      "ston": 5348,
      "Ġtkett": 5349,
      "Ġtamiwin": 5350,
      "ayla": 5351,
      "ayez": 5352,
      "yada": 5353,
      "Ġimyagen": 5354,
      "ĠtinÉ£i": 5355,
      "ĠtiÉ£ilt": 5356,
      "selmen": 5357,
      "ĠkecmeÉ£": 5358,
      "oir": 5359,
      "á¸įur": 5360,
      "lab": 5361,
      "ĠYil": 5362,
      "ĠLÇ§": 5363,
      "ĠAdlis": 5364,
      "Ġyidir": 5365,
      "ĠUfella": 5366,
      "ĠÇ§": 5367,
      "Ġiker": 5368,
      "Ġyeá¸įrisen": 5369,
      "ĠNes": 5370,
      "Ġyerwel": 5371,
      "iste": 5372,
      "Ġagrud": 5373,
      "ĠteÉ£demt": 5374,
      "Ġlxiá¹Ľ": 5375,
      "baylit": 5376,
      "Ġleslaá¸¥": 5377,
      "Ġtizlit": 5378,
      "Ġyilemáºĵi": 5379,
      "ĠAmezruy": 5380,
      "Emp": 5381,
      "emras": 5382,
      "ĠMeq": 5383,
      "ĠumbaÉĽd": 5384,
      "Ġnnef": 5385,
      "ĠáºĴeá¹Ľ": 5386,
      "amar": 5387,
      "karen": 5388,
      "tay": 5389,
      "Ġimez": 5390,
      "awas": 5391,
      "amt": 5392,
      "ĠssneÉ£": 5393,
      "ĠCaÉĽ": 5394,
      "omp": 5395,
      "Ġtfaska": 5396,
      "Ġnessin": 5397,
      "Ġyiá¸įarren": 5398,
      "Ġlmakla": 5399,
      "zilla": 5400,
      "teqqar": 5401,
      "uy": 5402,
      "kkelt": 5403,
      "Ġmeq": 5404,
      "ĠiÉ£eblan": 5405,
      "Ġtayunt": 5406,
      "Ġdina": 5407,
      "rebga": 5408,
      "ĠÆĲebdel": 5409,
      "rá¸¥": 5410,
      "yaweá¸į": 5411,
      "Ġyum": 5412,
      "eqsi": 5413,
      "Ġyidrimen": 5414,
      "ejra": 5415,
      "yuá¸į": 5416,
      "aram": 5417,
      "Ġtnez": 5418,
      "Ġ07": 5419,
      "dawsa": 5420,
      "Ġuá¸įlib": 5421,
      "ĠyiÉĽeggalen": 5422,
      "iá¹Ń": 5423,
      "jed": 5424,
      "Ġnel": 5425,
      "á¹£ar": 5426,
      "ezmen": 5427,
      "Ġ54": 5428,
      "ewwiq": 5429,
      "ĠtalÉ£awit": 5430,
      "Ġbedden": 5431,
      "Ġmeurtre": 5432,
      "ammeri": 5433,
      "jeb": 5434,
      "ĠLar": 5435,
      "Ġiwulmen": 5436,
      "una": 5437,
      "uá¹£": 5438,
      "uga": 5439,
      "Ġuy": 5440,
      "kker": 5441,
      "awlen": 5442,
      "ĠLeb": 5443,
      "ellaá¸¥": 5444,
      "Ġterza": 5445,
      "Ġyeá¹Ńá¹Ńes": 5446,
      "Ġyimeá¹Ńá¹Ń": 5447,
      "Ġqui": 5448,
      "kal": 5449,
      "ĠAwi": 5450,
      "ĠDin": 5451,
      "Ġmag": 5452,
      "Ġtettaru": 5453,
      "Ġteft": 5454,
      "orma": 5455,
      "Ġtnezz": 5456,
      "ĠYesÉĽa": 5457,
      "ĠtÉ£amsa": 5458,
      "yeqqaren": 5459,
      "ĠMusa": 5460,
      "dimen": 5461,
      "Ġimesli": 5462,
      "yehwa": 5463,
      "Bure": 5464,
      "sus": 5465,
      "Ġtah": 5466,
      "wah": 5467,
      "ĠLmer": 5468,
      "Ġyissin": 5469,
      "ĠtaswiÉĽt": 5470,
      "nuzu": 5471,
      "ĠleÉĽtab": 5472,
      "Ġwunti": 5473,
      "ĠtiÉ£remt": 5474,
      "ĠimenÉ£i": 5475,
      "Ġtni": 5476,
      "Ġumer": 5477,
      "ĠMou": 5478,
      "onction": 5479,
      "Ġsiwa": 5480,
      "Ġyettwab": 5481,
      "Ġkkren": 5482,
      "Ġtmerwin": 5483,
      "girra": 5484,
      "yex": 5485,
      "Ġseb": 5486,
      "ĠUssan": 5487,
      "Ġakkenni": 5488,
      "effun": 5489,
      "Ġafen": 5490,
      "Ġyewwin": 5491,
      "Ġyettwasnen": 5492,
      "pen": 5493,
      "ress": 5494,
      "ye": 5495,
      "ĠSsa": 5496,
      "zzayer": 5497,
      "ĠyeÉĽreá¸į": 5498,
      "ĠlkaÉ£eá¸į": 5499,
      "tili": 5500,
      "Ġá¹£á¹£beá¸¥": 5501,
      "Ġtaddert": 5502,
      "Ġiqbayliyen": 5503,
      "Ġtames": 5504,
      "unent": 5505,
      "Ġazegzaw": 5506,
      "ĠlÉĽid": 5507,
      "ĠBoston": 5508,
      "hÃ©": 5509,
      "lÃ©": 5510,
      "effer": 5511,
      "Ġccer": 5512,
      "ĠtiÉ£awsiwin": 5513,
      "ĠtuffÉ£a": 5514,
      "ublique": 5515,
      "Ġtmed": 5516,
      "ane": 5517,
      "á¸¥is": 5518,
      "á¸¥id": 5519,
      "Ġtalliyin": 5520,
      "Ġyimyura": 5521,
      "ĠtaÉ£ulin": 5522,
      "Ġ49": 5523,
      "ebbar": 5524,
      "ĠArezqi": 5525,
      "ĠTamawt": 5526,
      "Ġtazzayrit": 5527,
      "ded": 5528,
      "Ġtut": 5529,
      "Ġigen": 5530,
      "ĠTá¸¥": 5531,
      "Ġyettaf": 5532,
      "Ġusexdem": 5533,
      "ĠLma": 5534,
      "ĠtenzeÉ£t": 5535,
      "risonnement": 5536,
      "uqten": 5537,
      "Ġulmad": 5538,
      "ours": 5539,
      "!\"": 5540,
      "ica": 5541,
      "ismel": 5542,
      "ttan": 5543,
      "ummu": 5544,
      "Ġtamellalt": 5545,
      "ouv": 5546,
      "Ġtá¸¥anut": 5547,
      "Ġumecwar": 5548,
      "mettit": 5549,
      "oub": 5550,
      "Ç§i": 5551,
      "Ġtuyat": 5552,
      "ĠYeÉĽ": 5553,
      "Ġyettbeddil": 5554,
      "taire": 5555,
      "kad": 5556,
      "Ġyinag": 5557,
      "Ġ39": 5558,
      "zaz": 5559,
      "aben": 5560,
      "Ġlewhi": 5561,
      "dis": 5562,
      "inaÉ£": 5563,
      "ĠUmal": 5564,
      "ellin": 5565,
      "áºĵáºĵuÉ£": 5566,
      "arag": 5567,
      "remier": 5568,
      "Ġimenza": 5569,
      "Ġwurfan": 5570,
      "ht": 5571,
      "tre": 5572,
      "Ġlal": 5573,
      "Ġlmeá¸¥": 5574,
      "ĠTeq": 5575,
      "Ġyessin": 5576,
      "Ġuneg": 5577,
      "orp": 5578,
      "ĠÄįÄįen": 5579,
      "ĠTasekreft": 5580,
      "27": 5581,
      "Ġwiyi": 5582,
      "elá¹Ńan": 5583,
      "Ġyimedyazen": 5584,
      "ĠDj": 5585,
      "Ġtujj": 5586,
      "uder": 5587,
      "Ġyinig": 5588,
      "ecteur": 5589,
      "ĠArmi": 5590,
      "ĠNettat": 5591,
      "Emprisonnement": 5592,
      "gug": 5593,
      "gellat": 5594,
      "qit": 5595,
      "zaren": 5596,
      "Ġtuzz": 5597,
      "ĠYem": 5598,
      "dum": 5599,
      "Ġwalan": 5600,
      "Ġizer": 5601,
      "Ġibedden": 5602,
      "siw": 5603,
      "Ã¹": 5604,
      "ÓĻ": 5605,
      "ĠItt": 5606,
      "ĠLÉĽin": 5607,
      "É£aÉ£": 5608,
      "udi": 5609,
      "ĠÆĲem": 5610,
      "ĠassaÉ£en": 5611,
      "Ġtameqrant": 5612,
      "á¹Ńaq": 5613,
      "Ġiá¸įerrun": 5614,
      "Ġ2011": 5615,
      "ĠYeá¸¥ya": 5616,
      "26": 5617,
      "ekkiwin": 5618,
      "Ġtenniá¸į": 5619,
      "Ġayefki": 5620,
      "ĠÉĽlayen": 5621,
      "Ġ46": 5622,
      "Ġteldi": 5623,
      "MARA": 5624,
      "milin": 5625,
      "ĠYuÉ£": 5626,
      "Ġusemmiá¸į": 5627,
      "ĠÆĲni": 5628,
      "ĠAseggas": 5629,
      "ĠiÉ£allen": 5630,
      "Ġfellas": 5631,
      "Éį": 5632,
      "Ġaá¹£": 5633,
      "Ġnerr": 5634,
      "Ġsell": 5635,
      "ĠÆ©": 5636,
      "ĠrriÉ£": 5637,
      "Ġ53": 5638,
      "ĠAmsawal": 5639,
      "ID": 5640,
      "Taf": 5641,
      "imeá¸į": 5642,
      "rmi": 5643,
      "anit": 5644,
      "eblen": 5645,
      "eddren": 5646,
      "Ġanta": 5647,
      "Ġ06": 5648,
      "Ġimeá¹Ńá¹Ńi": 5649,
      "Ġtfarest": 5650,
      "Ġwacá¸¥al": 5651,
      "islit": 5652,
      "ĠTic": 5653,
      "Ġtagej": 5654,
      "Ġtuccá¸įa": 5655,
      "teá¸¥": 5656,
      "Ġddan": 5657,
      "mag": 5658,
      "Ġssenf": 5659,
      "ecta": 5660,
      "ĠCrif": 5661,
      "Ġakw": 5662,
      "ehwa": 5663,
      "Ġazgen": 5664,
      "ĠtuÉ£aleá¸į": 5665,
      "Ġaxir": 5666,
      "Ġtseddast": 5667,
      "muqul": 5668,
      "Ġchef": 5669,
      "Ġllu": 5670,
      "ĠMammeri": 5671,
      "Ġyisekkilen": 5672,
      "Ġyessef": 5673,
      "wanak": 5674,
      "ĠlaÉĽmer": 5675,
      "ĠYessefk": 5676,
      "may": 5677,
      "Ġlj": 5678,
      "ĠUk": 5679,
      "Ġusiweá¸į": 5680,
      "eá¸¥á¸¥a": 5681,
      "Ġrradyu": 5682,
      "ĠWagi": 5683,
      "Ġssuma": 5684,
      "ĠaÉ£balu": 5685,
      "igna": 5686,
      "Ġtkemmel": 5687,
      "ÙĦØ": 5688,
      "Ġsufella": 5689,
      "ĠxeddmeÉ£": 5690,
      "ructures": 5691,
      "yekcem": 5692,
      "yeÉ£li": 5693,
      "ĠUdem": 5694,
      "Ġuserwes": 5695,
      "biben": 5696,
      "Ġ44": 5697,
      "ĠTaÉĽwint": 5698,
      "lelli": 5699,
      "arru": 5700,
      "lie": 5701,
      "eÉ£ben": 5702,
      "ebber": 5703,
      "Ġkett": 5704,
      "ekkurt": 5705,
      "Ġtsestant": 5706,
      "awalt": 5707,
      "ĠKen": 5708,
      "Ġá¸¤emmu": 5709,
      "aá¹Ńar": 5710,
      "Ġajdid": 5711,
      "Ġlekdeb": 5712,
      "Ġyixfawen": 5713,
      "raÇ§un": 5714,
      "Ġtuná¹£ibt": 5715,
      "qasem": 5716,
      "sal": 5717,
      "tez": 5718,
      "ĠÉĽad": 5719,
      "ĠYir": 5720,
      "Ġtemmal": 5721,
      "diq": 5722,
      "ĠaruÉ£": 5723,
      "Ġtazzla": 5724,
      "ĠYezga": 5725,
      "Wezzu": 5726,
      "nex": 5727,
      "kksen": 5728,
      "iwan": 5729,
      "Ġususru": 5730,
      "Ġ43": 5731,
      "yeÇ§Ç§a": 5732,
      "rugza": 5733,
      "Ġiqburen": 5734,
      "Ġawin": 5735,
      "Ġdans": 5736,
      "Ġwezzi": 5737,
      "á¹£ukin": 5738,
      "Ġusli": 5739,
      "ellex": 5740,
      "Ġaggur": 5741,
      "ĠÉĽedd": 5742,
      "Ġ2000": 5743,
      "Ġlxiq": 5744,
      "ureur": 5745,
      "ĠAzmul": 5746,
      "ebded": 5747,
      "ĠttaruÉ£": 5748,
      "ilumit": 5749,
      "ais": 5750,
      "sawen": 5751,
      "Ġuran": 5752,
      "Ġusaá¸įuf": 5753,
      "Ġben": 5754,
      "biá¸¥": 5755,
      "uÉ£aleÉ£": 5756,
      "ĠKamal": 5757,
      "beddilen": 5758,
      "ĠyewÉĽer": 5759,
      "Ġtektiwin": 5760,
      "á¹Ľansa": 5761,
      "ĠAmaziÉ£": 5762,
      "Ġyimeslayen": 5763,
      "urin": 5764,
      "Ġtiáºĵri": 5765,
      "ĠIme": 5766,
      "ĠNeb": 5767,
      "Ġtasertit": 5768,
      "nana": 5769,
      "eá¹Ńá¹Ńiá¸įen": 5770,
      "Ġttarun": 5771,
      "ĠYeshel": 5772,
      "Ġtmezgunt": 5773,
      "rong": 5774,
      "Tam": 5775,
      "rreÉ£": 5776,
      "Ġsec": 5777,
      "ĠAÉ£el": 5778,
      "Ġlgirra": 5779,
      "cabin": 5780,
      "Ġá¸¥ed": 5781,
      "Ġ08": 5782,
      "Ġ2012": 5783,
      "raff": 5784,
      "dayen": 5785,
      "fug": 5786,
      "po": 5787,
      "Ġtxedd": 5788,
      "Ġiru": 5789,
      "ĠAM": 5790,
      "Ġlabas": 5791,
      "Ġxalti": 5792,
      "Ġzzher": 5793,
      "Ġibawen": 5794,
      "ĠlÇ§iha": 5795,
      "Ġunaáºĵur": 5796,
      "Ġwedrar": 5797,
      "cation": 5798,
      "Ġ#": 5799,
      "Ġtcu": 5800,
      "Ġtdukli": 5801,
      "Ġyufan": 5802,
      "ĠIban": 5803,
      "Ġidis": 5804,
      "Ġyessexdem": 5805,
      "Ġnettwali": 5806,
      "Ġtasestant": 5807,
      "Ġá¸¥emmlen": 5808,
      "ebbel": 5809,
      "kemmil": 5810,
      "Texte": 5811,
      "Ġnefk": 5812,
      "maá¸¥": 5813,
      "ĠMeqq": 5814,
      "Ġisekkilen": 5815,
      "Ġtimura": 5816,
      "Ġifazen": 5817,
      "Win": 5818,
      "á¸įeá¸¥": 5819,
      "Ġwel": 5820,
      "esmel": 5821,
      "waliÉ£": 5822,
      "Ġrnan": 5823,
      "ĠWehran": 5824,
      "faá¹Ľ": 5825,
      "Ġkksen": 5826,
      "É£es": 5827,
      "Ġimusnawen": 5828,
      "mana": 5829,
      "ellaá¸¥en": 5830,
      "Ġtsuta": 5831,
      "Ġyeffer": 5832,
      "ĠqqareÉ£": 5833,
      "Ġtugg": 5834,
      "ĠAmaru": 5835,
      "á¹Ľansist": 5836,
      "fiá¸į": 5837,
      "Ġwum": 5838,
      "á¸¥ar": 5839,
      "ĠAni": 5840,
      "Ã©t": 5841,
      "Ġrreá¸¥": 5842,
      "ĠwaliÉ£": 5843,
      "Ġkkes": 5844,
      "Ġmeáºĵáºĵiyen": 5845,
      "aden": 5846,
      "geá¸į": 5847,
      "yeá¹Ńá¹Ń": 5848,
      "Ġteqb": 5849,
      "Ġttaken": 5850,
      "á¹£ult": 5851,
      "Ġyettas": 5852,
      "ĠSel": 5853,
      "ezna": 5854,
      "uddimen": 5855,
      "ĠuÉĽebbuá¸į": 5856,
      "Ġsetta": 5857,
      "fin": 5858,
      "É£unin": 5859,
      "Ġse": 5860,
      "Ġmxal": 5861,
      "ufÉ£en": 5862,
      "ĠyeffÉ£en": 5863,
      "Ġtafsut": 5864,
      "nature": 5865,
      "ĠlÉĽerc": 5866,
      "Ġ65": 5867,
      "teqsa": 5868,
      "Ġprocureur": 5869,
      "__": 5870,
      "uza": 5871,
      "ĠAmedyaz": 5872,
      "muden": 5873,
      "ĠiseÉ£": 5874,
      "Ġzmiren": 5875,
      "Ġyali": 5876,
      "Ġyefren": 5877,
      "ĠtÉ£essa": 5878,
      "Ġá¸¤emmleÉ£": 5879,
      "ilibre": 5880,
      "Ġ47": 5881,
      "strong": 5882,
      "Ġlehwa": 5883,
      "ussen": 5884,
      "ĠAÉ£elnaw": 5885,
      ":\"": 5886,
      "bem": 5887,
      "waw": 5888,
      "Ġarusrid": 5889,
      "law": 5890,
      "lama": 5891,
      "emhu": 5892,
      "uti": 5893,
      "á¹Ńá¹Ńfa": 5894,
      "atar": 5895,
      "eÉĽraq": 5896,
      "erture": 5897,
      "Ġyimá¸įebbren": 5898,
      "Ġleqrun": 5899,
      "Ġudmawen": 5900,
      "Ġyeqqaren": 5901,
      "ĠUnti": 5902,
      "ĠWerÇ§in": 5903,
      "iruá¸¥": 5904,
      "jel": 5905,
      "sar": 5906,
      "Ġtdawsa": 5907,
      "Ġneqqim": 5908,
      "ÉĽud": 5909,
      "ĠTs": 5910,
      "ĠYelha": 5911,
      "ettem": 5912,
      "ranen": 5913,
      "ekmen": 5914,
      "ĠNufa": 5915,
      "iá¸įt": 5916,
      "Ġxaá¹Ńi": 5917,
      "ekkaz": 5918,
      "Ġteqqen": 5919,
      "á¸įebber": 5920,
      "egt": 5921,
      "Ġttek": 5922,
      "ĠcfiÉ£": 5923,
      "ĠyiseÉ£": 5924,
      "cac": 5925,
      "eÉĽden": 5926,
      "hamed": 5927,
      "Ġuksum": 5928,
      "ĠTinÉ£i": 5929,
      "ilaq": 5930,
      "Ġtfu": 5931,
      "áºĵu": 5932,
      "uski": 5933,
      "Ġumqim": 5934,
      "ĠagraÉ£lan": 5935,
      "Ġlá¸¥iá¸į": 5936,
      "Ġ57": 5937,
      "Ġlemá¸¥": 5938,
      "yeá¸įres": 5939,
      "Ġtabuá¹£ult": 5940,
      ":Â«": 5941,
      "av": 5942,
      "qad": 5943,
      "taÉ£": 5944,
      "Ġtment": 5945,
      "Ġlhan": 5946,
      "ĠyiÉ£allen": 5947,
      "ĠMali": 5948,
      "ezfan": 5949,
      "ĠacuÉ£er": 5950,
      "tafeá¸į": 5951,
      "ĠAsegzawal": 5952,
      "Ġ42": 5953,
      "Ġlehdur": 5954,
      "dukkal": 5955,
      "aá¹£lit": 5956,
      "gent": 5957,
      "Ġsedda": 5958,
      "ĠTer": 5959,
      "essen": 5960,
      "urk": 5961,
      "Ġkent": 5962,
      "Ġusmel": 5963,
      "ĠcukkeÉ£": 5964,
      "ĠzwaÇ§": 5965,
      "tazal": 5966,
      "ctuá¸¥": 5967,
      "ĠlÇ§ehd": 5968,
      "Ġddabex": 5969,
      "CA": 5970,
      "lut": 5971,
      "ragen": 5972,
      "kklen": 5973,
      "niq": 5974,
      "Ġtilin": 5975,
      "yaz": 5976,
      "Ġtemgarad": 5977,
      "Ġtimellalin": 5978,
      "ĠXlifa": 5979,
      "Ġ90": 5980,
      "Signature": 5981,
      "teg": 5982,
      "ĠTA": 5983,
      "ĠTe": 5984,
      "idan": 5985,
      "ĠfehmeÉ£": 5986,
      "Ġzgan": 5987,
      "Ġccwal": 5988,
      "Ġixdem": 5989,
      "ges": 5990,
      "meá¹Ńá¹Ńut": 5991,
      "Ġaser": 5992,
      "Ġyessuter": 5993,
      "ĠFá¹Ľansa": 5994,
      "ewwaren": 5995,
      "Ġtmacint": 5996,
      "Ġwullis": 5997,
      "Ġyeá¸įra": 5998,
      "Ġtuccá¸įiwin": 5999,
      "Is": 6000,
      "zay": 6001,
      "Ġsp": 6002,
      "Ġlwali": 6003,
      "ĠTuÉ£": 6004,
      "ĠTudd": 6005,
      "á¹Ńá¹Ńas": 6006,
      "Ġ52": 6007,
      "Ġtlul": 6008,
      "Ġ1990": 6009,
      "yeddan": 6010,
      "ĠTayri": 6011,
      "Ġket": 6012,
      "Ġusuddes": 6013,
      "Ġwayyur": 6014,
      "ĠyessufeÉ£": 6015,
      "ĠAmalay": 6016,
      "nesmekti": 6017,
      "Ġ75": 6018,
      "Ġtkec": 6019,
      "Ġtedrimt": 6020,
      "Ġleqdicat": 6021,
      "ĠMÉĽemmer": 6022,
      "megla": 6023,
      "aire": 6024,
      "mur": 6025,
      "yuren": 6026,
      "Ġsu": 6027,
      "ĠAmen": 6028,
      "miwin": 6029,
      "ĠtuÉ£ac": 6030,
      "Ġasnulfu": 6031,
      "ĠRemá¸įan": 6032,
      "Ġugbur": 6033,
      "ĠFerá¸¥": 6034,
      "ĠTucc": 6035,
      "rakal": 6036,
      "Ġlmuá¸¥al": 6037,
      "ïģ¥": 6038,
      "Ġasfel": 6039,
      "ekra": 6040,
      "Ġmer": 6041,
      "ellet": 6042,
      "Ġuzwir": 6043,
      "Ġwasuf": 6044,
      "uddeÉ£": 6045,
      "Ġumussu": 6046,
      "baren": 6047,
      "Ġyimir": 6048,
      "ĠTaza": 6049,
      "Ġtenz": 6050,
      "Ġtismin": 6051,
      "ebá¸¥an": 6052,
      "ÉĽeddin": 6053,
      "La": 6054,
      "nel": 6055,
      "zemt": 6056,
      "ĠYeÉ£": 6057,
      "muá¸į": 6058,
      "bibi": 6059,
      "ĠRab": 6060,
      "Ġ55": 6061,
      "ĠIÉ£áºĵer": 6062,
      "ĠBelqasem": 6063,
      "Ġticraá¸į": 6064,
      "Ã©quilibre": 6065,
      "Ġwiyiá¸į": 6066,
      "Ġtagejdant": 6067,
      "memt": 6068,
      "ruri": 6069,
      "razen": 6070,
      "mac": 6071,
      "gaÉ£": 6072,
      "ufin": 6073,
      "kerá¸įa": 6074,
      "Ġtket": 6075,
      "ĠAcuÉ£er": 6076,
      "ĠÄįÄįan": 6077,
      "ebganen": 6078,
      "ĠLmerruk": 6079,
      "EF": 6080,
      "gem": 6081,
      "ÉĽiÉ£": 6082,
      "ttawin": 6083,
      "rikan": 6084,
      "ĠUÉ£al": 6085,
      "ĠUst": 6086,
      "mudd": 6087,
      "ilu": 6088,
      "ĠmbeÉĽd": 6089,
      "ater": 6090,
      "ewla": 6091,
      "Ġtemsi": 6092,
      "ĠEd": 6093,
      "ĠMalá¸¥a": 6094,
      "Ouvrir": 6095,
      "Ouverture": 6096,
      "heb": 6097,
      "á¹¢": 6098,
      "á¹Ńun": 6099,
      "Ġtuber": 6100,
      "yig": 6101,
      "tenniá¸į": 6102,
      "ĠyebÉ£i": 6103,
      "qabel": 6104,
      "zux": 6105,
      "ĠazaliÉ£": 6106,
      "ĠiÉĽeggalen": 6107,
      "Ġga": 6108,
      "Ġabu": 6109,
      "É£um": 6110,
      "ruÉ£": 6111,
      "ulli": 6112,
      "Ġacimi": 6113,
      "Ġbi": 6114,
      "tic": 6115,
      "Ġssawá¸įen": 6116,
      "Ġafrux": 6117,
      "nadiyen": 6118,
      "ĠtiÉ£ra": 6119,
      "Ġtamussni": 6120,
      "eá¹Ľá¹Ľust": 6121,
      "cef": 6122,
      "nekk": 6123,
      "Ġtrew": 6124,
      "ĠTerra": 6125,
      "nadem": 6126,
      "mani": 6127,
      "ĠTabadut": 6128,
      "Ġ09": 6129,
      "nerna": 6130,
      "ĠTafat": 6131,
      "fift": 6132,
      "Ġyiá¸¥ulfan": 6133,
      "nenna": 6134,
      "Ġnad": 6135,
      "afi": 6136,
      "ĠuÉ£er": 6137,
      "Ġilint": 6138,
      "Ġiá¸¥emmlen": 6139,
      "Ġleá¸¥cic": 6140,
      "eÄįÄįa": 6141,
      "laft": 6142,
      "gunin": 6143,
      "Ġyedlisen": 6144,
      "Ġtibá¸¥": 6145,
      "ibanen": 6146,
      "bemt": 6147,
      "set": 6148,
      "umu": 6149,
      "Ġdo": 6150,
      "ÉĽent": 6151,
      "ĠSedd": 6152,
      "Ġtemdinin": 6153,
      "Ġ41": 6154,
      "Ġ2015": 6155,
      "Ġ2016": 6156,
      "198": 6157,
      "Ġkifkif": 6158,
      "Ġteywalt": 6159,
      "con": 6160,
      "Ġri": 6161,
      "Ġnaweá¸į": 6162,
      "alli": 6163,
      "Ġadelsan": 6164,
      "eggi": 6165,
      "Ġá¸¤am": 6166,
      "Ġlexrif": 6167,
      "Ġtseddarin": 6168,
      "Tala": 6169,
      "ket": 6170,
      "Ġyecc": 6171,
      "Ġler": 6172,
      "riyen": 6173,
      "utin": 6174,
      "Ġisteqsiyen": 6175,
      "ĠuÉ£en": 6176,
      "ejdit": 6177,
      "yusa": 6178,
      "Ġyilugan": 6179,
      "Ġtcawit": 6180,
      "zzayriyen": 6181,
      "uneá¸¥sab": 6182,
      "ĠUmalu": 6183,
      "36": 6184,
      "Ay": 6185,
      "fit": 6186,
      "ky": 6187,
      "mist": 6188,
      "wayen": 6189,
      "yerra": 6190,
      "Ġaá¹Ń": 6191,
      "Ġiber": 6192,
      "Äįi": 6193,
      "biÉĽa": 6194,
      "Ġunemhal": 6195,
      "eqqel": 6196,
      "ĠdduÉ£": 6197,
      "Ġqqar": 6198,
      "uddu": 6199,
      "eyyeÉĽ": 6200,
      "ĠlmaÉĽna": 6201,
      "Ġsoci": 6202,
      "Ġuh": 6203,
      "Ġlater": 6204,
      "ewwaÉ£": 6205,
      "Ġtettban": 6206,
      "Ġpour": 6207,
      "Ġigerdan": 6208,
      "Ġyettnadin": 6209,
      "lalazt": 6210,
      "qub": 6211,
      "Ġtgu": 6212,
      "É£as": 6213,
      "ata": 6214,
      "Ġyisegzawalen": 6215,
      "biya": 6216,
      "Ġulamek": 6217,
      "uá¸įaf": 6218,
      "eá¹Ľá¹Ľu": 6219,
      "ame": 6220,
      "yn": 6221,
      "Ġyeá¹Ń": 6222,
      "á¸įem": 6223,
      "Ġtesla": 6224,
      "ĠumbeÉĽd": 6225,
      "Ġufaylu": 6226,
      "Ġtanemmirt": 6227,
      "Ġleqder": 6228,
      "Ġnessen": 6229,
      "Ġlexá¹£aá¹£": 6230,
      "Ġyeá¸¥waÇ§": 6231,
      "Ġtamsirt": 6232,
      "bul": 6233,
      "lex": 6234,
      "tel": 6235,
      "Ġtcen": 6236,
      "Ġaha": 6237,
      "ĠabeÉĽda": 6238,
      "Ġnh": 6239,
      "ĠwwiÉ£": 6240,
      "Ġmais": 6241,
      "essasen": 6242,
      "Ġtettnadi": 6243,
      "Ġyemmet": 6244,
      "Ġyessiweá¸į": 6245,
      "ĠAsya": 6246,
      "Ġilmeáºĵyen": 6247,
      "ĠtebÉ£u": 6248,
      "Ġleá¸¥bab": 6249,
      "Ġtugdut": 6250,
      "á¸įanen": 6251,
      "Ġ2018": 6252,
      "Ġnebá¸įa": 6253,
      "Ġtuffra": 6254,
      "ĠttiÉĽad": 6255,
      "Ġunegmu": 6256,
      "33": 6257,
      "Auto": 6258,
      "fay": 6259,
      "tá¸¥": 6260,
      "uÇ§Ç§": 6261,
      "Ġyas": 6262,
      "Ġiwali": 6263,
      "Ġubeá¸¥ri": 6264,
      "ĠTew": 6265,
      "utur": 6266,
      "á¹£as": 6267,
      "ĠLoun": 6268,
      "qqi": 6269,
      "ekles": 6270,
      "Ġzeddi": 6271,
      "Ġá¸¥á¹£": 6272,
      "ubb": 6273,
      "Ġyettwaxedmen": 6274,
      "Ġtaklit": 6275,
      "Ġuáºĵru": 6276,
      "ĠOu": 6277,
      "ĠteÄįÄįa": 6278,
      "emmuc": 6279,
      "Ġimukan": 6280,
      "Ġneáºĵri": 6281,
      "ĠTeglalazt": 6282,
      "Ġlwaqt": 6283,
      "aux": 6284,
      "gant": 6285,
      "Ġneq": 6286,
      "ĠAdabu": 6287,
      "Ġmelba": 6288,
      "Ġtasiwelt": 6289,
      "Ġtaqdimt": 6290,
      "Ġ**": 6291,
      "Ġkulci": 6292,
      "eyyad": 6293,
      "berrani": 6294,
      "fant": 6295,
      "tag": 6296,
      "wid": 6297,
      "ĠSÉĽid": 6298,
      "Ġyisefka": 6299,
      "ĠWali": 6300,
      "ĠÉĽaw": 6301,
      "á¸įaá¸į": 6302,
      "Ġlqanun": 6303,
      "Ġibaw": 6304,
      "Ġtgemmi": 6305,
      "Ġaselmed": 6306,
      "ax": 6307,
      "ĠtmeÉ£riwin": 6308,
      "Ġnet": 6309,
      "Ġnationale": 6310,
      "ĠImedyaten": 6311,
      "ĠMli": 6312,
      "Ġttrebga": 6313,
      "siá¸įt": 6314,
      "ĠCha": 6315,
      "Ġxali": 6316,
      "galin": 6317,
      "ĠwaleÉ£": 6318,
      "Ġ56": 6319,
      "Ġuáºĵekka": 6320,
      "ĠssaÉĽa": 6321,
      "gren": 6322,
      "Ġtya": 6323,
      "Ġilan": 6324,
      "Ġdegs": 6325,
      "ĠttuÉ£alen": 6326,
      "edden": 6327,
      "Ġusekkil": 6328,
      "Ġcent": 6329,
      "ellun": 6330,
      "iá¸įin": 6331,
      "ĠyimÉ£i": 6332,
      "Ġterfed": 6333,
      "á¸¥az": 6334,
      "Ġyirden": 6335,
      "://": 6336,
      "tiw": 6337,
      "ĠSid": 6338,
      "ĠcÉ£el": 6339,
      "Ã©di": 6340,
      "ĠTezga": 6341,
      "jin": 6342,
      "zuÉ£": 6343,
      "daxel": 6344,
      "á¹Ľi": 6345,
      "Ġlakul": 6346,
      "Ġtesrit": 6347,
      "ĠWezna": 6348,
      "Ġ58": 6349,
      "Ġwegdud": 6350,
      "Ġtaáºĵuri": 6351,
      "Ġlangue": 6352,
      "Ġlmitrat": 6353,
      "Ġtujjya": 6354,
      "cel": 6355,
      "newwi": 6356,
      "pe": 6357,
      "yid": 6358,
      "yeq": 6359,
      "Ġwus": 6360,
      "liliyin": 6361,
      "Ġtidduk": 6362,
      "ill": 6363,
      "Ġisehlen": 6364,
      "Ġtettwali": 6365,
      "Ġlá¸¥ara": 6366,
      "Ġilla": 6367,
      "ĠizedÉ£en": 6368,
      "Ġtyita": 6369,
      "ĠtamaneÉ£t": 6370,
      "Ġzeddigen": 6371,
      "wwin": 6372,
      "yewweá¸į": 6373,
      "Ġtdamsa": 6374,
      "Ġaten": 6375,
      "Ġizi": 6376,
      "Ġirennu": 6377,
      "laá¸į": 6378,
      "ÉĽiw": 6379,
      "ĠYekker": 6380,
      "á¹£ur": 6381,
      "Ġbnan": 6382,
      "eÉĽÉĽ": 6383,
      "Ġtasek": 6384,
      "Ġtegmat": 6385,
      "ĠTafyirt": 6386,
      "Ġtseddawit": 6387,
      "ririyin": 6388,
      "IR": 6389,
      "Ġisura": 6390,
      "Ġagerruj": 6391,
      "Ġileá¸¥á¸¥u": 6392,
      "Ġddqayeq": 6393,
      "Ġ2001": 6394,
      "ĠMohand": 6395,
      "aliwin": 6396,
      "Ġusmekti": 6397,
      "Ġnniya": 6398,
      "yettaken": 6399,
      "Ġuzgen": 6400,
      "Ġullis": 6401,
      "baÉĽá¸į": 6402,
      "sulta": 6403,
      "sefhamen": 6404,
      "Ġâµľ": 6405,
      "zeg": 6406,
      "Ġtris": 6407,
      "Ġdaya": 6408,
      "áºĵeá¹Ľ": 6409,
      "Ġmassa": 6410,
      "Ġasebter": 6411,
      "eggu": 6412,
      "Ġwayagi": 6413,
      "meskel": 6414,
      "Ġungalen": 6415,
      "nub": 6416,
      "ĠPro": 6417,
      "Ġlxuf": 6418,
      "Ġlqut": 6419,
      "azzal": 6420,
      "Ġwammas": 6421,
      ",...": 6422,
      "Ġtzem": 6423,
      "maÉ£": 6424,
      "ulu": 6425,
      "ĠKaby": 6426,
      "ĠiÉĽeddi": 6427,
      "á¹Ńaá¹Ńa": 6428,
      "Ġiqedd": 6429,
      "Ġyugar": 6430,
      "Ġmeskin": 6431,
      "Ġseddaw": 6432,
      "UC": 6433,
      "iáºĵer": 6434,
      "ĠÄį": 6435,
      "ĠMel": 6436,
      "ĠYeqqim": 6437,
      "Ġfurar": 6438,
      "Ġberb": 6439,
      "ĠTafel": 6440,
      "Ġarbib": 6441,
      "ĠaÉ£ur": 6442,
      "ebbin": 6443,
      "ĠXal": 6444,
      "yessen": 6445,
      "Ġtcelá¸¥it": 6446,
      "Ġteá¸įsa": 6447,
      "Ġ<<": 6448,
      "Ġlmeá¸¥na": 6449,
      "In": 6450,
      "teÇ§Ç§": 6451,
      "Ġika": 6452,
      "Ġtaxxamt": 6453,
      "Ġlemt": 6454,
      "á¹Ńut": 6455,
      "Ġyimezwura": 6456,
      "Ġtiá¹Ńá¹Ń": 6457,
      "dawt": 6458,
      "Ġurmir": 6459,
      "Ġker": 6460,
      "Ġamqim": 6461,
      "iwá¸įen": 6462,
      "ĠYam": 6463,
      "eddast": 6464,
      "udu": 6465,
      "Ġumaray": 6466,
      "ĠtaÉ£essa": 6467,
      "Ġteddem": 6468,
      "ĠIÉ£zer": 6469,
      "ĠTaqcict": 6470,
      "Ġimalayen": 6471,
      "71": 6472,
      "ON": 6473,
      "be": 6474,
      "neá¸¥": 6475,
      "vin": 6476,
      "ĠnÉĽ": 6477,
      "Ġnnsen": 6478,
      "Ġnger": 6479,
      "Ġlgaz": 6480,
      "Ġakkagi": 6481,
      "Ġce": 6482,
      "mersen": 6483,
      "Ġtettá¸¥": 6484,
      "ĠWas": 6485,
      "Ġyers": 6486,
      "ĠTiÉ£ilt": 6487,
      "ebgawen": 6488,
      "Fonction": 6489,
      "É£awla": 6490,
      "Ġuferdis": 6491,
      "ttar": 6492,
      "naá¸įin": 6493,
      "ĠImu": 6494,
      "Ġfiá¸¥el": 6495,
      "ĠuÉ£ref": 6496,
      "ĠAsel": 6497,
      "Ġá¹Ńá¹Ńabla": 6498,
      "Ġtigzi": 6499,
      "ĠBux": 6500,
      "Ġ2014": 6501,
      "Ġwemkan": 6502,
      "Ġtaruá¸į": 6503,
      "Ġnessaram": 6504,
      "Éĳ": 6505,
      "Ġtmeslayin": 6506,
      "ĠumeÉ£": 6507,
      "Ġsut": 6508,
      "Ġlber": 6509,
      "waq": 6510,
      "ewwar": 6511,
      "ĠWem": 6512,
      "eqqeá¸į": 6513,
      "Ġufeggag": 6514,
      "Ġyeqqel": 6515,
      "Ġteqqimeá¸į": 6516,
      "ĠLalman": 6517,
      "Ġtlatinit": 6518,
      "68": 6519,
      "HA": 6520,
      "LN": 6521,
      "Ġnawi": 6522,
      "Ġiá¸¥ricen": 6523,
      "Ġwek": 6524,
      "ĠSen": 6525,
      "eá¸¥á¸¥": 6526,
      "sila": 6527,
      "Ġyims": 6528,
      "ĠlÉĽin": 6529,
      "Ġlexmis": 6530,
      "eáºĵruf": 6531,
      "degt": 6532,
      "ĠTaggara": 6533,
      "Ġyiáºĵuran": 6534,
      "UN": 6535,
      "gag": 6536,
      "kib": 6537,
      "tekk": 6538,
      "ĠurÇ§in": 6539,
      "Ġwaá¹Ńá¹Ńanen": 6540,
      "ĠSliÉ£": 6541,
      "etta": 6542,
      "Ã©s": 6543,
      "Ġyebdu": 6544,
      "iki": 6545,
      "Ġallus": 6546,
      "ĠtanzeÉ£t": 6547,
      "Ġleá¸¥nana": 6548,
      "yanen": 6549,
      "araf": 6550,
      "egzawen": 6551,
      "ĠTamda": 6552,
      "Ġibanen": 6553,
      "Ġnenna": 6554,
      "urant": 6555,
      "Ġasaru": 6556,
      "Ġasteqsi": 6557,
      "Ġanekcum": 6558,
      "Ġssawalen": 6559,
      "ĠiweÉĽ": 6560,
      "Ġtimsirin": 6561,
      "Uzzu": 6562,
      "utt": 6563,
      "Ç¦": 6564,
      "anim": 6565,
      "ĠAbeddel": 6566,
      "Ġusan": 6567,
      "ĠuseÉ£": 6568,
      "ufiÉ£": 6569,
      "ĠtesÉĽu": 6570,
      "yiá¸į": 6571,
      "Ġyessefra": 6572,
      "siá¸¥": 6573,
      "Ġtaná¸įawit": 6574,
      "nemmeslay": 6575,
      "ĠtmuÉ£liwin": 6576,
      "ĠWeÉĽli": 6577,
      "tis": 6578,
      "ĠIk": 6579,
      "Ġyeldin": 6580,
      "ĠLq": 6581,
      "Ġtettbeddil": 6582,
      "Ġreb": 6583,
      "Ġalmend": 6584,
      "uklen": 6585,
      "Ã¨res": 6586,
      "ĠTimerna": 6587,
      "qedcen": 6588,
      "laá¸¥sab": 6589,
      "Ġtbadutin": 6590,
      "29": 6591,
      "tub": 6592,
      "Ġwaz": 6593,
      "Ġssnen": 6594,
      "ĠuÉ£ersiw": 6595,
      "waru": 6596,
      "ifi": 6597,
      "Ġuffir": 6598,
      "Ġleá¸¥kem": 6599,
      "Ġ64": 6600,
      "kanti": 6601,
      "raft": 6602,
      "ĠyaÉĽnan": 6603,
      "imit": 6604,
      "wessu": 6605,
      "ĠLx": 6606,
      "ehmeá¸į": 6607,
      "Ġtebdu": 6608,
      "Ġalammi": 6609,
      "ĠawraÉ£": 6610,
      "nernu": 6611,
      "ĠSlimane": 6612,
      "eftit": 6613,
      "ocine": 6614,
      "ĠDacu": 6615,
      "qamut": 6616,
      "oire": 6617,
      "tir": 6618,
      "terr": 6619,
      "uÇ§": 6620,
      "anda": 6621,
      "á¹ļ": 6622,
      "emlen": 6623,
      "ĠAj": 6624,
      "Ġtidd": 6625,
      "Ġmg": 6626,
      "Ġmon": 6627,
      "uÉ£el": 6628,
      "duq": 6629,
      "Ġyessnen": 6630,
      "ĠÆĲic": 6631,
      "ĠuÉ£rum": 6632,
      "ezzaf": 6633,
      "Ġtameáºĵ": 6634,
      "ĠTagduda": 6635,
      "ĠSalá¸¥i": 6636,
      "ĠMezdad": 6637,
      "ĠuÉ£alent": 6638,
      "Ama": 6639,
      "Anal": 6640,
      "hh": 6641,
      "pro": 6642,
      "ue": 6643,
      "ĠnaÉĽ": 6644,
      "Ġiá¹Ń": 6645,
      "Ġllin": 6646,
      "Ġlwaá¸¥": 6647,
      "ĠYak": 6648,
      "ĠYefka": 6649,
      "á¹Ľeá¸į": 6650,
      "ĠusalaÉ£": 6651,
      "ĠAmdan": 6652,
      "Ã¨me": 6653,
      "Ã¨mes": 6654,
      "ĠlaÉĽqel": 6655,
      "Ġyemxallafen": 6656,
      "ilumitren": 6657,
      "caw": 6658,
      "heÉ£": 6659,
      "rurt": 6660,
      "Ġyeqbel": 6661,
      "awá¸įeÉ£": 6662,
      "ĠSleá¸į": 6663,
      "Ġasegzawal": 6664,
      "mumeá¸¥": 6665,
      "á¹Ńá¹Ńfen": 6666,
      "Ġcca": 6667,
      "ĠTaá¸¥": 6668,
      "Ġtefranin": 6669,
      "rabá¸įen": 6670,
      "Ġ62": 6671,
      "ĠEn": 6672,
      "rois": 6673,
      "tions": 6674,
      "ĠïĤ¾": 6675,
      "ĠInzan": 6676,
      "Ġuntiyen": 6677,
      "ĠTiwura": 6678,
      "fet": 6679,
      "zert": 6680,
      "Ġá¹£a": 6681,
      "ĠneffeÉ£": 6682,
      "Ġuber": 6683,
      "maca": 6684,
      "ĠYim": 6685,
      "amulen": 6686,
      "Ġcult": 6687,
      "wiá¹Ń": 6688,
      "ĠtesÉ£unt": 6689,
      "Ġtanaá¹£lit": 6690,
      "Ġlqayen": 6691,
      "âµĵ": 6692,
      "yezt": 6693,
      "ook": 6694,
      "ĠffÉ£eÉ£": 6695,
      "Ġtelqayt": 6696,
      "50": 6697,
      "Di": 6698,
      "cca": 6699,
      "tban": 6700,
      "wag": 6701,
      "Ġdyett": 6702,
      "ssnawen": 6703,
      "ufuÉ£": 6704,
      "fad": 6705,
      "Ġtagru": 6706,
      "Ġtimunent": 6707,
      "Ġje": 6708,
      "Ġyettwax": 6709,
      "Ġtiliá¸į": 6710,
      "ĠAssaÉ£": 6711,
      "RAD": 6712,
      "ebbanit": 6713,
      "ĠTafelwit": 6714,
      "Fonctions": 6715,
      "yekka": 6716,
      "dukel": 6717,
      "fadu": 6718,
      "cuct": 6719,
      "Ġyimal": 6720,
      "Ġá¸¤sen": 6721,
      "erred": 6722,
      "zzelt": 6723,
      "ĠSegmi": 6724,
      "Ġaxaá¹Ńar": 6725,
      "á¸įebren": 6726,
      "Ġrriá¸¥a": 6727,
      "yuÉ£": 6728,
      "yser": 6729,
      "Ġ....": 6730,
      "zim": 6731,
      ".....": 6732,
      "eá¸¥c": 6733,
      "Ġtagmat": 6734,
      "Ġtefra": 6735,
      "wanek": 6736,
      "Ġddun": 6737,
      "ĠMohamed": 6738,
      "qimen": 6739,
      "yug": 6740,
      "Ġnesteqsa": 6741,
      "eqqem": 6742,
      "ejmu": 6743,
      "Ġukatay": 6744,
      "ooa": 6745,
      "Ġuseklu": 6746,
      "Ġtrava": 6747,
      "ĠMlikec": 6748,
      "iv": 6749,
      "tefka": 6750,
      "Ãł": 6751,
      "Ġuker": 6752,
      "Ġuyefki": 6753,
      "ĠAmar": 6754,
      "areb": 6755,
      "ĠDraÉĽ": 6756,
      "yad": 6757,
      "eÉĽd": 6758,
      "ĠAdrar": 6759,
      "Ġmeb": 6760,
      "ĠKarim": 6761,
      "ĠZedÉ£en": 6762,
      "Ġtaywalt": 6763,
      "Ġulmud": 6764,
      "ĠlÉĽib": 6765,
      "Ġibeddun": 6766,
      "ĠTameddit": 6767,
      "ÉĽedday": 6768,
      "ft": 6769,
      "Ġllah": 6770,
      "Ġtagrawla": 6771,
      "aker": 6772,
      "ĠimÉ£an": 6773,
      "ĠAnnect": 6774,
      "ebbeá¸¥": 6775,
      "Ġtgelda": 6776,
      "garadent": 6777,
      "Ġcomp": 6778,
      "luf": 6779,
      "rale": 6780,
      "esben": 6781,
      "atal": 6782,
      "Ġanef": 6783,
      "eá¸¥ra": 6784,
      "ellihen": 6785,
      "beddi": 6786,
      "ĠZemreÉ£": 6787,
      "Ġtessin": 6788,
      "Ġyilli": 6789,
      "Ġsemrasen": 6790,
      "rÃ©taire": 6791,
      "ĠTameddurt": 6792,
      "ĠMeqqran": 6793,
      ">.": 6794,
      "UB": 6795,
      "kas": 6796,
      "Ġttes": 6797,
      "Ġtettwaliá¸į": 6798,
      "Ġro": 6799,
      "Ġyená¹Ńeq": 6800,
      "ebbaá¸į": 6801,
      ")(": 6802,
      "ll": 6803,
      "nkent": 6804,
      "uda": 6805,
      "ĠLib": 6806,
      "uÉ£u": 6807,
      "ĠbdiÉ£": 6808,
      "Ġyisekla": 6809,
      "ĠlamaÉĽna": 6810,
      "Ġtettar": 6811,
      "Ġamaz": 6812,
      "ons": 6813,
      "ĠuÉ£ilif": 6814,
      "fernen": 6815,
      "zuzen": 6816,
      "ukel": 6817,
      "Ġ66": 6818,
      "â´·": 6819,
      "ĠYebÉ£a": 6820,
      "Ġof": 6821,
      "Ġcudden": 6822,
      "ĠsecrÃ©taire": 6823,
      "mkant": 6824,
      "Ġweá¸į": 6825,
      "ssniwin": 6826,
      "ĠMus": 6827,
      "Ġtuá¹Ńá¹Ńfa": 6828,
      "ĠLzzayer": 6829,
      "ranit": 6830,
      "ĠfkiÉ£": 6831,
      "ĠNn": 6832,
      "ĠTimi": 6833,
      "Ġpremier": 6834,
      "Ġazaraf": 6835,
      "Ġlqem": 6836,
      "Ġtedduá¸į": 6837,
      "ÉĻn": 6838,
      "Ġturdiwin": 6839,
      "ĠRabaá¸¥": 6840,
      "%(": 6841,
      "EK": 6842,
      "kil": 6843,
      "yej": 6844,
      "egren": 6845,
      "eddis": 6846,
      "Ġuser": 6847,
      "Ġyisenf": 6848,
      "Ġlá¸¥em": 6849,
      "banit": 6850,
      "elmaá¸į": 6851,
      "Ġ59": 6852,
      "Ġtawla": 6853,
      "Ġ63": 6854,
      "Ġ1995": 6855,
      "Ġyimesli": 6856,
      "Analyser": 6857,
      ".'.": 6858,
      "keá¹Ľ": 6859,
      "yiwen": 6860,
      "Ġtlisa": 6861,
      "Ġnga": 6862,
      "ÉĽam": 6863,
      "ĠYeffeÉ£": 6864,
      "ĠLwi": 6865,
      "ilul": 6866,
      "Ġtemáºĵabit": 6867,
      "Ġyemlal": 6868,
      "ĠyimÉ£aren": 6869,
      "eÄįÄįem": 6870,
      "Ġlqedd": 6871,
      "ewwiqen": 6872,
      "Ġteá¸¥waÇ§": 6873,
      "balut": 6874,
      "qranen": 6875,
      "zayriyen": 6876,
      "bacir": 6877,
      "Ġâ´°": 6878,
      "Ġmmuten": 6879,
      "zazat": 6880,
      "keb": 6881,
      "nnsen": 6882,
      "yeqqim": 6883,
      "Ġdonc": 6884,
      "ramen": 6885,
      "Ġmacci": 6886,
      "imin": 6887,
      "ĠtemÉ£arin": 6888,
      "Ġtalsa": 6889,
      "ugnan": 6890,
      "Ġtamagit": 6891,
      "Ġameáºĵáºĵyan": 6892,
      "á¹Ńac": 6893,
      "ĠJeddi": 6894,
      "ĠNekkni": 6895,
      "ĠSaid": 6896,
      "ĠteÉĽrabt": 6897,
      "Ġtezrigin": 6898,
      "Ġtnefsit": 6899,
      "EB": 6900,
      "beg": 6901,
      "wej": 6902,
      "É£ut": 6903,
      "Ġiá¹Ľ": 6904,
      "Ġutt": 6905,
      "sse": 6906,
      "Ġamu": 6907,
      "Ġamcum": 6908,
      "wad": 6909,
      "Ġasert": 6910,
      "taqbaylit": 6911,
      "Ġyebdan": 6912,
      "Ġternuá¸į": 6913,
      "Ġamecwar": 6914,
      "Ġudrum": 6915,
      "Ġimeddukal": 6916,
      "Ġlbaá¸į": 6917,
      "dukkla": 6918,
      "ĠWarzazat": 6919,
      "Ġweqcic": 6920,
      "ĠÉĽecra": 6921,
      "ĠLewnis": 6922,
      "?!": 6923,
      "Ġtsa": 6924,
      "Ġnefhem": 6925,
      "ĠÉ£lin": 6926,
      "á¹£i": 6927,
      "Ġlar": 6928,
      "ĠTimu": 6929,
      "ĠFa": 6930,
      "ĠAmÉ£ar": 6931,
      "inigen": 6932,
      "Ġtiliáºĵri": 6933,
      "Ġ2013": 6934,
      "teur": 6935,
      "Ġwenáºĵul": 6936,
      "ĠTuget": 6937,
      "add": 6938,
      "keá¸į": 6939,
      "qef": 6940,
      "qent": 6941,
      "want": 6942,
      "ÉĽat": 6943,
      "ĠtameÉ£": 6944,
      "ĠAsa": 6945,
      "baá¹Ľ": 6946,
      "ĠaseÉ£": 6947,
      "Ġisekla": 6948,
      "ĠTaáºĵ": 6949,
      "ĠtemÉ£er": 6950,
      "Ġinter": 6951,
      "Ġiteddun": 6952,
      "Ġyegla": 6953,
      "ĠTesÉĽa": 6954,
      "Ġiferrawen": 6955,
      "ĠLukan": 6956,
      "03": 6957,
      "Ex": 6958,
      "dart": 6959,
      "icu": 6960,
      "igan": 6961,
      "tma": 6962,
      "uá¹Ń": 6963,
      "Ġtfa": 6964,
      "agem": 6965,
      "Ġiserdasen": 6966,
      "erá¸įeq": 6967,
      "Ġsetti": 6968,
      "Ġneá¸įfer": 6969,
      "yub": 6970,
      "Ġau": 6971,
      "maá¸į": 6972,
      "mast": 6973,
      "ÉĽef": 6974,
      "Ġlfar": 6975,
      "riz": 6976,
      "ebden": 6977,
      "ruman": 6978,
      "Ġmara": 6979,
      "ired": 6980,
      "á¹Ľuk": 6981,
      "ekkan": 6982,
      "Ġtettmeslay": 6983,
      "eÉĽma": 6984,
      "ĠMaá¹£er": 6985,
      "Ġlekmal": 6986,
      "ĠtebÉ£am": 6987,
      "Ġattan": 6988,
      "ĠIdir": 6989,
      "Ġtrisiti": 6990,
      "burt": 6991,
      "ÊĴ": 6992,
      "Ġtass": 6993,
      "Ġlka": 6994,
      "riben": 6995,
      "Ġillan": 6996,
      "Ġyufi": 6997,
      "ÉĽar": 6998,
      "estion": 6999,
      "eddim": 7000,
      "ĠLmeÉĽna": 7001,
      "eá¸¥á¸¥an": 7002,
      "Ġtargalt": 7003,
      "Ġ68": 7004,
      "Ġyigemmaá¸į": 7005,
      "ÙĦØ§": 7006,
      "Ġparti": 7007,
      "ED": 7008,
      "Ġanagraw": 7009,
      "ĠMmi": 7010,
      "ĠLdi": 7011,
      "Ġcol": 7012,
      "Ġtalalit": 7013,
      "eqqas": 7014,
      "ĠKamel": 7015,
      "Ġtekkat": 7016,
      "berkanen": 7017,
      "orts": 7018,
      "mehla": 7019,
      "Ġtiddukla": 7020,
      "ĠaÉ£urbiz": 7021,
      "dt": 7022,
      "Ġtekka": 7023,
      "Ġarraz": 7024,
      "reá¹£á¹£": 7025,
      "Ġtewt": 7026,
      "Ġtwuriwin": 7027,
      "Ġtettwassen": 7028,
      "34": 7029,
      "Ag": 7030,
      "giÉ£": 7031,
      "tim": 7032,
      "erg": 7033,
      "egra": 7034,
      "ĠtawaÉ£it": 7035,
      "Ġyifer": 7036,
      "Ġtimez": 7037,
      "ile": 7038,
      "Ġtalast": 7039,
      "ehha": 7040,
      "gida": 7041,
      "Ġá¹Ńá¹ŃfeÉ£": 7042,
      "qqranin": 7043,
      "sance": 7044,
      "olution": 7045,
      "Ġfransa": 7046,
      "ulfaÉ£": 7047,
      "Ġuhu": 7048,
      "ĠAberkan": 7049,
      "Ġwara": 7050,
      "ĠLh": 7051,
      "ĠLla": 7052,
      "muger": 7053,
      "wiÇ§": 7054,
      "ond": 7055,
      "Ġxel": 7056,
      "Ġtezwar": 7057,
      "Ġwali": 7058,
      "laleÉ£": 7059,
      "Ġiwatan": 7060,
      "Ġtilas": 7061,
      "zizwa": 7062,
      "ĠssineÉ£": 7063,
      "ĠÄĮÄį": 7064,
      ");": 7065,
      "tella": 7066,
      "xem": 7067,
      "ĠtmeÉ£rut": 7068,
      "ĠAha": 7069,
      "ĠYemmel": 7070,
      "á¹£eá¸į": 7071,
      "Ġbnadem": 7072,
      "ĠtesnalÉ£a": 7073,
      "Ġref": 7074,
      "ĠiÉ£es": 7075,
      "cteur": 7076,
      "Ġikcem": 7077,
      "Ġucennay": 7078,
      "ÉĻr": 7079,
      "ĠáºĵreÉ£": 7080,
      "Ġicudd": 7081,
      "fid": 7082,
      "ĠteÉĽna": 7083,
      "edcen": 7084,
      "ebleÉĽ": 7085,
      "ĠNur": 7086,
      "caÉĽen": 7087,
      "Ġzew": 7088,
      "ĠAswir": 7089,
      "Ġ61": 7090,
      "ĠYennayer": 7091,
      "ĠInternet": 7092,
      "ellit": 7093,
      "elyun": 7094,
      "ebren": 7095,
      "ĠDo": 7096,
      "Ġasuddim": 7097,
      "Ġacennay": 7098,
      "ĠUrmir": 7099,
      "ĠCa": 7100,
      "Ġá¸¥sab": 7101,
      "Ġlemden": 7102,
      "ĠlqaÉĽ": 7103,
      "Ġibeddu": 7104,
      "ĠteÄįÄįeá¸į": 7105,
      "Ġunabaá¸į": 7106,
      "Ġ1962": 7107,
      "ĠTmazÉ£a": 7108,
      "AT": 7109,
      "MER": 7110,
      "nefka": 7111,
      "tec": 7112,
      "yaw": 7113,
      "Ġ000": 7114,
      "Īļ": 7115,
      "Ġyeá¹Ľ": 7116,
      "kkin": 7117,
      "Ġteá¹Ľ": 7118,
      "Ġyimer": 7119,
      "Ġwaqila": 7120,
      "Ġfar": 7121,
      "ĠFar": 7122,
      "Ġufran": 7123,
      "Ġddren": 7124,
      "Ġlleb": 7125,
      "Ġ%(": 7126,
      "Ġyimeddukal": 7127,
      "ĠYebda": 7128,
      "ĠAhmed": 7129,
      "Ġukuz": 7130,
      "teffeÉ£": 7131,
      "Ġaá¸įu": 7132,
      "É£ert": 7133,
      "mazul": 7134,
      "á¹Ńif": 7135,
      "esp": 7136,
      "ĠyineÉ£": 7137,
      "Ġixeddamen": 7138,
      "Ġ51": 7139,
      "ĠlÉĽebd": 7140,
      "âµľ": 7141,
      "ĠTanarit": 7142,
      "Ġtifyar": 7143,
      "ĠÄįÄįiÉ£": 7144,
      "Ġtimerna": 7145,
      "Bureau": 7146,
      "nn": 7147,
      "tx": 7148,
      "Ġtá¹Ľuá¸¥": 7149,
      "erfa": 7150,
      "isan": 7151,
      "Ġtettem": 7152,
      "Ġtadist": 7153,
      "qiqa": 7154,
      "Ġifadden": 7155,
      "Ġtasnamkant": 7156,
      "ologie": 7157,
      "Ġttruá¸¥un": 7158,
      "EZ": 7159,
      "feÉĽ": 7160,
      "jil": 7161,
      "xer": 7162,
      "Ġiben": 7163,
      "Ġuka": 7164,
      "Ġunnig": 7165,
      "alis": 7166,
      "ind": 7167,
      "mazal": 7168,
      "elÉĽa": 7169,
      "Ġtaga": 7170,
      "Ġttu": 7171,
      "Ġuseqqamu": 7172,
      "esse": 7173,
      "Ġzman": 7174,
      "Ġugin": 7175,
      "Ġtezdeg": 7176,
      "ĠLeqdic": 7177,
      "Ġumiá¸įan": 7178,
      "fent": 7179,
      "Ã°": 7180,
      "Ġor": 7181,
      "Ġumek": 7182,
      "all": 7183,
      "Ġtiy": 7184,
      "Ġwakk": 7185,
      "ellaÉĽ": 7186,
      "Ġtsel": 7187,
      "urad": 7188,
      "ĠCfiÉ£": 7189,
      "Ġtegzi": 7190,
      "Ġyewhem": 7191,
      "nuten": 7192,
      "Ġasenfar": 7193,
      "ÉĽawad": 7194,
      "ĠÄįÄįuren": 7195,
      "erfant": 7196,
      "ĠMarie": 7197,
      "ĠtneÉ£rit": 7198,
      "Ġâĸº": 7199,
      "Ġkabyle": 7200,
      "Yenna": 7201,
      "bant": 7202,
      "Ġtmar": 7203,
      "ĠMik": 7204,
      "yam": 7205,
      "Ġzem": 7206,
      "hia": 7207,
      "Ġtewwet": 7208,
      "wassen": 7209,
      "yerzan": 7210,
      "Ġiceá¹Ńá¹Ńiá¸įen": 7211,
      "ĠBumer": 7212,
      "ĠTaman": 7213,
      "Ġaniri": 7214,
      "Ġanaáºĵur": 7215,
      "Ġyeáºĵran": 7216,
      "Ġá¸¤emza": 7217,
      "Ġafer": 7218,
      "É£ir": 7219,
      "Ġwezzu": 7220,
      "zimt": 7221,
      "á¹Ľem": 7222,
      "ĠLbacir": 7223,
      "Ġman": 7224,
      "Ġfu": 7225,
      "ĠRÃ©p": 7226,
      "eyyen": 7227,
      "Ġdduk": 7228,
      "Ġibar": 7229,
      "rifit": 7230,
      "gared": 7231,
      "Ġ2003": 7232,
      "ĠTarrayt": 7233,
      "Ġyitran": 7234,
      "ĠTuruft": 7235,
      "nunt": 7236,
      "Ġtber": 7237,
      "ĠnÉ£an": 7238,
      "Ġyud": 7239,
      "ĠYeddu": 7240,
      "Ġanez": 7241,
      "faá¸į": 7242,
      "Ġssexdamen": 7243,
      "Ġyezdi": 7244,
      "Ġtefrensist": 7245,
      "qaÉĽ": 7246,
      "rict": 7247,
      "Ġtidmi": 7248,
      "Ġtaweá¸į": 7249,
      "Ġlesnaf": 7250,
      "ĠImdanen": 7251,
      "ennif": 7252,
      "ĠTebÉ£a": 7253,
      "eggaÉ£t": 7254,
      "Ġtmiá¸įranin": 7255,
      "Ġqb": 7256,
      "Ġuya": 7257,
      "erken": 7258,
      "alat": 7259,
      "Ġsteq": 7260,
      "ĠÉ£ar": 7261,
      "niá¸įen": 7262,
      "Ġ-Â«": 7263,
      "Ġcen": 7264,
      "Ġwayyuren": 7265,
      "ĠaÉ£er": 7266,
      "ĠtasÉ£unt": 7267,
      "Ġalarmi": 7268,
      "Ġuzag": 7269,
      "Ġyettwaf": 7270,
      "jahed": 7271,
      "Ġtirmit": 7272,
      "Ġteqcicin": 7273,
      "nejmaÉĽ": 7274,
      "Ġabernus": 7275,
      "IM": 7276,
      "azen": 7277,
      "hun": 7278,
      "rÃ¨s": 7279,
      "zint": 7280,
      "Ġtddukkla": 7281,
      "Ġlbar": 7282,
      "Ġmadden": 7283,
      "ĠLin": 7284,
      "amnen": 7285,
      "Ġgen": 7286,
      "Ġyessers": 7287,
      "Ġyesseqdec": 7288,
      "ĠFell": 7289,
      "yettawi": 7290,
      "Ġifel": 7291,
      "yesÉĽan": 7292,
      "Ġicennayen": 7293,
      "Ġtizlatin": 7294,
      "Ġtxed": 7295,
      "ĠInzi": 7296,
      "ĠtalÉ£ut": 7297,
      "badutin": 7298,
      "Ġtsenbert": 7299,
      "Ġlbiru": 7300,
      "%.": 7301,
      "04": 7302,
      "keÉ£": 7303,
      "Ġyexxamen": 7304,
      "Ġtecc": 7305,
      "ebook": 7306,
      "Ç§iÉ£": 7307,
      "Ġttxil": 7308,
      "ilal": 7309,
      "eggez": 7310,
      "Ġfin": 7311,
      "elluá¸į": 7312,
      "elleá¹£": 7313,
      "Ġumnekni": 7314,
      "Ġnessiweá¸į": 7315,
      "hilen": 7316,
      "ĠyiÉ£es": 7317,
      "ÉĽawnen": 7318,
      "ĠÇ¦er": 7319,
      "Ġtibawt": 7320,
      "Ġá¸¤amid": 7321,
      "Ġnx": 7322,
      "raju": 7323,
      "egrir": 7324,
      "laÉĽ": 7325,
      "á¹Ńiq": 7326,
      "ĠTagi": 7327,
      "ssaÉ£": 7328,
      "á¹ĽeÉ£": 7329,
      "ĠyettuÉ£alen": 7330,
      "Ġyeshel": 7331,
      "Ġarma": 7332,
      "yigt": 7333,
      "ĠAsefrek": 7334,
      "effÉ£en": 7335,
      "ĠTasuqilt": 7336,
      "Ġqqim": 7337,
      "Ġtmukrist": 7338,
      "Ġ67": 7339,
      "xeddmen": 7340,
      "yerna": 7341,
      "Ġuselkim": 7342,
      "Ġ2007": 7343,
      "ense": 7344,
      "Ġarumi": 7345,
      "ĠyimenÉ£i": 7346,
      "En": 7347,
      "Ġtja": 7348,
      "Ġlhi": 7349,
      "ĠTec": 7350,
      "Ġcor": 7351,
      "Ġzedd": 7352,
      "Ġtettwaá¸¥": 7353,
      "tira": 7354,
      "Ġtá¸¥emmleá¸į": 7355,
      "Ġ2004": 7356,
      "Ġyifyar": 7357,
      "Ġprobl": 7358,
      "Ġyettarun": 7359,
      "callah": 7360,
      "acu": 7361,
      "tid": 7362,
      "vid": 7363,
      "Ø¨": 7364,
      "ĠyimeÉ£nasen": 7365,
      "ĠIbu": 7366,
      "ĠUá¸¥": 7367,
      "Ġttbut": 7368,
      "aÉ£ar": 7369,
      "ĠuÉ£yul": 7370,
      "Ġumaynut": 7371,
      "Ġteglizit": 7372,
      "Ġuzzal": 7373,
      "ewwel": 7374,
      "ÉĽawanen": 7375,
      "ĠOp": 7376,
      "Ġtwennaá¸įt": 7377,
      "ĠMatoub": 7378,
      "Ġtnila": 7379,
      "ĠTinÉ£iá¹Ľ": 7380,
      "Ø¯": 7381,
      "Ġyurar": 7382,
      "nawalt": 7383,
      "Ġamda": 7384,
      "Ġyetts": 7385,
      "ilint": 7386,
      "Ġyeswa": 7387,
      "yif": 7388,
      "yifen": 7389,
      "ehhi": 7390,
      "áºĵriá¸į": 7391,
      "Ġtneqq": 7392,
      "Ġ2006": 7393,
      "Ġumejjay": 7394,
      "Ġnutenti": 7395,
      "ĠAbd": 7396,
      "Ġumenzu": 7397,
      "Ġteáºĵreá¸į": 7398,
      "essaram": 7399,
      "amila": 7400,
      "Ġlmizan": 7401,
      "!!": 7402,
      "beggen": 7403,
      "jt": 7404,
      "Ġigan": 7405,
      "Ġttun": 7406,
      "á¹£eÉ£": 7407,
      "Ġuseqdac": 7408,
      "Ġccu": 7409,
      "Ġanemhal": 7410,
      "adÉ£a": 7411,
      "ĠumadaÉ£": 7412,
      "ĠÉĽem": 7413,
      "á¸¤I": 7414,
      "ĠtÉ£il": 7415,
      "yettuÉ£alen": 7416,
      "á¹Ńaá¹£": 7417,
      "rÃ©sent": 7418,
      "izgan": 7419,
      "Ġtuddist": 7420,
      "Ġttarran": 7421,
      "Ġssiman": 7422,
      "Ġtkecmeá¸į": 7423,
      "Ġasertan": 7424,
      "44": 7425,
      "gez": 7426,
      "kemt": 7427,
      "enwi": 7428,
      "Ġneá¹Ńá¹Ńef": 7429,
      "Ġlimer": 7430,
      "Ġyimusnawen": 7431,
      "lilin": 7432,
      "ititi": 7433,
      "ĠImezdaÉ£": 7434,
      "baá¹Ń": 7435,
      "Ġyettc": 7436,
      "ĠusÉ£ar": 7437,
      "amma": 7438,
      "ĠbuddeÉ£": 7439,
      "ĠyesÉĽedda": 7440,
      "Ġtallalt": 7441,
      "Ġizzayriyen": 7442,
      "ĠErr": 7443,
      "Ġikecmen": 7444,
      "ĠAlger": 7445,
      "Ġyedrimen": 7446,
      "ĠTiznit": 7447,
      "Ġtebá¸¥irin": 7448,
      "Ġtuggdi": 7449,
      "fess": 7450,
      "Ġata": 7451,
      "erz": 7452,
      "Ġyehwa": 7453,
      "awent": 7454,
      "ĠMebla": 7455,
      "runt": 7456,
      "ezla": 7457,
      "aman": 7458,
      "Ġrren": 7459,
      "siá¹Ń": 7460,
      "rabeá¸į": 7461,
      "Ġtkerrust": 7462,
      "Ġtzemmar": 7463,
      "Ġtimeqqranin": 7464,
      "Ġáºĵáºĵay": 7465,
      "Ġusegmi": 7466,
      "Ġtettaruá¸į": 7467,
      "ĠTuccá¸įa": 7468,
      "Ġweá¸įris": 7469,
      "Ġllebsa": 7470,
      "hort": 7471,
      "quq": 7472,
      "tuÉ£": 7473,
      "Ġ),": 7474,
      "Ġwellah": 7475,
      "riw": 7476,
      "ssen": 7477,
      "zif": 7478,
      "illi": 7479,
      "land": 7480,
      "imÉ£ur": 7481,
      "usti": 7482,
      "udem": 7483,
      "Ġamatar": 7484,
      "Ġters": 7485,
      "ewwer": 7486,
      "Ġwigad": 7487,
      "Ġyeddren": 7488,
      "gunfu": 7489,
      "Ġtizrawin": 7490,
      "Ġtecraá¸į": 7491,
      "kará¸įit": 7492,
      "Ġlá¸¥aÇ§": 7493,
      "Ġlmelá¸¥": 7494,
      "Ġtnezzut": 7495,
      "35": 7496,
      "lub": 7497,
      "ĠÍ¡": 7498,
      "Ġdis": 7499,
      "Ġnanna": 7500,
      "ĠAmezwaru": 7501,
      "wam": 7502,
      "Ġtts": 7503,
      "á¹£ilen": 7504,
      "Ġisuddimen": 7505,
      "ellen": 7506,
      "iÉ£zef": 7507,
      "Ġakayad": 7508,
      "eá¹Ńá¹Ńen": 7509,
      "ĠHocine": 7510,
      "ĠInna": 7511,
      "yekker": 7512,
      "Ġyixeddamen": 7513,
      "Ġlimarat": 7514,
      "áµ": 7515,
      "midegt": 7516,
      "aynin": 7517,
      "Ġtilem": 7518,
      "Ġusi": 7519,
      "usi": 7520,
      "uffÉ£en": 7521,
      "ĠWis": 7522,
      "ikem": 7523,
      "Ġ?...": 7524,
      "ĠAmur": 7525,
      "ĠiÉ£el": 7526,
      "Ġwalin": 7527,
      "eddaÉ£": 7528,
      "eyyan": 7529,
      "ĠAreá¹Ńá¹Ńal": 7530,
      "Ġtewwiá¸į": 7531,
      "ĠlekwaÉ£": 7532,
      "Ġmeqren": 7533,
      "ĠYamina": 7534,
      "bult": 7535,
      "ĠAS": 7536,
      "ĠMhenni": 7537,
      "ĠDinna": 7538,
      "Ġusegzi": 7539,
      "ĠBOU": 7540,
      "ĠyesÉĽ": 7541,
      "ĠWad": 7542,
      "Ġyessuqel": 7543,
      "Ġtmeá¸į": 7544,
      "Ġtefriqt": 7545,
      "erdun": 7546,
      "Ġnemlal": 7547,
      "mektay": 7548,
      "Ġmenwala": 7549,
      "fakya": 7550,
      "Ġlbaá¸įna": 7551,
      "th": 7552,
      "Ġarun": 7553,
      "Ġslan": 7554,
      "áºĵuren": 7555,
      "amin": 7556,
      "wiyin": 7557,
      "ĠBra": 7558,
      "Ġyesseá¸¥": 7559,
      "exda": 7560,
      "ĠÉĽni": 7561,
      "Ġtafellaá¸¥t": 7562,
      "Ġtemsislit": 7563,
      "ĠyeÄįÄįan": 7564,
      "ĠsÉĽun": 7565,
      "ĠAqcic": 7566,
      "ĠWerÇ§a": 7567,
      "ĠYeddukklen": 7568,
      "Amek": 7569,
      "arc": 7570,
      "Ç§al": 7571,
      "bah": 7572,
      "ĠLun": 7573,
      "ÉĽaf": 7574,
      "Ġ\"%": 7575,
      "Ç§Ç§eÉ£": 7576,
      "ĠaÉ£erfan": 7577,
      "ĠimsulÉ£a": 7578,
      "ĠduÇ§": 7579,
      "Ġleá¸¥ya": 7580,
      "Ġ69": 7581,
      "Ġnekcem": 7582,
      "ĠNuja": 7583,
      "%,": 7584,
      "ĠÃ¢": 7585,
      "Ġnq": 7586,
      "Ġifuk": 7587,
      "elman": 7588,
      "á¹Ńin": 7589,
      "ĠTta": 7590,
      "eá¸įren": 7591,
      "Ġbanen": 7592,
      "Ġanzi": 7593,
      "Ġyebá¸įan": 7594,
      "Ġaáºĵawan": 7595,
      "01": 7596,
      "38": 7597,
      "cli": 7598,
      "yy": 7599,
      "Ġaá¹Ľ": 7600,
      "Ġadiwenni": 7601,
      "Ġtawen": 7602,
      "lilen": 7603,
      "Ġtifer": 7604,
      "Ġyettxemmim": 7605,
      "Ġanes": 7606,
      "ĠAdeg": 7607,
      "Ġyesser": 7608,
      "ertuf": 7609,
      "ĠGen": 7610,
      "yessem": 7611,
      "Ġawá¸įen": 7612,
      "ĠtzelÉ£a": 7613,
      "ĠAmagrad": 7614,
      "ĠyeÉ£lin": 7615,
      "mektub": 7616,
      "ĠLalla": 7617,
      "ĠTamuÉ£li": 7618,
      "Si": 7619,
      "guri": 7620,
      "Ġssen": 7621,
      "Ġlin": 7622,
      "ĠTewwi": 7623,
      "ruyen": 7624,
      "agad": 7625,
      "une": 7626,
      "ĠLá¸¥a": 7627,
      "went": 7628,
      "Ġmgaradent": 7629,
      "Ġlah": 7630,
      "ĠKa": 7631,
      "ezzem": 7632,
      "Ġddel": 7633,
      "ĠddiÉ£": 7634,
      "baÉĽen": 7635,
      "Ġtikkwal": 7636,
      "qená¹Ń": 7637,
      "rifin": 7638,
      "ĠÄįÄįeÉ£": 7639,
      "ÉĽtub": 7640,
      "awaá¸įen": 7641,
      "Ġtxeddmeá¸į": 7642,
      "39": 7643,
      "62": 7644,
      "LET": 7645,
      "lya": 7646,
      "test": 7647,
      "yiwin": 7648,
      "Ġgara": 7649,
      "ĠuriÉ£": 7650,
      "á¸įrant": 7651,
      "nigt": 7652,
      "ulef": 7653,
      "Ġuseb": 7654,
      "ĠBEN": 7655,
      "eÉĽÉĽu": 7656,
      "Ġunez": 7657,
      "ĠtezdeÉ£": 7658,
      "hama": 7659,
      "ĠKu": 7660,
      "uqlen": 7661,
      "Ġtissas": 7662,
      "yetta": 7663,
      "Ġamec": 7664,
      "kenni": 7665,
      "ĠNekkini": 7666,
      "ÉĻl": 7667,
      "dakelt": 7668,
      "ĠumuÉ£": 7669,
      "ĠTilmas": 7670,
      "nudaá¸į": 7671,
      "Ġtameáºĵyant": 7672,
      "oi": 7673,
      "rarit": 7674,
      "Ġsant": 7675,
      "dazal": 7676,
      "ĠTime": 7677,
      "Ġá¸¥ebsen": 7678,
      "Ġtamettant": 7679,
      "Ġyettwakkes": 7680,
      "Ġtilufa": 7681,
      "Ġtekkseá¸į": 7682,
      "ĠÇ§Ç§iÉ£": 7683,
      "ĠMezyan": 7684,
      "ĠÉĽecrin": 7685,
      "ĠFerá¸¥at": 7686,
      "ĠWemÉĽuc": 7687,
      "ĠRÃ©publique": 7688,
      "Ġifelfel": 7689,
      "YA": 7690,
      "fust": 7691,
      "jem": 7692,
      "ï»": 7693,
      "É£elt": 7694,
      "Ġnuf": 7695,
      "Ġnewweá¸į": 7696,
      "Ġlitt": 7697,
      "ednan": 7698,
      "urman": 7699,
      "ebgi": 7700,
      "ĠImes": 7701,
      "Ġyettwac": 7702,
      "etteb": 7703,
      "ilan": 7704,
      "ĠTib": 7705,
      "eqquft": 7706,
      "ĠCar": 7707,
      "Ġtikci": 7708,
      "Ġizri": 7709,
      "zzin": 7710,
      "Ġddula": 7711,
      "âµĶ": 7712,
      "Ġá¹Ľebbi": 7713,
      "Ġtzemmurt": 7714,
      "ĠAmezgun": 7715,
      "ĠIwudam": 7716,
      "Ġyisenfaren": 7717,
      "vis": 7718,
      "yufa": 7719,
      "ĠAmu": 7720,
      "Ġlbal": 7721,
      "Ç§t": 7722,
      "ĠYasin": 7723,
      "Ġasugen": 7724,
      "Ġuseá¸¥biber": 7725,
      "uÉ£ni": 7726,
      "ĠBus": 7727,
      "Ġyisura": 7728,
      "Ġyessetma": 7729,
      "ĠÆĲeyyad": 7730,
      "Ġyidmaren": 7731,
      "ĠAselmad": 7732,
      "Ġyunag": 7733,
      "ĠIÉ£áºĵeá¹Ľ": 7734,
      "eggaf": 7735,
      "Ġrrbeá¸¥": 7736,
      "ĠnteÉ£": 7737,
      "meddakkel": 7738,
      "ĠMeÉĽtub": 7739,
      "02": 7740,
      "Isem": 7741,
      "Tal": 7742,
      "sex": 7743,
      "Ġiberkanen": 7744,
      "Ġyeá¹£á¹£": 7745,
      "Ġtaqa": 7746,
      "á¹Ńeb": 7747,
      "yav": 7748,
      "Ġasuddem": 7749,
      "Ġusez": 7750,
      "Ġtemáºĵin": 7751,
      "ĠzriÉ£": 7752,
      "Ġyall": 7753,
      "ĠKat": 7754,
      "ĠKsila": 7755,
      "ewwayen": 7756,
      "Ġtilifun": 7757,
      "ĠTaÉ£uri": 7758,
      "Ġkemmini": 7759,
      "Ġyettwag": 7760,
      "Ġttnadin": 7761,
      "Ġyessemras": 7762,
      "ĠRabeá¸¥": 7763,
      "ejmuÉĽ": 7764,
      "TiÉ£": 7765,
      "fuÉ£": 7766,
      "forma": 7767,
      "emh": 7768,
      "ĠmaÄįi": 7769,
      "ĠmbaÉĽd": 7770,
      "ĠNumi": 7771,
      "Ġtesnamka": 7772,
      "ĠWalaÉ£": 7773,
      "ĠuÉ£elluy": 7774,
      "Ġtagut": 7775,
      "Ġlá¸¥ala": 7776,
      "ubel": 7777,
      "ions": 7778,
      "ĠyiÉ£eblan": 7779,
      "ĠImÉ£an": 7780,
      "eprÃ©sent": 7781,
      "duÉ£in": 7782,
      "bis": 7783,
      "Ġefk": 7784,
      "Ġnufi": 7785,
      "Ġucen": 7786,
      "ĠyeÇ§": 7787,
      "lawt": 7788,
      "ĠÉ£ren": 7789,
      "áºĵag": 7790,
      "ĠSakin": 7791,
      "ĠNat": 7792,
      "Ġyernan": 7793,
      "emmri": 7794,
      "ĠAmzun": 7795,
      "ĠIsefra": 7796,
      "ĠUlamma": 7797,
      "Ġlweá¸¥c": 7798,
      "Ġtussda": 7799,
      "raÉ£lant": 7800,
      "ĠtasnalÉ£amkant": 7801,
      "ĠMiksik": 7802,
      "ĠÇ¦erÇ§er": 7803,
      "31": 7804,
      "Nekk": 7805,
      "fes": 7806,
      "swaá¸į": 7807,
      "ená¹Ńa": 7808,
      "Ġader": 7809,
      "efÉ£en": 7810,
      "aÉ£eÉ£": 7811,
      "ewá¸¥el": 7812,
      "Ġtemlellit": 7813,
      "qbu": 7814,
      "Ġrefden": 7815,
      "xxamin": 7816,
      "Ġugemmay": 7817,
      "Ġumaz": 7818,
      "ĠJlil": 7819,
      "acult": 7820,
      "efraq": 7821,
      "Ġllsas": 7822,
      "netta": 7823,
      "ĠtaÉ£ara": 7824,
      "Ġtasnamkit": 7825,
      "Ġyinagmayen": 7826,
      "jo": 7827,
      "ĠtÃ©": 7828,
      "Ġiwal": 7829,
      "ĠÉ£riÉ£": 7830,
      "ĠUtaram": 7831,
      "Ġasemres": 7832,
      "Ġyemmalen": 7833,
      "Ġyezwar": 7834,
      "ĠFaá¹Ńi": 7835,
      "ĠtebÉĽed": 7836,
      "Ġtelá¸¥": 7837,
      "Ġtirza": 7838,
      "Ġihedder": 7839,
      "Ġnegzu": 7840,
      "ulac": 7841,
      "orpus": 7842,
      "Con": 7843,
      "DAD": 7844,
      "fil": 7845,
      "Ġerr": 7846,
      "Ġili": 7847,
      "ins": 7848,
      "á¸¥uc": 7849,
      "arun": 7850,
      "niyen": 7851,
      "ĠUwanak": 7852,
      "etla": 7853,
      "Ġasurif": 7854,
      "Ġcit": 7855,
      "ekkin": 7856,
      "Ġyest": 7857,
      "ĠMaÉĽtub": 7858,
      "Ġtsut": 7859,
      "ĠRuma": 7860,
      "Ġuger": 7861,
      "Ġayyur": 7862,
      "ejda": 7863,
      "Ġaqli": 7864,
      "Ġtemsul": 7865,
      "Ã¨ne": 7866,
      "Ġawá¹£il": 7867,
      "Ġteá¸¥bes": 7868,
      "ĠuÉĽrur": 7869,
      "selbi": 7870,
      "ĠYiraten": 7871,
      "ĠwureÉ£": 7872,
      "ĠAá¸¥med": 7873,
      "Ġbeddlen": 7874,
      "adig": 7875,
      "ĠIzri": 7876,
      "ĠDdunit": 7877,
      "NA": 7878,
      "SK": 7879,
      "Ġnerna": 7880,
      "Ġinag": 7881,
      "aseÉ£": 7882,
      "Ġusarag": 7883,
      "ĠLhan": 7884,
      "Ġcrois": 7885,
      "ĠNationale": 7886,
      "ĠFad": 7887,
      "uqet": 7888,
      "yettban": 7889,
      "Ġtafukt": 7890,
      "ĠPertuf": 7891,
      "Ġlxaá¹Ńer": 7892,
      "Ġlexsas": 7893,
      "ariÇ§": 7894,
      "Ġ95": 7895,
      "Ġuá¸įebsi": 7896,
      "ĠTallit": 7897,
      "Ġtmellalin": 7898,
      "ĠKkes": 7899,
      "05": 7900,
      "ML": 7901,
      "yuÉ£alen": 7902,
      "Ġiri": 7903,
      "layan": 7904,
      "udiw": 7905,
      "Ġrewlen": 7906,
      "Ġamar": 7907,
      "ĠFren": 7908,
      "ĠZadig": 7909,
      "Ġtanumi": 7910,
      "áºĵáºĵuÉ£t": 7911,
      "ĠtmazÉ£a": 7912,
      "Ġ71": 7913,
      "á¹Ľaá¹Ľ": 7914,
      "ĠAgraw": 7915,
      "ĠAkud": 7916,
      "Ġyilemáºĵiyen": 7917,
      "Ġtmusniwin": 7918,
      "Ġtezrigt": 7919,
      "omi": 7920,
      "qul": 7921,
      "rebbi": 7922,
      "zelt": 7923,
      "mail": 7924,
      "nitt": 7925,
      "Ġtiá¸¥er": 7926,
      "Ġttq": 7927,
      "Ġttasen": 7928,
      "ĠSt": 7929,
      "Ġasuddes": 7930,
      "eggar": 7931,
      "Ġisnam": 7932,
      "Ġfad": 7933,
      "ĠfÉ£en": 7934,
      "Ġarnu": 7935,
      "tiá¸į": 7936,
      "Ġsseá¸¥": 7937,
      "ĠyebÉĽed": 7938,
      "ĠAsemmad": 7939,
      "ĠimÉ£aren": 7940,
      "Ġimyura": 7941,
      "Ġplus": 7942,
      "ritÃ©": 7943,
      "Ġtkar": 7944,
      "Ġaáºĵru": 7945,
      "Ġ1954": 7946,
      "Gestion": 7947,
      "reh": 7948,
      "tc": 7949,
      "ws": 7950,
      "Ġameddakel": 7951,
      "É£ay": 7952,
      "Ġnaru": 7953,
      "Ġtiberran": 7954,
      "etki": 7955,
      "ĠYis": 7956,
      "ĠLlah": 7957,
      "Ġuletma": 7958,
      "ÉĽict": 7959,
      "Ġicc": 7960,
      "Ġ74": 7961,
      "Ġyeggu": 7962,
      "ĠTawuri": 7963,
      "Ġtentaliyin": 7964,
      "ĠBelÉĽ": 7965,
      "yemmeslay": 7966,
      "ĠÆĲazem": 7967,
      "ustice": 7968,
      "Im": 7969,
      "erzen": 7970,
      "Ġlkar": 7971,
      "ĠYif": 7972,
      "ĠYanni": 7973,
      "ĠSÉĽiÉ£": 7974,
      "Ġggan": 7975,
      "siá¸į": 7976,
      "Ġtagens": 7977,
      "ĠiÉĽawed": 7978,
      "ĠAnef": 7979,
      "Ġtmac": 7980,
      "yernu": 7981,
      "acebook": 7982,
      "ĠMozilla": 7983,
      "Ġtantaliwin": 7984,
      "nejmeÉĽ": 7985,
      "07": 7986,
      "Yett": 7987,
      "Ġtba": 7988,
      "á¸ĳ": 7989,
      "laÉ£en": 7990,
      "Ġtaá¸įu": 7991,
      "Ġlfakya": 7992,
      "áºĵeá¸į": 7993,
      "Ġkter": 7994,
      "Ġamuss": 7995,
      "á¹£um": 7996,
      "qqa": 7997,
      "eggir": 7998,
      "ĠNut": 7999,
      "qbert": 8000,
      "ĠWak": 8001,
      "ugnen": 8002,
      "Ġtasusmi": 8003,
      "ĠCo": 8004,
      "Ġ2020": 8005,
      "Ġatas": 8006,
      "Ġmuq": 8007,
      "Ġxedment": 8008,
      "eurs": 8009,
      "qern": 8010,
      "Ġaseklu": 8011,
      "Ġtehri": 8012,
      "eÇ§Ç§igt": 8013,
      "ĠNekni": 8014,
      "Ġtuttra": 8015,
      "',": 8016,
      "Ihi": 8017,
      "gas": 8018,
      "ses": 8019,
      "ĠeÇ§Ç§": 8020,
      "Ġtmal": 8021,
      "Ġaá¹Ńá¹Ńas": 8022,
      "Ġlix": 8023,
      "miá¸įi": 8024,
      "ebrit": 8025,
      "ĠIferdisen": 8026,
      "ĠUq": 8027,
      "Ġttex": 8028,
      "Ġusu": 8029,
      "ĠLef": 8030,
      "ĠLqa": 8031,
      "wenni": 8032,
      "walaÉ£": 8033,
      "immer": 8034,
      "Ġlayas": 8035,
      "Ġteswi": 8036,
      "camen": 8037,
      "Ġyessawel": 8038,
      "Ġtasut": 8039,
      "Ġyinaáºĵ": 8040,
      "ĠtÉ£erma": 8041,
      "Ġwuá¹Ńá¹Ńun": 8042,
      "yussan": 8043,
      "inima": 8044,
      "Ġwargaz": 8045,
      "Ġ78": 8046,
      "Ġtá¸¥eww": 8047,
      "rurin": 8048,
      "sayin": 8049,
      "ĠAá¸¥eddad": 8050,
      "mektiÉ£": 8051,
      "ĠMayas": 8052,
      "ĠLÉĽiná¹£er": 8053,
      "?\"": 8054,
      "lt": 8055,
      "Ġop": 8056,
      "Ġnili": 8057,
      "Ġnuk": 8058,
      "ÉĽit": 8059,
      "Ġtadu": 8060,
      "Ġlbaz": 8061,
      "Ġyidi": 8062,
      "ĠkeÄį": 8063,
      "Ġamyaru": 8064,
      "Ġyettarra": 8065,
      "gadeÉ£": 8066,
      "Ġumatar": 8067,
      "Ġyimjuhad": 8068,
      "Ġyeftin": 8069,
      "gazt": 8070,
      "áºĵáºĵuÉ£en": 8071,
      "Ġiggen": 8072,
      "Ġyugad": 8073,
      "Ġ77": 8074,
      "Ġaá¸¥bib": 8075,
      "ĠAlmi": 8076,
      "ĠAzul": 8077,
      "ixedmen": 8078,
      "tember": 8079,
      "ĠiÉ£ab": 8080,
      "Ġculture": 8081,
      "ĠproblÃ¨mes": 8082,
      "ĠlekwaÉ£eá¸į": 8083,
      "37": 8084,
      "Awal": 8085,
      "Tan": 8086,
      "begg": 8087,
      "ceÉ£": 8088,
      "fat": 8089,
      "yed": 8090,
      "Ġddi": 8091,
      "ergi": 8092,
      "á¸¥ent": 8093,
      "asan": 8094,
      "ĠDwala": 8095,
      "etit": 8096,
      "entre": 8097,
      "ĠBug": 8098,
      "ĠNnig": 8099,
      "Ġtemda": 8100,
      "Ġtesga": 8101,
      "Ġumalay": 8102,
      "Ġyessex": 8103,
      "ĠaÉ£mis": 8104,
      "nuz": 8105,
      "ikit": 8106,
      "Ġamekkan": 8107,
      "Ġuzeá¹Ńá¹Ńa": 8108,
      "ĠGM": 8109,
      "Ġimec": 8110,
      "Ġyuwi": 8111,
      "ĠAgellid": 8112,
      "mille": 8113,
      "Ġuá¸¥eddad": 8114,
      "ussa": 8115,
      "erfed": 8116,
      "Ġavec": 8117,
      "Ã©diger": 8118,
      "Ġcroissance": 8119,
      "RÃ©diger": 8120,
      "nna": 8121,
      "Ġ>": 8122,
      "Ġadrim": 8123,
      "ĠurÉĽad": 8124,
      "Ġyettaken": 8125,
      "ĠSfir": 8126,
      "eddur": 8127,
      "Ġusiz": 8128,
      "usan": 8129,
      "Ġyiss": 8130,
      "ÄįÄįa": 8131,
      "Ġtettaf": 8132,
      "Ã©ra": 8133,
      "eÉĽdi": 8134,
      "eqqayen": 8135,
      "ĠuÉ£ar": 8136,
      "ĠFerru": 8137,
      "cuc": 8138,
      "Ġizmer": 8139,
      "Ġyekkaten": 8140,
      "ĠInelmaden": 8141,
      "ĠTafransist": 8142,
      "Ġ1998": 8143,
      "Ġtumnayt": 8144,
      "St": 8145,
      "ilas": 8146,
      "yurar": 8147,
      "Ġnk": 8148,
      "ĠnwiÉ£": 8149,
      "ĠimeÉ£nasen": 8150,
      "elmen": 8151,
      "ĠIq": 8152,
      "Ġttxemmi": 8153,
      "ĠLÉĽer": 8154,
      "É£aá¹Ľ": 8155,
      "Ġzun": 8156,
      "taz": 8157,
      "Ġxilla": 8158,
      "ĠtÉ£er": 8159,
      "Ġtafelwit": 8160,
      "awiyen": 8161,
      "ĠHi": 8162,
      "Ġtimáºĵin": 8163,
      "eÄįÄįur": 8164,
      "Ġyekkan": 8165,
      "lemden": 8166,
      "Ġyuzzel": 8167,
      "Ġyiá¸įelli": 8168,
      "ĠaÉĽrab": 8169,
      "astant": 8170,
      "Ġtirrugza": 8171,
      "eá¹Ľá¹Ľani": 8172,
      "ĠtesÉĽedda": 8173,
      "ĠWasif": 8174,
      "Akken": 8175,
      "kat": 8176,
      "ms": 8177,
      "ĠAbu": 8178,
      "unti": 8179,
      "Ġamud": 8180,
      "ĠSim": 8181,
      "ĠLadÉ£a": 8182,
      "Ġirebbi": 8183,
      "Ġnessuqel": 8184,
      "Ġukud": 8185,
      "Ġyillel": 8186,
      "ĠTazwert": 8187,
      "á¹Ľensist": 8188,
      "eáºĵáºĵi": 8189,
      "fifin": 8190,
      "tawiá¸į": 8191
    },
    "merges": [
      [
        "Ġ",
        "t"
      ],
      [
        "Ġ",
        "a"
      ],
      [
        "e",
        "n"
      ],
      [
        "É",
        "£"
      ],
      [
        "Ġ",
        "d"
      ],
      [
        "Ġ",
        "n"
      ],
      [
        "Ġ",
        "y"
      ],
      [
        "Ġ",
        "i"
      ],
      [
        "á",
        "¸"
      ],
      [
        "a",
        "n"
      ],
      [
        "Ġ",
        "u"
      ],
      [
        "e",
        "r"
      ],
      [
        "r",
        "a"
      ],
      [
        "a",
        "l"
      ],
      [
        "Ġy",
        "e"
      ],
      [
        "i",
        "n"
      ],
      [
        "e",
        "g"
      ],
      [
        "á",
        "¹"
      ],
      [
        "m",
        "a"
      ],
      [
        "Ġ",
        "s"
      ],
      [
        "á¸",
        "į"
      ],
      [
        "Ġ",
        "w"
      ],
      [
        "l",
        "a"
      ],
      [
        "e",
        "l"
      ],
      [
        "e",
        "m"
      ],
      [
        "á¸",
        "¥"
      ],
      [
        "m",
        "e"
      ],
      [
        "Ġa",
        "d"
      ],
      [
        "É",
        "Ľ"
      ],
      [
        "Ġt",
        "a"
      ],
      [
        "i",
        "s"
      ],
      [
        "Ġ",
        "A"
      ],
      [
        "k",
        "k"
      ],
      [
        "a",
        "r"
      ],
      [
        "Ġ",
        "É£"
      ],
      [
        "a",
        "s"
      ],
      [
        "Ġ",
        "l"
      ],
      [
        "Ġt",
        "e"
      ],
      [
        "t",
        "t"
      ],
      [
        "á¹",
        "Ń"
      ],
      [
        "e",
        "f"
      ],
      [
        "Ġy",
        "i"
      ],
      [
        "Ġ",
        "T"
      ],
      [
        "l",
        "i"
      ],
      [
        "Ġd",
        "eg"
      ],
      [
        "e",
        "É£"
      ],
      [
        "n",
        "a"
      ],
      [
        "e",
        "s"
      ],
      [
        "e",
        "d"
      ],
      [
        "m",
        "i"
      ],
      [
        "n",
        "i"
      ],
      [
        "a",
        "y"
      ],
      [
        "u",
        "r"
      ],
      [
        "Ġa",
        "ra"
      ],
      [
        "Ġt",
        "i"
      ],
      [
        "r",
        "i"
      ],
      [
        "d",
        "a"
      ],
      [
        "ĠÉ£",
        "er"
      ],
      [
        "Ġa",
        "kk"
      ],
      [
        "i",
        "t"
      ],
      [
        "a",
        "w"
      ],
      [
        "á",
        "º"
      ],
      [
        "e",
        "b"
      ],
      [
        "áº",
        "ĵ"
      ],
      [
        "u",
        "t"
      ],
      [
        "Ġu",
        "r"
      ],
      [
        "e",
        "á¸į"
      ],
      [
        "Ġ",
        "I"
      ],
      [
        "s",
        "s"
      ],
      [
        "Ġ",
        "M"
      ],
      [
        "Ġ",
        "k"
      ],
      [
        "s",
        "en"
      ],
      [
        "i",
        "d"
      ],
      [
        "Ġ",
        "D"
      ],
      [
        "r",
        "u"
      ],
      [
        "a",
        "g"
      ],
      [
        "ĠÉ£",
        "ef"
      ],
      [
        "Ġd",
        "i"
      ],
      [
        "z",
        "i"
      ],
      [
        "u",
        "n"
      ],
      [
        "Ġa",
        "m"
      ],
      [
        "Ç",
        "§"
      ],
      [
        "Ä",
        "į"
      ],
      [
        "Ġt",
        "u"
      ],
      [
        "w",
        "a"
      ],
      [
        "y",
        "en"
      ],
      [
        "Ġ",
        "ma"
      ],
      [
        "Ġw",
        "a"
      ],
      [
        "Ġ",
        "U"
      ],
      [
        "i",
        "w"
      ],
      [
        "e",
        "t"
      ],
      [
        "y",
        "a"
      ],
      [
        "b",
        "a"
      ],
      [
        "e",
        "q"
      ],
      [
        "Ġ",
        "("
      ],
      [
        "u",
        "l"
      ],
      [
        "i",
        "r"
      ],
      [
        "Ġ",
        "-"
      ],
      [
        "Ġ",
        "Y"
      ],
      [
        "Ġt",
        "t"
      ],
      [
        "á¹",
        "Ľ"
      ],
      [
        "á¹",
        "£"
      ],
      [
        "Ġye",
        "tt"
      ],
      [
        "Ġ",
        "S"
      ],
      [
        "m",
        "en"
      ],
      [
        "Ġa",
        "s"
      ],
      [
        "d",
        "d"
      ],
      [
        "ed",
        "d"
      ],
      [
        "Ġye",
        "l"
      ],
      [
        "Ġu",
        "s"
      ],
      [
        "e",
        "tt"
      ],
      [
        "Ġ",
        "L"
      ],
      [
        "m",
        "u"
      ],
      [
        "Ġ",
        ":"
      ],
      [
        "w",
        "en"
      ],
      [
        "á¹Ń",
        "á¹Ń"
      ],
      [
        "i",
        "l"
      ],
      [
        "g",
        "a"
      ],
      [
        "n",
        "ni"
      ],
      [
        "Ġ",
        "Â"
      ],
      [
        "l",
        "an"
      ],
      [
        ".",
        "."
      ],
      [
        "ag",
        "i"
      ],
      [
        "É£",
        "a"
      ],
      [
        "w",
        "al"
      ],
      [
        "Ġakk",
        "en"
      ],
      [
        "e",
        "z"
      ],
      [
        "a",
        "m"
      ],
      [
        "s",
        "a"
      ],
      [
        "Ġ",
        "1"
      ],
      [
        "Ġ",
        "c"
      ],
      [
        "Ġs",
        "eg"
      ],
      [
        "q",
        "q"
      ],
      [
        "a",
        "É£"
      ],
      [
        "r",
        "an"
      ],
      [
        "e",
        "k"
      ],
      [
        "w",
        "i"
      ],
      [
        "Ġ",
        "m"
      ],
      [
        "u",
        "É£"
      ],
      [
        "en",
        "t"
      ],
      [
        "e",
        "kk"
      ],
      [
        "m",
        "an"
      ],
      [
        "eg",
        "g"
      ],
      [
        "Ġi",
        "s"
      ],
      [
        "a",
        "t"
      ],
      [
        "me",
        "k"
      ],
      [
        "Ġa",
        "c"
      ],
      [
        "Ġl",
        "e"
      ],
      [
        "i",
        "m"
      ],
      [
        "Ġ",
        "f"
      ],
      [
        "Ġn",
        "eÉ£"
      ],
      [
        "Ġ",
        "b"
      ],
      [
        "r",
        "en"
      ],
      [
        "u",
        "s"
      ],
      [
        "el",
        "l"
      ],
      [
        "Ġ",
        "B"
      ],
      [
        "Ġy",
        "is"
      ],
      [
        "Ġ",
        "g"
      ],
      [
        "Ġ",
        "la"
      ],
      [
        "m",
        "er"
      ],
      [
        "la",
        "y"
      ],
      [
        "u",
        "f"
      ],
      [
        "ĠÂ",
        "«"
      ],
      [
        "Ġa",
        "n"
      ],
      [
        "Äį",
        "Äį"
      ],
      [
        "ĠU",
        "r"
      ],
      [
        "u",
        "d"
      ],
      [
        "li",
        "t"
      ],
      [
        "e",
        "w"
      ],
      [
        "an",
        "t"
      ],
      [
        "i",
        "É£"
      ],
      [
        "e",
        "c"
      ],
      [
        "el",
        "la"
      ],
      [
        "Ġ",
        "Æ"
      ],
      [
        "Ġye",
        "s"
      ],
      [
        "ĠT",
        "a"
      ],
      [
        "Ġ",
        "N"
      ],
      [
        "Ġa",
        "r"
      ],
      [
        "ÉĽ",
        "a"
      ],
      [
        "Ġt",
        "em"
      ],
      [
        "ur",
        "t"
      ],
      [
        "Ġte",
        "s"
      ],
      [
        "Ġw",
        "ay"
      ],
      [
        "Ġi",
        "d"
      ],
      [
        "e",
        "á¸¥"
      ],
      [
        "Ġ",
        ","
      ],
      [
        "me",
        "z"
      ],
      [
        "Ġk",
        "ra"
      ],
      [
        "c",
        "a"
      ],
      [
        "me",
        "d"
      ],
      [
        "es",
        "s"
      ],
      [
        "Ġyi",
        "wen"
      ],
      [
        "q",
        "b"
      ],
      [
        "me",
        "s"
      ],
      [
        "á¸į",
        "en"
      ],
      [
        "Ġ",
        "2"
      ],
      [
        "d",
        "i"
      ],
      [
        "kk",
        "en"
      ],
      [
        "d",
        "an"
      ],
      [
        "zi",
        "É£"
      ],
      [
        "Ġ",
        "z"
      ],
      [
        "en",
        "na"
      ],
      [
        "y",
        "i"
      ],
      [
        "á¹Ń",
        "as"
      ],
      [
        "Ġte",
        "tt"
      ],
      [
        "al",
        "en"
      ],
      [
        "b",
        "i"
      ],
      [
        "el",
        "li"
      ],
      [
        "Ã",
        "©"
      ],
      [
        "Ġ",
        "r"
      ],
      [
        "Ġyel",
        "la"
      ],
      [
        "t",
        "a"
      ],
      [
        "t",
        "i"
      ],
      [
        "n",
        "eÉ£"
      ],
      [
        "e",
        "ÉĽ"
      ],
      [
        "Ġu",
        "m"
      ],
      [
        "Ġk",
        "an"
      ],
      [
        "Ġa",
        "ma"
      ],
      [
        "as",
        "en"
      ],
      [
        "ĠA",
        "d"
      ],
      [
        "Ġt",
        "al"
      ],
      [
        "Ġ",
        "W"
      ],
      [
        "d",
        "u"
      ],
      [
        "Ġ",
        "mi"
      ],
      [
        "Ġye",
        "m"
      ],
      [
        "Ġye",
        "ss"
      ],
      [
        "Ġ",
        "\""
      ],
      [
        "k",
        "an"
      ],
      [
        "o",
        "n"
      ],
      [
        "n",
        "sen"
      ],
      [
        "Ġi",
        "mi"
      ],
      [
        "Ġa",
        "yen"
      ],
      [
        "Ġy",
        "er"
      ],
      [
        "Ġu",
        "la"
      ],
      [
        "c",
        "i"
      ],
      [
        "x",
        "x"
      ],
      [
        "d",
        "en"
      ],
      [
        "z",
        "al"
      ],
      [
        "ĠM",
        "a"
      ],
      [
        "ma",
        "ziÉ£"
      ],
      [
        "l",
        "en"
      ],
      [
        "Ġn",
        "ett"
      ],
      [
        "Ġ",
        "me"
      ],
      [
        "ĠT",
        "i"
      ],
      [
        "f",
        "a"
      ],
      [
        "w",
        "in"
      ],
      [
        "ar",
        "t"
      ],
      [
        "..",
        "."
      ],
      [
        "Ġw",
        "in"
      ],
      [
        "d",
        "em"
      ],
      [
        "Ġt",
        "s"
      ],
      [
        "s",
        "i"
      ],
      [
        "em",
        "m"
      ],
      [
        "Ġakk",
        "ed"
      ],
      [
        "ar",
        "en"
      ],
      [
        "ut",
        "lay"
      ],
      [
        "k",
        "a"
      ],
      [
        "Ġu",
        "n"
      ],
      [
        "u",
        "ra"
      ],
      [
        "u",
        "á¸¥"
      ],
      [
        "Ġ",
        "R"
      ],
      [
        "Ġs",
        "s"
      ],
      [
        "eq",
        "q"
      ],
      [
        "er",
        "t"
      ],
      [
        "xx",
        "am"
      ],
      [
        "u",
        "m"
      ],
      [
        "Ġu",
        "g"
      ],
      [
        "qb",
        "ay"
      ],
      [
        "Ç§",
        "Ç§"
      ],
      [
        "a",
        "d"
      ],
      [
        "z",
        "en"
      ],
      [
        "maziÉ£",
        "t"
      ],
      [
        "Ġyel",
        "lan"
      ],
      [
        "Ġa",
        "É£"
      ],
      [
        "ĠA",
        "t"
      ],
      [
        "u",
        "g"
      ],
      [
        "a",
        "f"
      ],
      [
        "Ġta",
        "s"
      ],
      [
        "me",
        "É£"
      ],
      [
        "Ġt",
        "utlay"
      ],
      [
        "ĠÆ",
        "Ĳ"
      ],
      [
        "Ġy",
        "al"
      ],
      [
        "y",
        "in"
      ],
      [
        "Â",
        "»"
      ],
      [
        "e",
        "x"
      ],
      [
        "Ġyi",
        "w"
      ],
      [
        "ĠD",
        "eg"
      ],
      [
        "i",
        "á¸į"
      ],
      [
        "is",
        "t"
      ],
      [
        "Ġ",
        "C"
      ],
      [
        "ĠÂ",
        "»"
      ],
      [
        "n",
        "u"
      ],
      [
        "Ġ",
        "x"
      ],
      [
        "ru",
        "á¸¥"
      ],
      [
        "Ġt",
        "en"
      ],
      [
        "Ġa",
        "ss"
      ],
      [
        "Ġte",
        "z"
      ],
      [
        "Ġyi",
        "d"
      ],
      [
        "Ġf",
        "ell"
      ],
      [
        "Ġye",
        "z"
      ],
      [
        "Ġg",
        "ar"
      ],
      [
        "Ġa",
        "g"
      ],
      [
        "Ġu",
        "É£"
      ],
      [
        "w",
        "ar"
      ],
      [
        "Ġn",
        "ni"
      ],
      [
        "m",
        "urt"
      ],
      [
        "t",
        "en"
      ],
      [
        "em",
        "ma"
      ],
      [
        "Ġa",
        "k"
      ],
      [
        "e",
        "h"
      ],
      [
        "Ġs",
        "i"
      ],
      [
        "Ġye",
        "b"
      ],
      [
        "k",
        "u"
      ],
      [
        "ra",
        "w"
      ],
      [
        "Ġ",
        "F"
      ],
      [
        "Ġta",
        "g"
      ],
      [
        "a",
        "k"
      ],
      [
        "ri",
        "d"
      ],
      [
        "Ġs",
        "in"
      ],
      [
        "Ġl",
        "á¸¥"
      ],
      [
        "aw",
        "al"
      ],
      [
        "Ġt",
        "me"
      ],
      [
        "Ġta",
        "ma"
      ],
      [
        "as",
        "s"
      ],
      [
        "Ġu",
        "ma"
      ],
      [
        "ĠA",
        "s"
      ],
      [
        "Ġw",
        "id"
      ],
      [
        "Ġi",
        "l"
      ],
      [
        "Ġa",
        "á¹Ńas"
      ],
      [
        "b",
        "an"
      ],
      [
        "Ġte",
        "f"
      ],
      [
        "b",
        "er"
      ],
      [
        "h",
        "i"
      ],
      [
        "Ġac",
        "u"
      ],
      [
        "c",
        "u"
      ],
      [
        "el",
        "t"
      ],
      [
        "Ġway",
        "en"
      ],
      [
        "Ġ",
        "."
      ],
      [
        "Ġi",
        "m"
      ],
      [
        "Ġa",
        "y"
      ],
      [
        "n",
        "an"
      ],
      [
        "h",
        "a"
      ],
      [
        "Ġd",
        "e"
      ],
      [
        "med",
        "ya"
      ],
      [
        "i",
        "k"
      ],
      [
        "g",
        "al"
      ],
      [
        "f",
        "er"
      ],
      [
        "qbay",
        "lit"
      ],
      [
        "uÉ£",
        "al"
      ],
      [
        "e",
        "á¹Ńá¹Ń"
      ],
      [
        "Ġa",
        "wal"
      ],
      [
        "Ġtutlay",
        "t"
      ],
      [
        "Ġyiw",
        "et"
      ],
      [
        "Ġa",
        "l"
      ],
      [
        "Ġ",
        "K"
      ],
      [
        "Ġi",
        "n"
      ],
      [
        "r",
        "is"
      ],
      [
        "Ġ",
        "ÉĽ"
      ],
      [
        "aÉ£",
        "en"
      ],
      [
        "ez",
        "z"
      ],
      [
        "Ġ",
        "á¸¥"
      ],
      [
        "É£",
        "en"
      ],
      [
        "ef",
        "f"
      ],
      [
        "ÄįÄį",
        "i"
      ],
      [
        "el",
        "ma"
      ],
      [
        "Ġt",
        "in"
      ],
      [
        "ay",
        "en"
      ],
      [
        "Ġ",
        "p"
      ],
      [
        "la",
        "q"
      ],
      [
        "Ġyi",
        "m"
      ],
      [
        "b",
        "u"
      ],
      [
        "Ġye",
        "f"
      ],
      [
        "Ġte",
        "b"
      ],
      [
        "Ġan",
        "da"
      ],
      [
        "Ġa",
        "z"
      ],
      [
        "á¸",
        "¤"
      ],
      [
        "Ġy",
        "in"
      ],
      [
        "t",
        "in"
      ],
      [
        "al",
        "a"
      ],
      [
        "Ġt",
        "er"
      ],
      [
        "Ġtu",
        "ra"
      ],
      [
        "Ġ",
        "?"
      ],
      [
        "ĠÉ£",
        "ur"
      ],
      [
        "e",
        "á¹Ľ"
      ],
      [
        "ĠÆ",
        "Ķ"
      ],
      [
        "n",
        "neÉ£"
      ],
      [
        "dd",
        "art"
      ],
      [
        "b",
        "edd"
      ],
      [
        "e",
        "j"
      ],
      [
        "ga",
        "ra"
      ],
      [
        "Ġt",
        "É£"
      ],
      [
        "Ġt",
        "murt"
      ],
      [
        "Ġw",
        "is"
      ],
      [
        "q",
        "a"
      ],
      [
        "ĠA",
        "m"
      ],
      [
        "i",
        "f"
      ],
      [
        "Ġu",
        "f"
      ],
      [
        "Ġl",
        "lan"
      ],
      [
        "Ġma",
        "ca"
      ],
      [
        "g",
        "en"
      ],
      [
        ")",
        "."
      ],
      [
        "mi",
        "r"
      ],
      [
        "sen",
        "t"
      ],
      [
        "Ġ1",
        "9"
      ],
      [
        "Ġi",
        "É£"
      ],
      [
        "u",
        "q"
      ],
      [
        "Ġta",
        "z"
      ],
      [
        "l",
        "eá¸į"
      ],
      [
        "Ġw",
        "u"
      ],
      [
        "Ġta",
        "É£"
      ],
      [
        "Ġ",
        "Z"
      ],
      [
        "Ġd",
        "aÉ£en"
      ],
      [
        "r",
        "e"
      ],
      [
        "Ġ",
        "3"
      ],
      [
        "in",
        "t"
      ],
      [
        "Ġt",
        "is"
      ],
      [
        "Ġy",
        "enna"
      ],
      [
        "ni",
        "t"
      ],
      [
        "Ġta",
        "ddart"
      ],
      [
        "es",
        "t"
      ],
      [
        "Â»",
        ","
      ],
      [
        "ri",
        "c"
      ],
      [
        "i",
        "yi"
      ],
      [
        "y",
        "ett"
      ],
      [
        "u",
        "b"
      ],
      [
        "iw",
        "in"
      ],
      [
        "b",
        "rid"
      ],
      [
        "Ġw",
        "al"
      ],
      [
        "z",
        "a"
      ],
      [
        "Ġwa",
        "kken"
      ],
      [
        "Ġ2",
        "0"
      ],
      [
        "á¹£",
        "á¹£"
      ],
      [
        "ra",
        "b"
      ],
      [
        "Ġ",
        "á¸¤"
      ],
      [
        "Ġt",
        "an"
      ],
      [
        "Ġa",
        "me"
      ],
      [
        "z",
        "u"
      ],
      [
        "ed",
        "da"
      ],
      [
        "l",
        "is"
      ],
      [
        "Ġa",
        "f"
      ],
      [
        "Ġd",
        "a"
      ],
      [
        "egg",
        "as"
      ],
      [
        "w",
        "an"
      ],
      [
        "É£",
        "i"
      ],
      [
        "Ġ",
        "ba"
      ],
      [
        "Ġt",
        "maziÉ£t"
      ],
      [
        "Ġc",
        "c"
      ],
      [
        "Ġ",
        "!"
      ],
      [
        "á¸į",
        "ris"
      ],
      [
        "Ġd",
        "u"
      ],
      [
        "Ġta",
        "y"
      ],
      [
        "á¹Ńá¹Ń",
        "ut"
      ],
      [
        "w",
        "it"
      ],
      [
        ")",
        ","
      ],
      [
        "Ġa",
        "mek"
      ],
      [
        "g",
        "er"
      ],
      [
        "ra",
        "r"
      ],
      [
        "eb",
        "bi"
      ],
      [
        "Ġn",
        "ekk"
      ],
      [
        "Ġnett",
        "a"
      ],
      [
        "Ġte",
        "w"
      ],
      [
        "Ġte",
        "ss"
      ],
      [
        "in",
        "es"
      ],
      [
        "mez",
        "war"
      ],
      [
        "Ġta",
        "f"
      ],
      [
        "c",
        "t"
      ],
      [
        "Ġta",
        "m"
      ],
      [
        "Ġd",
        "d"
      ],
      [
        "Ġti",
        "d"
      ],
      [
        "Ġta",
        "me"
      ],
      [
        "Ġl",
        "eq"
      ],
      [
        "em",
        "t"
      ],
      [
        "Ġac",
        "ku"
      ],
      [
        "Ġti",
        "k"
      ],
      [
        "ma",
        "wen"
      ],
      [
        "i",
        "li"
      ],
      [
        "al",
        "i"
      ],
      [
        "Ġakk",
        "a"
      ],
      [
        "á¸¥",
        "a"
      ],
      [
        "Ġi",
        "laq"
      ],
      [
        "Ġtu",
        "d"
      ],
      [
        "á¸¥",
        "ric"
      ],
      [
        "f",
        "u"
      ],
      [
        "er",
        "ra"
      ],
      [
        "r",
        "eá¸į"
      ],
      [
        "ga",
        "z"
      ],
      [
        "ĠT",
        "as"
      ],
      [
        "Ġ",
        "qq"
      ],
      [
        "ÉĽ",
        "an"
      ],
      [
        "Ġis",
        "em"
      ],
      [
        "Ġula",
        "c"
      ],
      [
        "Ġa",
        "la"
      ],
      [
        "áºĵ",
        "áºĵ"
      ],
      [
        "mes",
        "lay"
      ],
      [
        "Ġa",
        "zal"
      ],
      [
        "n",
        "en"
      ],
      [
        "o",
        "m"
      ],
      [
        "á¸¥",
        "al"
      ],
      [
        "Ġ",
        "á¹"
      ],
      [
        "Ġu",
        "d"
      ],
      [
        "Ġte",
        "É£"
      ],
      [
        "zi",
        "k"
      ],
      [
        "na",
        "mek"
      ],
      [
        "Ġi",
        "ÉĽ"
      ],
      [
        "Ġt",
        "eg"
      ],
      [
        "ay",
        "t"
      ],
      [
        "na",
        "t"
      ],
      [
        "Ġma",
        "ÄįÄįi"
      ],
      [
        "Ġa",
        "t"
      ],
      [
        "Ġta",
        "r"
      ],
      [
        "Ġye",
        "w"
      ],
      [
        "g",
        "i"
      ],
      [
        "Ġa",
        "ya"
      ],
      [
        "er",
        "ru"
      ],
      [
        "f",
        "en"
      ],
      [
        "a",
        "b"
      ],
      [
        "a",
        "ÉĽ"
      ],
      [
        "Ġu",
        "z"
      ],
      [
        "Ġnni",
        "á¸įen"
      ],
      [
        "ĠM",
        "i"
      ],
      [
        "Ġ",
        "4"
      ],
      [
        "dd",
        "en"
      ],
      [
        "Ġd",
        "É£a"
      ],
      [
        "Ġi",
        "x"
      ],
      [
        "Ġi",
        "z"
      ],
      [
        "ĠI",
        "s"
      ],
      [
        "Ġi",
        "man"
      ],
      [
        "É£",
        "al"
      ],
      [
        "c",
        "en"
      ],
      [
        "l",
        "es"
      ],
      [
        "da",
        "m"
      ],
      [
        "en",
        "d"
      ],
      [
        "ef",
        "k"
      ],
      [
        "Ġi",
        "w"
      ],
      [
        "Ġ",
        "á¹Ńá¹Ń"
      ],
      [
        "y",
        "u"
      ],
      [
        "ew",
        "w"
      ],
      [
        "ur",
        "en"
      ],
      [
        "z",
        "an"
      ],
      [
        "ul",
        "t"
      ],
      [
        "Ġt",
        "ella"
      ],
      [
        "Ġw",
        "awal"
      ],
      [
        "aw",
        "i"
      ],
      [
        "ekk",
        "a"
      ],
      [
        "Ġi",
        "á¸¥"
      ],
      [
        "aw",
        "alen"
      ],
      [
        "Ġ",
        "G"
      ],
      [
        "Ġ",
        "/"
      ],
      [
        "Ġ",
        "ï"
      ],
      [
        "Ġ",
        "zik"
      ],
      [
        "er",
        "r"
      ],
      [
        "f",
        "an"
      ],
      [
        "l",
        "al"
      ],
      [
        "Ġb",
        "elli"
      ],
      [
        "iw",
        "en"
      ],
      [
        "Ġle",
        "á¸¥"
      ],
      [
        "Ġw",
        "ass"
      ],
      [
        "Ġ",
        "H"
      ],
      [
        "Ġti",
        "m"
      ],
      [
        "e",
        "ÄįÄį"
      ],
      [
        "o",
        "u"
      ],
      [
        "Ġt",
        "mu"
      ],
      [
        "É£",
        "er"
      ],
      [
        "in",
        "i"
      ],
      [
        "Ġa",
        "q"
      ],
      [
        "Ġle",
        "ÉĽ"
      ],
      [
        "á¸į",
        "t"
      ],
      [
        "Ġ",
        ";"
      ],
      [
        "Ġtu",
        "g"
      ],
      [
        "q",
        "u"
      ],
      [
        "Ġy",
        "a"
      ],
      [
        "uf",
        "a"
      ],
      [
        "medya",
        "z"
      ],
      [
        "Ġye",
        "qq"
      ],
      [
        "y",
        "an"
      ],
      [
        "áºĵ",
        "ri"
      ],
      [
        "u",
        "k"
      ],
      [
        "i",
        "b"
      ],
      [
        "É£",
        "an"
      ],
      [
        "r",
        "eÉ£"
      ],
      [
        "dan",
        "en"
      ],
      [
        "Ġi",
        "wa"
      ],
      [
        "l",
        "eÉ£"
      ],
      [
        "g",
        "an"
      ],
      [
        "á¸į",
        "a"
      ],
      [
        "un",
        "t"
      ],
      [
        "aw",
        "en"
      ],
      [
        "f",
        "eÉ£"
      ],
      [
        "egg",
        "asen"
      ],
      [
        "ĠA",
        "n"
      ],
      [
        "Ġtud",
        "ert"
      ],
      [
        "Ġus",
        "eggas"
      ],
      [
        "ir",
        "t"
      ],
      [
        "Ġw",
        "ar"
      ],
      [
        "ri",
        "t"
      ],
      [
        "Ġs",
        "nat"
      ],
      [
        "Ġyem",
        "ma"
      ],
      [
        "ur",
        "i"
      ],
      [
        "Ġw",
        "as"
      ],
      [
        "ra",
        "y"
      ],
      [
        "Ġ",
        "â"
      ],
      [
        "tt",
        "i"
      ],
      [
        "w",
        "t"
      ],
      [
        "mu",
        "d"
      ],
      [
        "Ġw",
        "i"
      ],
      [
        "ec",
        "t"
      ],
      [
        "Ġt",
        "f"
      ],
      [
        "qq",
        "ran"
      ],
      [
        "Ġd",
        "in"
      ],
      [
        "Ġ",
        "5"
      ],
      [
        "ar",
        "u"
      ],
      [
        "Ġ",
        "P"
      ],
      [
        "ek",
        "la"
      ],
      [
        "Ġti",
        "ra"
      ],
      [
        "l",
        "u"
[...]
