{
  "version": "1.0",
  "truncation": null,
  "padding": null,
  "added_tokens": [
    {
      "id": 0,
      "content": "<unk>",
      "single_word": false,
      "lstrip": false,
      "rstrip": false,
      "normalized": false,
      "special": true
    },
    {
      "id": 1,
      "content": "<bos>",
      "single_word": false,
      "lstrip": false,
      "rstrip": false,
      "normalized": false,
      "special": true
    }
  ],
  "normalizer": null,
  "pre_tokenizer": {
    "type": "ByteLevel",
    "add_prefix_space": true,
    "trim_offsets": true,
    "use_regex": true
  },
  "post_processor": null,
  "decoder": {
    "type": "ByteLevel",
    "add_prefix_space": true,
    "trim_offsets": true,
    "use_regex": true
  },
  "model": {
    "type": "BPE",
    "dropout": null,
    "unk_token": "<unk>",
    "continuing_subword_prefix": null,
    "end_of_word_suffix": null,
    "fuse_unk": false,
    "byte_fallback": false,
    "ignore_merges": false,
    "vocab": {
      "<unk>": 0,
      "<bos>": 1,
      "!": 2,
      "\"": 3,
      "#": 4,
      "$": 5,
      "%": 6,
      "&": 7,
      "'": 8,
      "(": 9,
      ")": 10,
      "*": 11,
      "+": 12,
      ",": 13,
      "-": 14,
      ".": 15,
      "/": 16,
      "0": 17,
      "1": 18,
      "2": 19,
      "3": 20,
      "4": 21,
      "5": 22,
      "6": 23,
      "7": 24,
      "8": 25,
      "9": 26,
      ":": 27,
      ";": 28,
      "<": 29,
      "=": 30,
      ">": 31,
      "?": 32,
      "@": 33,
      "A": 34,
      "B": 35,
      "C": 36,
      "D": 37,
      "E": 38,
      "F": 39,
      "G": 40,
      "H": 41,
      "I": 42,
      "J": 43,
      "K": 44,
      "L": 45,
      "M": 46,
      "N": 47,
      "O": 48,
      "P": 49,
      "Q": 50,
      "R": 51,
      "S": 52,
      "T": 53,
      "U": 54,
      "V": 55,
      "W": 56,
      "X": 57,
      "Y": 58,
      "Z": 59,
      "[": 60,
      "\\": 61,
      "]": 62,
      "^": 63,
      "_": 64,
      "`": 65,
      "a": 66,
      "b": 67,
      "c": 68,
      "d": 69,
      "e": 70,
      "f": 71,
      "g": 72,
      "h": 73,
      "i": 74,
      "j": 75,
      "k": 76,
      "l": 77,
      "m": 78,
      "n": 79,
      "o": 80,
      "p": 81,
      "q": 82,
      "r": 83,
      "s": 84,
      "t": 85,
      "u": 86,
      "v": 87,
      "w": 88,
      "x": 89,
      "y": 90,
      "z": 91,
      "{": 92,
      "|": 93,
      "}": 94,
      "~": 95,
      "¡": 96,
      "¢": 97,
      "£": 98,
      "¤": 99,
      "¥": 100,
      "¦": 101,
      "§": 102,
      "¨": 103,
      "©": 104,
      "ª": 105,
      "«": 106,
      "¬": 107,
      "®": 108,
      "¯": 109,
      "°": 110,
      "±": 111,
      "²": 112,
      "³": 113,
      "´": 114,
      "µ": 115,
      "¶": 116,
      "·": 117,
      "¸": 118,
      "¹": 119,
      "º": 120,
      "»": 121,
      "¼": 122,
      "½": 123,
      "¾": 124,
      "¿": 125,
      "À": 126,
      "Á": 127,
      "Â": 128,
      "Ã": 129,
      "Ä": 130,
      "Å": 131,
      "Æ": 132,
      "Ç": 133,
      "È": 134,
      "É": 135,
      "Ê": 136,
      "Ë": 137,
      "Ì": 138,
      "Í": 139,
      "Î": 140,
      "Ï": 141,
      "Ð": 142,
      "Ñ": 143,
      "Ò": 144,
      "Ó": 145,
      "Ô": 146,
      "Õ": 147,
      "Ö": 148,
      "×": 149,
      "Ø": 150,
      "Ù": 151,
      "Ú": 152,
      "Û": 153,
      "Ü": 154,
      "Ý": 155,
      "Þ": 156,
      "ß": 157,
      "à": 158,
      "á": 159,
      "â": 160,
      "ã": 161,
      "ä": 162,
      "å": 163,
      "æ": 164,
      "ç": 165,
      "è": 166,
      "é": 167,
      "ê": 168,
      "ë": 169,
      "ì": 170,
      "í": 171,
      "î": 172,
      "ï": 173,
      "ð": 174,
      "ñ": 175,
      "ò": 176,
      "ó": 177,
      "ô": 178,
      "õ": 179,
      "ö": 180,
      "÷": 181,
      "ø": 182,
      "ù": 183,
      "ú": 184,
      "û": 185,
      "ü": 186,
      "ý": 187,
      "þ": 188,
      "ÿ": 189,
      "Ā": 190,
      "ā": 191,
      "Ă": 192,
      "ă": 193,
      "Ą": 194,
      "ą": 195,
      "Ć": 196,
      "ć": 197,
      "Ĉ": 198,
      "ĉ": 199,
      "Ċ": 200,
      "ċ": 201,
      "Č": 202,
      "č": 203,
      "Ď": 204,
      "ď": 205,
      "Đ": 206,
      "đ": 207,
      "Ē": 208,
      "ē": 209,
      "Ĕ": 210,
      "ĕ": 211,
      "Ė": 212,
      "ė": 213,
      "Ę": 214,
      "ę": 215,
      "Ě": 216,
      "ě": 217,
      "Ĝ": 218,
      "ĝ": 219,
      "Ğ": 220,
      "ğ": 221,
      "Ġ": 222,
      "ġ": 223,
      "Ģ": 224,
      "ģ": 225,
      "Ĥ": 226,
      "ĥ": 227,
      "Ħ": 228,
      "ħ": 229,
      "Ĩ": 230,
      "ĩ": 231,
      "Ī": 232,
      "ī": 233,
      "Ĭ": 234,
      "ĭ": 235,
      "Į": 236,
      "į": 237,
      "İ": 238,
      "ı": 239,
      "Ĳ": 240,
      "ĳ": 241,
      "Ĵ": 242,
      "ĵ": 243,
      "Ķ": 244,
      "ķ": 245,
      "ĸ": 246,
      "Ĺ": 247,
      "ĺ": 248,
      "Ļ": 249,
      "ļ": 250,
      "Ľ": 251,
      "ľ": 252,
      "Ŀ": 253,
      "ŀ": 254,
      "Ł": 255,
      "ł": 256,
      "Ń": 257,
      "Ġt": 258,
      "Ġa": 259,
      "en": 260,
      "É£": 261,
      "Ġd": 262,
      "Ġn": 263,
      "Ġy": 264,
      "Ġi": 265,
      "á¸": 266,
      "an": 267,
      "Ġu": 268,
      "er": 269,
      "ra": 270,
      "al": 271,
      "Ġye": 272,
      "in": 273,
      "eg": 274,
      "á¹": 275,
      "ma": 276,
      "Ġs": 277,
      "á¸į": 278,
      "Ġw": 279,
      "la": 280,
      "el": 281,
      "em": 282,
      "á¸¥": 283,
      "me": 284,
      "Ġad": 285,
      "ÉĽ": 286,
      "Ġta": 287,
      "is": 288,
      "ĠA": 289,
      "kk": 290,
      "ar": 291,
      "ĠÉ£": 292,
      "as": 293,
      "Ġl": 294,
      "Ġte": 295,
      "tt": 296,
      "á¹Ń": 297,
      "ef": 298,
      "Ġyi": 299,
      "ĠT": 300,
      "li": 301,
      "Ġdeg": 302,
      "eÉ£": 303,
      "na": 304,
      "es": 305,
      "ed": 306,
      "mi": 307,
      "ni": 308,
      "ay": 309,
      "ur": 310,
      "Ġara": 311,
      "Ġti": 312,
      "ri": 313,
      "da": 314,
      "ĠÉ£er": 315,
      "Ġakk": 316,
      "it": 317,
      "aw": 318,
      "áº": 319,
      "eb": 320,
      "áºĵ": 321,
      "ut": 322,
      "Ġur": 323,
      "eá¸į": 324,
      "ĠI": 325,
      "ss": 326,
      "ĠM": 327,
      "Ġk": 328,
      "sen": 329,
      "id": 330,
      "ĠD": 331,
      "ru": 332,
      "ag": 333,
      "ĠÉ£ef": 334,
      "Ġdi": 335,
      "zi": 336,
      "un": 337,
      "Ġam": 338,
      "Ç§": 339,
      "Äį": 340,
      "Ġtu": 341,
      "wa": 342,
      "yen": 343,
      "Ġma": 344,
      "Ġwa": 345,
      "ĠU": 346,
      "iw": 347,
      "et": 348,
      "ya": 349,
      "ba": 350,
      "eq": 351,
      "Ġ(": 352,
      "ul": 353,
      "ir": 354,
      "Ġ-": 355,
      "ĠY": 356,
      "Ġtt": 357,
      "á¹Ľ": 358,
      "á¹£": 359,
      "Ġyett": 360,
      "ĠS": 361,
      "men": 362,
      "Ġas": 363,
      "dd": 364,
      "edd": 365,
      "Ġyel": 366,
      "Ġus": 367,
      "ett": 368,
      "ĠL": 369,
      "mu": 370,
      "Ġ:": 371,
      "wen": 372,
      "á¹Ńá¹Ń": 373,
      "il": 374,
      "ga": 375,
      "nni": 376,
      "ĠÂ": 377,
      "lan": 378,
      "..": 379,
      "agi": 380,
      "É£a": 381,
      "wal": 382,
      "Ġakken": 383,
      "ez": 384,
      "am": 385,
      "sa": 386,
      "Ġ1": 387,
      "Ġc": 388,
      "Ġseg": 389,
      "qq": 390,
      "aÉ£": 391,
      "ran": 392,
      "ek": 393,
      "wi": 394,
      "Ġm": 395,
      "uÉ£": 396,
      "ent": 397,
      "ekk": 398,
      "man": 399,
      "egg": 400,
      "Ġis": 401,
      "at": 402,
      "mek": 403,
      "Ġac": 404,
      "Ġle": 405,
      "im": 406,
      "Ġf": 407,
      "ĠneÉ£": 408,
      "Ġb": 409,
      "ren": 410,
      "us": 411,
      "ell": 412,
      "ĠB": 413,
      "Ġyis": 414,
      "Ġg": 415,
      "Ġla": 416,
      "mer": 417,
      "lay": 418,
      "uf": 419,
      "ĠÂ«": 420,
      "Ġan": 421,
      "ÄįÄį": 422,
      "ĠUr": 423,
      "ud": 424,
      "lit": 425,
      "ew": 426,
      "ant": 427,
      "iÉ£": 428,
      "ec": 429,
      "ella": 430,
      "ĠÆ": 431,
      "Ġyes": 432,
      "ĠTa": 433,
      "ĠN": 434,
      "Ġar": 435,
      "ÉĽa": 436,
      "Ġtem": 437,
      "urt": 438,
      "Ġtes": 439,
      "Ġway": 440,
      "Ġid": 441,
      "eá¸¥": 442,
      "Ġ,": 443,
      "mez": 444,
      "Ġkra": 445,
      "ca": 446,
      "med": 447,
      "ess": 448,
      "Ġyiwen": 449,
      "qb": 450,
      "mes": 451,
      "á¸įen": 452,
      "Ġ2": 453,
      "di": 454,
      "kken": 455,
      "dan": 456,
      "ziÉ£": 457,
      "Ġz": 458,
      "enna": 459,
      "yi": 460,
      "á¹Ńas": 461,
      "Ġtett": 462,
      "alen": 463,
      "bi": 464,
      "elli": 465,
      "Ã©": 466,
      "Ġr": 467,
      "Ġyella": 468,
      "ta": 469,
      "ti": 470,
      "neÉ£": 471,
      "eÉĽ": 472,
      "Ġum": 473,
      "Ġkan": 474,
      "Ġama": 475,
      "asen": 476,
      "ĠAd": 477,
      "Ġtal": 478,
      "ĠW": 479,
      "du": 480,
      "Ġmi": 481,
      "Ġyem": 482,
      "Ġyess": 483,
      "Ġ\"": 484,
      "kan": 485,
      "on": 486,
      "nsen": 487,
      "Ġimi": 488,
      "Ġayen": 489,
      "Ġyer": 490,
      "Ġula": 491,
      "ci": 492,
      "xx": 493,
      "den": 494,
      "zal": 495,
      "ĠMa": 496,
      "maziÉ£": 497,
      "len": 498,
      "Ġnett": 499,
      "Ġme": 500,
      "ĠTi": 501,
      "fa": 502,
      "win": 503,
      "art": 504,
      "...": 505,
      "Ġwin": 506,
      "dem": 507,
      "Ġts": 508,
      "si": 509,
      "emm": 510,
      "Ġakked": 511,
      "aren": 512,
      "utlay": 513,
      "ka": 514,
      "Ġun": 515,
      "ura": 516,
      "uá¸¥": 517,
      "ĠR": 518,
      "Ġss": 519,
      "eqq": 520,
      "ert": 521,
      "xxam": 522,
      "um": 523,
      "Ġug": 524,
      "qbay": 525,
      "Ç§Ç§": 526,
      "ad": 527,
      "zen": 528,
      "maziÉ£t": 529,
      "Ġyellan": 530,
      "ĠaÉ£": 531,
      "ĠAt": 532,
      "ug": 533,
      "af": 534,
      "Ġtas": 535,
      "meÉ£": 536,
      "Ġtutlay": 537,
      "ĠÆĲ": 538,
      "Ġyal": 539,
      "yin": 540,
      "Â»": 541,
      "ex": 542,
      "Ġyiw": 543,
      "ĠDeg": 544,
      "iá¸į": 545,
      "ist": 546,
      "ĠC": 547,
      "ĠÂ»": 548,
      "nu": 549,
      "Ġx": 550,
      "ruá¸¥": 551,
      "Ġten": 552,
      "Ġass": 553,
      "Ġtez": 554,
      "Ġyid": 555,
      "Ġfell": 556,
      "Ġyez": 557,
      "Ġgar": 558,
      "Ġag": 559,
      "ĠuÉ£": 560,
      "war": 561,
      "Ġnni": 562,
      "murt": 563,
      "ten": 564,
      "emma": 565,
      "Ġak": 566,
      "eh": 567,
      "Ġsi": 568,
      "Ġyeb": 569,
      "ku": 570,
      "raw": 571,
      "ĠF": 572,
      "Ġtag": 573,
      "ak": 574,
      "rid": 575,
      "Ġsin": 576,
      "Ġlá¸¥": 577,
      "awal": 578,
      "Ġtme": 579,
      "Ġtama": 580,
      "ass": 581,
      "Ġuma": 582,
      "ĠAs": 583,
      "Ġwid": 584,
      "Ġil": 585,
      "Ġaá¹Ńas": 586,
      "ban": 587,
      "Ġtef": 588,
      "ber": 589,
      "hi": 590,
      "Ġacu": 591,
      "cu": 592,
      "elt": 593,
      "Ġwayen": 594,
      "Ġ.": 595,
      "Ġim": 596,
      "Ġay": 597,
      "nan": 598,
      "ha": 599,
      "Ġde": 600,
      "medya": 601,
      "ik": 602,
      "gal": 603,
      "fer": 604,
      "qbaylit": 605,
      "uÉ£al": 606,
      "eá¹Ńá¹Ń": 607,
      "Ġawal": 608,
      "Ġtutlayt": 609,
      "Ġyiwet": 610,
      "Ġal": 611,
      "ĠK": 612,
      "Ġin": 613,
      "ris": 614,
      "ĠÉĽ": 615,
      "aÉ£en": 616,
      "ezz": 617,
      "Ġá¸¥": 618,
      "É£en": 619,
      "eff": 620,
      "ÄįÄįi": 621,
      "elma": 622,
      "Ġtin": 623,
      "ayen": 624,
      "Ġp": 625,
      "laq": 626,
      "Ġyim": 627,
      "bu": 628,
      "Ġyef": 629,
      "Ġteb": 630,
      "Ġanda": 631,
      "Ġaz": 632,
      "á¸¤": 633,
      "Ġyin": 634,
      "tin": 635,
      "ala": 636,
      "Ġter": 637,
      "Ġtura": 638,
      "Ġ?": 639,
      "ĠÉ£ur": 640,
      "eá¹Ľ": 641,
      "ĠÆĶ": 642,
      "nneÉ£": 643,
      "ddart": 644,
      "bedd": 645,
      "ej": 646,
      "gara": 647,
      "ĠtÉ£": 648,
      "Ġtmurt": 649,
      "Ġwis": 650,
      "qa": 651,
      "ĠAm": 652,
      "if": 653,
      "Ġuf": 654,
      "Ġllan": 655,
      "Ġmaca": 656,
      "gen": 657,
      ").": 658,
      "mir": 659,
      "sent": 660,
      "Ġ19": 661,
      "ĠiÉ£": 662,
      "uq": 663,
      "Ġtaz": 664,
      "leá¸į": 665,
      "Ġwu": 666,
      "ĠtaÉ£": 667,
      "ĠZ": 668,
      "ĠdaÉ£en": 669,
      "re": 670,
      "Ġ3": 671,
      "int": 672,
      "Ġtis": 673,
      "Ġyenna": 674,
      "nit": 675,
      "Ġtaddart": 676,
      "est": 677,
      "Â»,": 678,
      "ric": 679,
      "iyi": 680,
      "yett": 681,
      "ub": 682,
      "iwin": 683,
      "brid": 684,
      "Ġwal": 685,
      "za": 686,
      "Ġwakken": 687,
      "Ġ20": 688,
      "á¹£á¹£": 689,
      "rab": 690,
      "Ġá¸¤": 691,
      "Ġtan": 692,
      "Ġame": 693,
      "zu": 694,
      "edda": 695,
      "lis": 696,
      "Ġaf": 697,
      "Ġda": 698,
      "eggas": 699,
      "wan": 700,
      "É£i": 701,
      "Ġba": 702,
      "ĠtmaziÉ£t": 703,
      "Ġcc": 704,
      "Ġ!": 705,
      "á¸įris": 706,
      "Ġdu": 707,
      "Ġtay": 708,
      "á¹Ńá¹Ńut": 709,
      "wit": 710,
      "),": 711,
      "Ġamek": 712,
      "ger": 713,
      "rar": 714,
      "ebbi": 715,
      "Ġnekk": 716,
      "Ġnetta": 717,
      "Ġtew": 718,
      "Ġtess": 719,
      "ines": 720,
      "mezwar": 721,
      "Ġtaf": 722,
      "ct": 723,
      "Ġtam": 724,
      "Ġdd": 725,
      "Ġtid": 726,
      "Ġtame": 727,
      "Ġleq": 728,
      "emt": 729,
      "Ġacku": 730,
      "Ġtik": 731,
      "mawen": 732,
      "ili": 733,
      "ali": 734,
      "Ġakka": 735,
      "á¸¥a": 736,
      "Ġilaq": 737,
      "Ġtud": 738,
      "á¸¥ric": 739,
      "fu": 740,
      "erra": 741,
      "reá¸į": 742,
      "gaz": 743,
      "ĠTas": 744,
      "Ġqq": 745,
      "ÉĽan": 746,
      "Ġisem": 747,
      "Ġulac": 748,
      "Ġala": 749,
      "áºĵáºĵ": 750,
      "meslay": 751,
      "Ġazal": 752,
      "nen": 753,
      "om": 754,
      "á¸¥al": 755,
      "Ġá¹": 756,
      "Ġud": 757,
      "ĠteÉ£": 758,
      "zik": 759,
      "namek": 760,
      "ĠiÉĽ": 761,
      "Ġteg": 762,
      "ayt": 763,
      "nat": 764,
      "ĠmaÄįÄįi": 765,
      "Ġat": 766,
      "Ġtar": 767,
      "Ġyew": 768,
      "gi": 769,
      "Ġaya": 770,
      "erru": 771,
      "fen": 772,
      "ab": 773,
      "aÉĽ": 774,
      "Ġuz": 775,
      "Ġnniá¸įen": 776,
      "ĠMi": 777,
      "Ġ4": 778,
      "dden": 779,
      "ĠdÉ£a": 780,
      "Ġix": 781,
      "Ġiz": 782,
      "ĠIs": 783,
      "Ġiman": 784,
      "É£al": 785,
      "cen": 786,
      "les": 787,
      "dam": 788,
      "end": 789,
      "efk": 790,
      "Ġiw": 791,
      "Ġá¹Ńá¹Ń": 792,
      "yu": 793,
      "eww": 794,
      "uren": 795,
      "zan": 796,
      "ult": 797,
      "Ġtella": 798,
      "Ġwawal": 799,
      "awi": 800,
      "ekka": 801,
      "Ġiá¸¥": 802,
      "awalen": 803,
      "ĠG": 804,
      "Ġ/": 805,
      "Ġï": 806,
      "Ġzik": 807,
      "err": 808,
      "fan": 809,
      "lal": 810,
      "Ġbelli": 811,
      "iwen": 812,
      "Ġleá¸¥": 813,
      "Ġwass": 814,
      "ĠH": 815,
      "Ġtim": 816,
      "eÄįÄį": 817,
      "ou": 818,
      "Ġtmu": 819,
      "É£er": 820,
      "ini": 821,
      "Ġaq": 822,
      "ĠleÉĽ": 823,
      "á¸įt": 824,
      "Ġ;": 825,
      "Ġtug": 826,
      "qu": 827,
      "Ġya": 828,
      "ufa": 829,
      "medyaz": 830,
      "Ġyeqq": 831,
      "yan": 832,
      "áºĵri": 833,
      "uk": 834,
      "ib": 835,
      "É£an": 836,
      "reÉ£": 837,
      "danen": 838,
      "Ġiwa": 839,
      "leÉ£": 840,
      "gan": 841,
      "á¸įa": 842,
      "unt": 843,
      "awen": 844,
      "feÉ£": 845,
      "eggasen": 846,
      "ĠAn": 847,
      "Ġtudert": 848,
      "Ġuseggas": 849,
      "irt": 850,
      "Ġwar": 851,
      "rit": 852,
      "Ġsnat": 853,
      "Ġyemma": 854,
      "uri": 855,
      "Ġwas": 856,
      "ray": 857,
      "Ġâ": 858,
      "tti": 859,
      "wt": 860,
      "mud": 861,
      "Ġwi": 862,
      "ect": 863,
      "Ġtf": 864,
      "qqran": 865,
      "Ġdin": 866,
      "Ġ5": 867,
      "aru": 868,
      "ĠP": 869,
      "ekla": 870,
      "Ġtira": 871,
      "lu": 872,
      "sit": 873,
      "yag": 874,
      "was": 875,
      "cem": 876,
      "Ġ[": 877,
      "ĠDi": 878,
      "Ġwan": 879,
      "ben": 880,
      "Ġtaqbaylit": 881,
      "itt": 882,
      "ĠAmek": 883,
      "Ġyerna": 884,
      "ey": 885,
      "eÇ§Ç§": 886,
      "rin": 887,
      "alt": 888,
      "ssan": 889,
      "Ġnes": 890,
      "nes": 891,
      "ebb": 892,
      "ĠMuá¸¥": 893,
      "Ġj": 894,
      "st": 895,
      "udd": 896,
      "Ġleb": 897,
      "res": 898,
      "Ġlx": 899,
      "ĠTizi": 900,
      "xef": 901,
      "ĠyesÉĽa": 902,
      "ĠtaÉĽ": 903,
      "Ġig": 904,
      "elmaden": 905,
      "00": 906,
      "ayer": 907,
      "mar": 908,
      "Ġwaá¹Ńas": 909,
      "Ġyen": 910,
      "á¸įan": 911,
      "Ġyekk": 912,
      "Ġul": 913,
      "mut": 914,
      "ĠyuÉ£al": 915,
      "Ġlq": 916,
      "Ġir": 917,
      "leá¸įt": 918,
      "Ġuxxam": 919,
      "Ġif": 920,
      "mezwaru": 921,
      "dat": 922,
      "Ġq": 923,
      "Ġime": 924,
      "iq": 925,
      "or": 926,
      "Ġzz": 927,
      "Ġit": 928,
      "Ġá¹£á¹£": 929,
      "wac": 930,
      "Ġtaw": 931,
      "yas": 932,
      "nut": 933,
      "Ġyili": 934,
      "Ġlem": 935,
      "ĠlÉĽ": 936,
      "Ġtig": 937,
      "ĠX": 938,
      "bay": 939,
      "lem": 940,
      "der": 941,
      "exdem": 942,
      "Ġyu": 943,
      "awin": 944,
      "rabt": 945,
      "Ġihi": 946,
      "Ġbaba": 947,
      "Ġlex": 948,
      "Ġteqbaylit": 949,
      "á¹Ńa": 950,
      "ig": 951,
      "mal": 952,
      "áºĵar": 953,
      "ĠJ": 954,
      "É£li": 955,
      "Ġtma": 956,
      "ilt": 957,
      "iwant": 958,
      "ĠtalÉ£a": 959,
      "aya": 960,
      "Ġness": 961,
      "Ġacá¸¥al": 962,
      "din": 963,
      "Ġiyi": 964,
      "Ġyisem": 965,
      "Ġ6": 966,
      "Ġabrid": 967,
      "ker": 968,
      "Ġwawalen": 969,
      "Ġwak": 970,
      "yes": 971,
      "ter": 972,
      "han": 973,
      "Ġuq": 974,
      "Ġmmi": 975,
      "ÉĽna": 976,
      "Ġamezwaru": 977,
      "Ġiá¸į": 978,
      "Ġima": 979,
      "yess": 980,
      "aweá¸į": 981,
      "ewwi": 982,
      "lin": 983,
      "xedd": 984,
      "ĠE": 985,
      "way": 986,
      "ĠQ": 987,
      "ÉĽi": 988,
      "Ġyettwa": 989,
      "zz": 990,
      "emmel": 991,
      "Ġyelli": 992,
      "Ġwul": 993,
      "á¸¥en": 994,
      "yer": 995,
      "ĠyesÉĽan": 996,
      "aá¸į": 997,
      "meá¸į": 998,
      "dad": 999,
      "emmi": 1000,
      "idir": 1001,
      "liÉ£": 1002,
      "edmen": 1003,
      "Ġddu": 1004,
      "naf": 1005,
      "umi": 1006,
      "Ġyeá¹Ńá¹Ń": 1007,
      "ynut": 1008,
      "Ġtemna": 1009,
      "ers": 1010,
      "Ġtla": 1011,
      "baÉĽ": 1012,
      "Ġiwakken": 1013,
      "Ġwud": 1014,
      "Ġh": 1015,
      "Ġwaya": 1016,
      "zem": 1017,
      "Ġtaggara": 1018,
      "ĠTom": 1019,
      "xel": 1020,
      "iyen": 1021,
      "layen": 1022,
      "Ġtikk": 1023,
      "Ġtems": 1024,
      "ac": 1025,
      "eáºĵ": 1026,
      "ĠUla": 1027,
      "sist": 1028,
      "rir": 1029,
      "ro": 1030,
      "ĠAkken": 1031,
      "ara": 1032,
      "nadi": 1033,
      "ĠAr": 1034,
      "ĠtuÉ£al": 1035,
      "Ġtili": 1036,
      "isen": 1037,
      "Ġyir": 1038,
      "Ġtmeá¹Ńá¹Ńut": 1039,
      "daÉ£": 1040,
      "ĠRebbi": 1041,
      "Ġyiseggasen": 1042,
      "Ġic": 1043,
      "ĠBu": 1044,
      "Ġnez": 1045,
      "elmad": 1046,
      "mma": 1047,
      "medyazt": 1048,
      "le": 1049,
      "qen": 1050,
      "Ã¨": 1051,
      "efra": 1052,
      "xdem": 1053,
      "wara": 1054,
      "Ġtmetti": 1055,
      "Ġaw": 1056,
      "idi": 1057,
      "deg": 1058,
      "bayel": 1059,
      "beddel": 1060,
      "Ġaxxam": 1061,
      "ken": 1062,
      "hat": 1063,
      "Ġnettat": 1064,
      "nul": 1065,
      "eddi": 1066,
      "Ġ7": 1067,
      "tion": 1068,
      "Ġyeg": 1069,
      "Ġarmi": 1070,
      "ezzayer": 1071,
      "nniá¸įen": 1072,
      "Ġtn": 1073,
      "mend": 1074,
      "Ġwun": 1075,
      "á¹Ľa": 1076,
      "wali": 1077,
      "sentel": 1078,
      "Ġqqaren": 1079,
      "mt": 1080,
      "Ġtk": 1081,
      "ĠtiÉ£": 1082,
      "Ġ0": 1083,
      "Ġyiá¸į": 1084,
      "ion": 1085,
      "gu": 1086,
      "cic": 1087,
      "Ġtallit": 1088,
      "dÉ£a": 1089,
      "Ġger": 1090,
      "qbel": 1091,
      "hil": 1092,
      "Ġitt": 1093,
      "egz": 1094,
      "wel": 1095,
      "Ġugar": 1096,
      "rat": 1097,
      "Ġtidet": 1098,
      "ĠSi": 1099,
      "Ġmedden": 1100,
      "É£eÉ£": 1101,
      "iá¸¥": 1102,
      "baz": 1103,
      "Ġtul": 1104,
      "Ġtel": 1105,
      "Ġtá¸¥": 1106,
      "Ġteá¸¥": 1107,
      "Ġideg": 1108,
      "Ġyezmer": 1109,
      "nar": 1110,
      "Ġmazal": 1111,
      "ĠaÉĽ": 1112,
      "san": 1113,
      "âµ": 1114,
      "lam": 1115,
      "Ġyiman": 1116,
      "Ġteqq": 1117,
      "ĠtesÉĽa": 1118,
      "\".": 1119,
      "Ġkraá¸į": 1120,
      "Ġyeá¸¥": 1121,
      "Ġwaman": 1122,
      "ĠyeÉĽ": 1123,
      "Ġib": 1124,
      "cc": 1125,
      "É£ar": 1126,
      "ĠtÉĽ": 1127,
      "maÉĽ": 1128,
      "ĠÉ£as": 1129,
      "Ġuá¸įris": 1130,
      "rawt": 1131,
      "Ġtazwara": 1132,
      "Ġik": 1133,
      "effir": 1134,
      "Ġtsekla": 1135,
      "Ġtl": 1136,
      "É£ur": 1137,
      "Ġasen": 1138,
      "Ġumdan": 1139,
      "Ġyeá¸į": 1140,
      "efru": 1141,
      "Ġuk": 1142,
      "ĠTam": 1143,
      "su": 1144,
      "ĠIxef": 1145,
      "Ç§a": 1146,
      "ĠÂ».": 1147,
      "Ġ8": 1148,
      "wir": 1149,
      "ebá¸¥": 1150,
      "Ġ201": 1151,
      "mus": 1152,
      "ilin": 1153,
      "tar": 1154,
      "Ġyek": 1155,
      "ĠAy": 1156,
      "Ġtek": 1157,
      "ĠLezzayer": 1158,
      "É£u": 1159,
      "ruy": 1160,
      "imen": 1161,
      "ilen": 1162,
      "ebba": 1163,
      "hem": 1164,
      "Ġdes": 1165,
      "awt": 1166,
      "á¸įin": 1167,
      "laf": 1168,
      "á¹Ńi": 1169,
      "Ġtima": 1170,
      "uma": 1171,
      "wacult": 1172,
      "Ġtedd": 1173,
      "ĠSeg": 1174,
      "rad": 1175,
      "Ġles": 1176,
      "Ġaá¸¥": 1177,
      "eddan": 1178,
      "Ġnn": 1179,
      "Ġiq": 1180,
      "Ġumez": 1181,
      "Ġwudem": 1182,
      "Ġted": 1183,
      "Ġwayeá¸į": 1184,
      "mel": 1185,
      "Ġyismawen": 1186,
      "Ġamen": 1187,
      "efka": 1188,
      "yenna": 1189,
      "ĠAl": 1190,
      "iten": 1191,
      "te": 1192,
      "Ġyedd": 1193,
      "daw": 1194,
      "que": 1195,
      "Ġruá¸¥": 1196,
      "ĠuÉĽ": 1197,
      "Ġdeffir": 1198,
      "wala": 1199,
      "Ġameqqran": 1200,
      "Ġmeqq": 1201,
      "ĠYella": 1202,
      "fi": 1203,
      "ĠtaÉĽrabt": 1204,
      "sel": 1205,
      "bla": 1206,
      "ref": 1207,
      "ki": 1208,
      "zun": 1209,
      "ĠIÉ£": 1210,
      "ĠïĤ": 1211,
      "deÉ£": 1212,
      "uran": 1213,
      "ja": 1214,
      "dint": 1215,
      "Ġubrid": 1216,
      "ĠAss": 1217,
      "qel": 1218,
      "fel": 1219,
      "cah": 1220,
      "ari": 1221,
      "beá¸¥": 1222,
      "Ġwussan": 1223,
      "ÉĽen": 1224,
      "Ġax": 1225,
      "rif": 1226,
      "ner": 1227,
      "gar": 1228,
      "yaá¸į": 1229,
      "Ġyil": 1230,
      "ĠTt": 1231,
      "Ġtikkelt": 1232,
      "ch": 1233,
      "ĠyeÄįÄį": 1234,
      "ĠsÉĽ": 1235,
      "inist": 1236,
      "bar": 1237,
      "Ġtaq": 1238,
      "Ġiruá¸¥": 1239,
      "ĠAg": 1240,
      "ransist": 1241,
      "dud": 1242,
      "Ġá¹Ľ": 1243,
      "ĠTan": 1244,
      "Ġ'": 1245,
      "ÆĲ": 1246,
      "eddu": 1247,
      "Ġtenna": 1248,
      "weá¸į": 1249,
      "mezdaÉ£": 1250,
      "nt": 1251,
      "ĠAá¹Ńas": 1252,
      "erbaz": 1253,
      "Ġyec": 1254,
      "Ġtameá¹Ńá¹Ńut": 1255,
      "mezwarut": 1256,
      "Ġ*": 1257,
      "gun": 1258,
      "teq": 1259,
      "Ġdaxel": 1260,
      "Ġungal": 1261,
      "meslayen": 1262,
      "Ġ9": 1263,
      "Ġá¹Ń": 1264,
      "Ġwamek": 1265,
      "Ġddunit": 1266,
      "ast": 1267,
      "bel": 1268,
      "Ġkk": 1269,
      "Ġtir": 1270,
      "mis": 1271,
      "nin": 1272,
      "Ġmli": 1273,
      "ĠladÉ£a": 1274,
      "ĠtamaziÉ£t": 1275,
      "kka": 1276,
      "ure": 1277,
      "ferd": 1278,
      "Ġtif": 1279,
      "riÉ£": 1280,
      "ĠAz": 1281,
      "dic": 1282,
      "Ġtayri": 1283,
      "ment": 1284,
      "get": 1285,
      "ĠÆĶef": 1286,
      "Ġá¹¬": 1287,
      "Ġyettili": 1288,
      "Ġusel": 1289,
      "nuÉ£": 1290,
      "áºĵi": 1291,
      "rayt": 1292,
      "ce": 1293,
      "ĠyeÇ§Ç§": 1294,
      "git": 1295,
      "gay": 1296,
      "ĠkeÄįÄį": 1297,
      "ĠYett": 1298,
      "niÉ£": 1299,
      "Ġasmi": 1300,
      "ĠlÇ§": 1301,
      "Ġyewwi": 1302,
      "Ġwungal": 1303,
      "É£iÉ£": 1304,
      "rum": 1305,
      "rem": 1306,
      "egga": 1307,
      "áºĵer": 1308,
      "Ġ10": 1309,
      "Ġdayen": 1310,
      "Ġneb": 1311,
      "Ġcwi": 1312,
      "yez": 1313,
      "Ġteq": 1314,
      "ĠIhi": 1315,
      "Ġtz": 1316,
      "ĠAma": 1317,
      "edÉ£eÉ£": 1318,
      "ĠAc": 1319,
      "ĠIl": 1320,
      "qbayli": 1321,
      "ĠTim": 1322,
      "wlan": 1323,
      "uc": 1324,
      "Ġtab": 1325,
      "ĠyeÉ£": 1326,
      "Ġ200": 1327,
      "Ġyif": 1328,
      "gt": 1329,
      "nnes": 1330,
      "naw": 1331,
      "á¹Ńuá¸¥": 1332,
      "Ġá¹ļ": 1333,
      "Ġnaf": 1334,
      "ĠYenna": 1335,
      "uá¸į": 1336,
      "ĠAk": 1337,
      "yel": 1338,
      "ĠLa": 1339,
      "cahut": 1340,
      "Ġtad": 1341,
      "ĠMaca": 1342,
      "Ġyed": 1343,
      "Ġtamezwarut": 1344,
      "beÉĽ": 1345,
      "Ġmebla": 1346,
      "Ġunamek": 1347,
      "mert": 1348,
      "Ġanamek": 1349,
      "our": 1350,
      "ĠyebÉ£a": 1351,
      "rac": 1352,
      "Ġtil": 1353,
      "cict": 1354,
      "anen": 1355,
      "Ġmliá¸¥": 1356,
      "Ġwasmi": 1357,
      "hu": 1358,
      "Ġminist": 1359,
      "fir": 1360,
      "ĠyiÉ£": 1361,
      "Ġtiz": 1362,
      "meÉĽ": 1363,
      "mil": 1364,
      "nal": 1365,
      "qi": 1366,
      "tu": 1367,
      "Ġlá¸¥al": 1368,
      "Ġuc": 1369,
      "Ġamkan": 1370,
      "eqqar": 1371,
      "urar": 1372,
      "laÉ£": 1373,
      "ic": 1374,
      "ĠLeq": 1375,
      "ĠMuá¸¥end": 1376,
      "ĠAyen": 1377,
      "Ġyima": 1378,
      "Ġargaz": 1379,
      "Ġtayeá¸į": 1380,
      "Ġtutlayin": 1381,
      "mit": 1382,
      "udam": 1383,
      "Ġgma": 1384,
      "ĠTag": 1385,
      "ĠTaw": 1386,
      "Ġtila": 1387,
      "far": 1388,
      "Ġtaá¸¥": 1389,
      "Ġumata": 1390,
      "É£iá¸į": 1391,
      "Ġusen": 1392,
      "yar": 1393,
      "ani": 1394,
      "ĠFran": 1395,
      "bad": 1396,
      "ĠÇ": 1397,
      "alay": 1398,
      "erd": 1399,
      "sab": 1400,
      "Ġlqa": 1401,
      "Ġalmi": 1402,
      "á¸įi": 1403,
      "Ġlw": 1404,
      "kel": 1405,
      "Ġtg": 1406,
      "nam": 1407,
      "Ġani": 1408,
      "ebd": 1409,
      "ĠSidi": 1410,
      "enf": 1411,
      "Ġtak": 1412,
      "rus": 1413,
      "Ġleh": 1414,
      "Ġbu": 1415,
      "ukk": 1416,
      "ĠNekk": 1417,
      "Ġyerzan": 1418,
      "eqqa": 1419,
      "qt": 1420,
      "Ġwem": 1421,
      "Ġtamurt": 1422,
      "zer": 1423,
      "ĠAwal": 1424,
      "Ġtent": 1425,
      "ewweá¸į": 1426,
      "awsa": 1427,
      "ebá¸¥it": 1428,
      "waÉ£": 1429,
      "ĠTaz": 1430,
      "wurt": 1431,
      "Ġyexdem": 1432,
      "É£el": 1433,
      "Ġudem": 1434,
      "bir": 1435,
      "Ġtwacult": 1436,
      "nsent": 1437,
      "cix": 1438,
      "Ġahat": 1439,
      "xeddim": 1440,
      "iá¸įen": 1441,
      "Ġcwiá¹Ń": 1442,
      "ÉĻ": 1443,
      "á¸¥t": 1444,
      "á¹£a": 1445,
      "Ġnufa": 1446,
      "Ġamdan": 1447,
      "Ġams": 1448,
      "nas": 1449,
      "ens": 1450,
      "waÇ§": 1451,
      "19": 1452,
      "ebÉĽa": 1453,
      "áºĴ": 1454,
      "Ġiwumi": 1455,
      "Ãª": 1456,
      "áºĵra": 1457,
      "yirt": 1458,
      "Ã¢": 1459,
      "ĠWin": 1460,
      "ĠIsem": 1461,
      "ĠDÉ£a": 1462,
      "Ġtaá¹£": 1463,
      "ĠtÉ£iwant": 1464,
      "Ġleqdic": 1465,
      "dit": 1466,
      "sut": 1467,
      "kayt": 1468,
      "Ġtmedyazt": 1469,
      "wura": 1470,
      "nag": 1471,
      "emres": 1472,
      "Ġtamu": 1473,
      "Ġyelhan": 1474,
      "Ġtuf": 1475,
      "Ġafus": 1476,
      "Ġwad": 1477,
      "Ġaman": 1478,
      "Ġuá¸į": 1479,
      "á¹Ľen": 1480,
      "ĠuÉ£erbaz": 1481,
      "Ġtruá¸¥": 1482,
      "ĠIm": 1483,
      "Ġtx": 1484,
      "Ġyefka": 1485,
      "Ġuga": 1486,
      "Ġyettwas": 1487,
      "nun": 1488,
      "\",": 1489,
      "uft": 1490,
      "reá¸¥": 1491,
      "maziÉ£en": 1492,
      "Ġyimdanen": 1493,
      "ras": 1494,
      "bal": 1495,
      "Ġet": 1496,
      "Ġtec": 1497,
      "Ġtime": 1498,
      "Ġufus": 1499,
      "Ġáºĵ": 1500,
      "Ġleqbayel": 1501,
      "eddem": 1502,
      "lisen": 1503,
      "niwin": 1504,
      "ation": 1505,
      "Ġyidles": 1506,
      "Ġ+": 1507,
      "ezzi": 1508,
      "inu": 1509,
      "Ġwer": 1510,
      "ddit": 1511,
      "gazen": 1512,
      "Ġyakk": 1513,
      "emren": 1514,
      "aá¹Ń": 1515,
      "â´": 1516,
      "Ġsem": 1517,
      "Ġwazal": 1518,
      "ina": 1519,
      "Ġuqbel": 1520,
      "jj": 1521,
      "qran": 1522,
      "ezzu": 1523,
      "cid": 1524,
      "Ġume": 1525,
      "Ġ18": 1526,
      "dec": 1527,
      "Ġagi": 1528,
      "ĠIn": 1529,
      "ÉĽaw": 1530,
      "ire": 1531,
      "tett": 1532,
      "mas": 1533,
      "Ġumawal": 1534,
      "assen": 1535,
      "Ġwag": 1536,
      "á¸įrisen": 1537,
      "effeÉ£": 1538,
      "Ġsdat": 1539,
      "rib": 1540,
      "Ġamzun": 1541,
      "kar": 1542,
      "lalen": 1543,
      "Ġyinelmaden": 1544,
      "Ġimir": 1545,
      "Ġuáºĵ": 1546,
      "Ġnem": 1547,
      "Ġamenzu": 1548,
      "Ġnezmer": 1549,
      "nem": 1550,
      "Ġv": 1551,
      "Ġtemnaá¸įt": 1552,
      "Ġuá¸¥ric": 1553,
      "Ġtaj": 1554,
      "bib": 1555,
      "ĠUn": 1556,
      "eá¹Ńá¹Ńa": 1557,
      "duk": 1558,
      "garaden": 1559,
      "Ġyakan": 1560,
      "ĠO": 1561,
      "Ġuss": 1562,
      "Ġzdat": 1563,
      "20": 1564,
      "Ġtáºĵ": 1565,
      "sin": 1566,
      "Ġkul": 1567,
      "ĠsÉ£ur": 1568,
      "Ġurgaz": 1569,
      "Ġnek": 1570,
      "ĠyuÉ£": 1571,
      "Ġij": 1572,
      "eqda": 1573,
      "alit": 1574,
      "ĠMo": 1575,
      "ĠTaf": 1576,
      "Ġwumi": 1577,
      "ram": 1578,
      "awit": 1579,
      "Ġtmer": 1580,
      "Ġyig": 1581,
      "Ġwiyaá¸į": 1582,
      "ĠFransa": 1583,
      "Ġtekk": 1584,
      "Ġlba": 1585,
      "ĠÆĶer": 1586,
      "Ġïĥ": 1587,
      "Ġkem": 1588,
      "lus": 1589,
      "Ġwam": 1590,
      "hen": 1591,
      "Ġwakud": 1592,
      "las": 1593,
      "Ġicu": 1594,
      "ĠTal": 1595,
      "Ġuá¸¥": 1596,
      "ellid": 1597,
      "ĠÄįÄį": 1598,
      "Ġyemmut": 1599,
      "Ġtimawit": 1600,
      "Ġyeqqim": 1601,
      "ebbu": 1602,
      "ĠLlan": 1603,
      "Ġnut": 1604,
      "Ġmu": 1605,
      "Ġimen": 1606,
      "ĠAq": 1607,
      "Ġiban": 1608,
      "Ġxas": 1609,
      "ĠBen": 1610,
      "Ġsyin": 1611,
      "Ġtc": 1612,
      "her": 1613,
      "Ġ11": 1614,
      "Ġdagi": 1615,
      "uss": 1616,
      "Ġsen": 1617,
      "lil": 1618,
      "Ġtq": 1619,
      "Ġiss": 1620,
      "á¸įu": 1621,
      "ĠTett": 1622,
      "Ġumyag": 1623,
      "Ġmerra": 1624,
      "á¸įal": 1625,
      "Ġ...": 1626,
      "ĠTala": 1627,
      "nect": 1628,
      "asent": 1629,
      "Ġllant": 1630,
      "Ġtaá¹£ebá¸¥it": 1631,
      "ĠSa": 1632,
      "ĠAá¸¥ric": 1633,
      "Ġwallen": 1634,
      "rÃ©": 1635,
      "sas": 1636,
      "ĠYu": 1637,
      "eá¹£": 1638,
      "Ġddaw": 1639,
      "cá¹Ńuá¸¥": 1640,
      "ĠÂ»,": 1641,
      "Ġ15": 1642,
      "Ġawalen": 1643,
      "ĠyeffeÉ£": 1644,
      "yeÇ§Ç§": 1645,
      "eá¹Ľá¹Ľ": 1646,
      "ayri": 1647,
      "ol": 1648,
      "Ġá¸į": 1649,
      "Ġnexdem": 1650,
      "Ġyerra": 1651,
      "iz": 1652,
      "Ġilmend": 1653,
      "yt": 1654,
      "Ġxedmen": 1655,
      "ÉĽu": 1656,
      "ĠYal": 1657,
      "gad": 1658,
      "meÉ£ra": 1659,
      "ĠïĤ·": 1660,
      "gayet": 1661,
      "Ġtej": 1662,
      "erf": 1663,
      "ĠÇ¦": 1664,
      "Ġ12": 1665,
      "eqt": 1666,
      "Ġtemdint": 1667,
      "Ġlf": 1668,
      "Ġtlata": 1669,
      "Ġana": 1670,
      "Ġweá¸¥": 1671,
      "ÉĽid": 1672,
      "Ġih": 1673,
      "Ġwacu": 1674,
      "ser": 1675,
      "walt": 1676,
      "Ġll": 1677,
      "Ġyura": 1678,
      "eá¸įru": 1679,
      "teqsi": 1680,
      "Ġaseggas": 1681,
      "Ġteá¸į": 1682,
      "eddun": 1683,
      "xal": 1684,
      "yef": 1685,
      "ĠÃ": 1686,
      "Ġlawan": 1687,
      "Ġusentel": 1688,
      "Ġwug": 1689,
      "ĠtalÉ£": 1690,
      "ĠYiwen": 1691,
      "eÇ§": 1692,
      "eÉ£t": 1693,
      "Ġsb": 1694,
      "elmi": 1695,
      "eqdec": 1696,
      "eur": 1697,
      "mad": 1698,
      "Ġibedd": 1699,
      "gir": 1700,
      "Ġumi": 1701,
      "ĠlebÉ£i": 1702,
      "Ġtala": 1703,
      "badut": 1704,
      "amen": 1705,
      "Ġtw": 1706,
      "ulen": 1707,
      "eddmen": 1708,
      "gur": 1709,
      "reb": 1710,
      "seÉ£": 1711,
      "let": 1712,
      "rur": 1713,
      "sul": 1714,
      "kem": 1715,
      "Ġdakken": 1716,
      "Ġwe": 1717,
      "run": 1718,
      "yekk": 1719,
      "ĠTin": 1720,
      "Ġ%": 1721,
      "Ġteá¹Ńá¹Ń": 1722,
      "Ġtudd": 1723,
      "ux": 1724,
      "wadem": 1725,
      "irem": 1726,
      "Ġbab": 1727,
      "neÉ£laf": 1728,
      "meáºĵ": 1729,
      "á¸¥u": 1730,
      "ĠImi": 1731,
      "min": 1732,
      "ziz": 1733,
      "Ġttar": 1734,
      "Ġdinna": 1735,
      "ĠSs": 1736,
      "waá¸¥": 1737,
      "Ġumezruy": 1738,
      "kant": 1739,
      "tes": 1740,
      "raá¸¥": 1741,
      "Ġyug": 1742,
      "Ġtuget": 1743,
      "raá¸į": 1744,
      "ÉĽt": 1745,
      "Ġ)": 1746,
      "ĠNett": 1747,
      "az": 1748,
      "ĠUlac": 1749,
      "ne": 1750,
      "Ġaj": 1751,
      "Ġamaru": 1752,
      "ĠBgayet": 1753,
      "Ġyiz": 1754,
      "rew": 1755,
      "siwin": 1756,
      "ĠteÄįÄį": 1757,
      "ĠteÉĽ": 1758,
      "Ġ14": 1759,
      "Ø§": 1760,
      "ĠTaÉ£": 1761,
      "Ã¨re": 1762,
      "Ġmeqqren": 1763,
      "ĠYi": 1764,
      "emmast": 1765,
      "ĠZz": 1766,
      "ah": 1767,
      "Ġab": 1768,
      "ĠAxxam": 1769,
      "Ġ199": 1770,
      "ferdisen": 1771,
      "ulin": 1772,
      "uá¹Ľ": 1773,
      "Ġtefransist": 1774,
      "Ġtams": 1775,
      "Ġá¹£": 1776,
      "ĠlaÉĽ": 1777,
      "ĠassaÉ£": 1778,
      "ejdan": 1779,
      "Ġnutni": 1780,
      "liman": 1781,
      "edmeÉ£": 1782,
      "ĠMar": 1783,
      "ĠMaÄįÄįi": 1784,
      "Ġamaynut": 1785,
      "wet": 1786,
      "emmu": 1787,
      "Ġ13": 1788,
      "ĠAb": 1789,
      "ĠtuÉ£": 1790,
      "Ġccna": 1791,
      "Ġwat": 1792,
      "Ġ198": 1793,
      "wiÉ£": 1794,
      "erna": 1795,
      "ust": 1796,
      "Ġyixef": 1797,
      "Ġanida": 1798,
      "ĠMd": 1799,
      "dim": 1800,
      "Ġá¹¢": 1801,
      "ÉĽad": 1802,
      "Ġini": 1803,
      "Ġyebda": 1804,
      "nulfu": 1805,
      "Ġniá¸įen": 1806,
      "Ġumkan": 1807,
      "Ġpro": 1808,
      "neá¸į": 1809,
      "Ġtat": 1810,
      "Ġtuss": 1811,
      "á¹Ńij": 1812,
      "ĠLeqbayel": 1813,
      "seá¸į": 1814,
      "ĠTura": 1815,
      "ĠTame": 1816,
      "Ġtemnaá¸įin": 1817,
      "fiÉ£": 1818,
      "ĠiÉ£ef": 1819,
      "ĠsÉĽan": 1820,
      "ileÉ£": 1821,
      "Ġiger": 1822,
      "afen": 1823,
      "ĠtaÉ£iwant": 1824,
      "ĠáºĴ": 1825,
      "ĠÆĶas": 1826,
      "Ġwammud": 1827,
      "erb": 1828,
      "Ġiseggasen": 1829,
      "Ġalamma": 1830,
      "ÉĽed": 1831,
      "Ġyeá¹Ńá¹Ńef": 1832,
      "raÉ£": 1833,
      "ĠYes": 1834,
      "eá¹£á¹£": 1835,
      "lent": 1836,
      "ine": 1837,
      "á¹Ńá¹Ńan": 1838,
      "nil": 1839,
      "Ġusefru": 1840,
      "Ġwarraw": 1841,
      "ĠIlaq": 1842,
      "ĠiÉĽeddan": 1843,
      "Ġrr": 1844,
      "ĠAÉ£": 1845,
      "ĠÆĲli": 1846,
      "ĠuneÉ£laf": 1847,
      "Ġtikli": 1848,
      "yant": 1849,
      "Ġaáºĵ": 1850,
      "ellu": 1851,
      "berdan": 1852,
      "rimen": 1853,
      "emmur": 1854,
      "Ġlweqt": 1855,
      "aq": 1856,
      "uÉ£en": 1857,
      "uqilt": 1858,
      "uh": 1859,
      "Ġimu": 1860,
      "ĠLá¸¥": 1861,
      "meÉ£ri": 1862,
      "zÉ£a": 1863,
      "iwelt": 1864,
      "ĠTama": 1865,
      "ĠlliÉ£": 1866,
      "ĠII": 1867,
      "Ġtafat": 1868,
      "asi": 1869,
      "ĠBel": 1870,
      "ĠtebÉ£iá¸į": 1871,
      "met": 1872,
      "ĠTu": 1873,
      "ĠTamaziÉ£t": 1874,
      "ĠtmuÉ£li": 1875,
      "Ġyex": 1876,
      "maten": 1877,
      "áºĵriÉ£": 1878,
      "list": 1879,
      "á¹Ľan": 1880,
      "ekcem": 1881,
      "allen": 1882,
      "ĠbÉ£iÉ£": 1883,
      "Ġcon": 1884,
      "cuha": 1885,
      "kt": 1886,
      "á¸įiq": 1887,
      "Ġaá¸¥ric": 1888,
      "Ġá¹Ľá¹Ľ": 1889,
      "ugen": 1890,
      "iweá¸į": 1891,
      "nteÉ£": 1892,
      "sb": 1893,
      "Ġudlis": 1894,
      "Ġwexxam": 1895,
      "):": 1896,
      "day": 1897,
      "iniÉ£": 1898,
      "ecmen": 1899,
      "Ġtic": 1900,
      "dukk": 1901,
      "Ġussan": 1902,
      "Ġty": 1903,
      "É£art": 1904,
      "rant": 1905,
      "Ġyekka": 1906,
      "Ġtj": 1907,
      "de": 1908,
      "Ġ<": 1909,
      "á¸¥ricen": 1910,
      "Ġumen": 1911,
      "Ġamez": 1912,
      "Â».": 1913,
      "ix": 1914,
      "mat": 1915,
      "ĠAÉĽ": 1916,
      "gin": 1917,
      "ĠUs": 1918,
      "baÉĽt": 1919,
      "Ġyime": 1920,
      "ellal": 1921,
      "say": 1922,
      "seb": 1923,
      "raf": 1924,
      "oo": 1925,
      "ufan": 1926,
      "Ġteáºĵ": 1927,
      "Ġteáºĵri": 1928,
      "ĠTaÉĽ": 1929,
      "ĠAf": 1930,
      "Ġlew": 1931,
      "Ġilelli": 1932,
      "lif": 1933,
      "Ġtlawin": 1934,
      "Ġwassa": 1935,
      "fÉ£en": 1936,
      "rek": 1937,
      "Ġtikwal": 1938,
      "Ġwagi": 1939,
      "essa": 1940,
      "milt": 1941,
      "eá¹Ń": 1942,
      "Ġtewwi": 1943,
      "Ġwur": 1944,
      "arut": 1945,
      "rirt": 1946,
      "garad": 1947,
      "Ġtex": 1948,
      "Ġmgal": 1949,
      "á¸įeÉ£": 1950,
      "Ġums": 1951,
      "Ġtasleá¸įt": 1952,
      "Ġ16": 1953,
      "uj": 1954,
      "ĠnneÉ£": 1955,
      "Ġtesleá¸įt": 1956,
      "tent": 1957,
      "mezwura": 1958,
      "Ġtant": 1959,
      "rt": 1960,
      "hel": 1961,
      "ĠyiÉ£er": 1962,
      "Ġaá¸įris": 1963,
      "ulud": 1964,
      "Ġismawen": 1965,
      "egzawal": 1966,
      "aá¸¥": 1967,
      "Ġá¹ļebbi": 1968,
      "lilit": 1969,
      "Ġtugna": 1970,
      "ĠnniÉ£": 1971,
      "eá¹Ńá¹Ńef": 1972,
      "ĠTar": 1973,
      "Ġadeg": 1974,
      "irin": 1975,
      "zzu": 1976,
      "iwel": 1977,
      "ĠtesÉĽ": 1978,
      "Ġlxir": 1979,
      "Ġberra": 1980,
      "ĠIÉ£il": 1981,
      "satin": 1982,
      "ĠuÉ£alen": 1983,
      "ĠAnamek": 1984,
      "iren": 1985,
      "rez": 1986,
      "Ġlmut": 1987,
      "ĠYewweá¸į": 1988,
      "Ġci": 1989,
      "ertit": 1990,
      "nwen": 1991,
      "Ġtelli": 1992,
      "Ġamedya": 1993,
      "ĠTasleá¸įt": 1994,
      "Ġtigawt": 1995,
      "yeá¸į": 1996,
      "layt": 1997,
      "Ġwadeg": 1998,
      "Ġministre": 1999,
      "ness": 2000,
      "á¹Ńan": 2001,
      "xxamt": 2002,
      "Ġyezmir": 2003,
      "Ġtmura": 2004,
      "ĠáºĵriÉ£": 2005,
      "mid": 2006,
      "Ġnnig": 2007,
      "berkan": 2008,
      "Ġyeá¸įran": 2009,
      "Ġaáºĵar": 2010,
      "anin": 2011,
      "Ġunadi": 2012,
      "mekti": 2013,
      "fali": 2014,
      "Ġwakal": 2015,
      "Ç§u": 2016,
      "ĠtamuÉ£li": 2017,
      "enni": 2018,
      "Ġimdanen": 2019,
      "efren": 2020,
      "ĠMass": 2021,
      "uqel": 2022,
      "meÉĽna": 2023,
      "Ġtergal": 2024,
      "uter": 2025,
      "Ġtagnit": 2026,
      "genni": 2027,
      "Ġweá¸¥d": 2028,
      "ÉĽer": 2029,
      "ĠAá¸¥": 2030,
      "Ġkemm": 2031,
      "Ġssuq": 2032,
      "ÉĽin": 2033,
      "ĠleÉĽmer": 2034,
      "bed": 2035,
      "Ġumaá¸įal": 2036,
      "''": 2037,
      "cum": 2038,
      "qay": 2039,
      "sif": 2040,
      "Ġyufa": 2041,
      "Ġttem": 2042,
      "Ġtib": 2043,
      "hal": 2044,
      "Ç§in": 2045,
      "ĠKra": 2046,
      "Ġlk": 2047
    },
    "merges": [
      [
        "Ġ",
        "t"
      ],
      [
        "Ġ",
        "a"
      ],
      [
        "e",
        "n"
      ],
      [
        "É",
        "£"
      ],
      [
        "Ġ",
        "d"
      ],
      [
        "Ġ",
        "n"
      ],
      [
        "Ġ",
        "y"
      ],
      [
        "Ġ",
        "i"
      ],
      [
        "á",
        "¸"
      ],
      [
        "a",
        "n"
      ],
      [
        "Ġ",
        "u"
      ],
      [
        "e",
        "r"
      ],
      [
        "r",
        "a"
      ],
      [
        "a",
        "l"
      ],
      [
        "Ġy",
        "e"
      ],
      [
        "i",
        "n"
      ],
      [
        "e",
        "g"
      ],
      [
        "á",
        "¹"
      ],
      [
        "m",
        "a"
      ],
      [
        "Ġ",
        "s"
      ],
      [
        "á¸",
        "į"
      ],
      [
        "Ġ",
        "w"
      ],
      [
        "l",
        "a"
      ],
      [
        "e",
        "l"
      ],
      [
        "e",
        "m"
      ],
      [
        "á¸",
        "¥"
      ],
      [
        "m",
        "e"
      ],
      [
        "Ġa",
        "d"
      ],
      [
        "É",
        "Ľ"
      ],
      [
        "Ġt",
        "a"
      ],
      [
        "i",
        "s"
      ],
      [
        "Ġ",
        "A"
      ],
      [
        "k",
        "k"
      ],
      [
        "a",
        "r"
      ],
      [
        "Ġ",
        "É£"
      ],
      [
        "a",
        "s"
      ],
      [
        "Ġ",
        "l"
      ],
      [
        "Ġt",
        "e"
      ],
      [
        "t",
        "t"
      ],
      [
        "á¹",
        "Ń"
      ],
      [
        "e",
        "f"
      ],
      [
        "Ġy",
        "i"
      ],
      [
        "Ġ",
        "T"
      ],
      [
        "l",
        "i"
      ],
      [
        "Ġd",
        "eg"
      ],
      [
        "e",
        "É£"
      ],
      [
        "n",
        "a"
      ],
      [
        "e",
        "s"
      ],
      [
        "e",
        "d"
      ],
      [
        "m",
        "i"
      ],
      [
        "n",
        "i"
      ],
      [
        "a",
        "y"
      ],
      [
        "u",
        "r"
      ],
      [
        "Ġa",
        "ra"
      ],
      [
        "Ġt",
        "i"
      ],
      [
        "r",
        "i"
      ],
      [
        "d",
        "a"
      ],
      [
        "ĠÉ£",
        "er"
      ],
      [
        "Ġa",
        "kk"
      ],
      [
        "i",
        "t"
      ],
      [
        "a",
        "w"
      ],
      [
        "á",
        "º"
      ],
      [
        "e",
        "b"
      ],
      [
        "áº",
        "ĵ"
      ],
      [
        "u",
        "t"
      ],
      [
        "Ġu",
        "r"
      ],
      [
        "e",
        "á¸į"
      ],
      [
        "Ġ",
        "I"
      ],
      [
        "s",
        "s"
      ],
      [
        "Ġ",
        "M"
      ],
      [
        "Ġ",
        "k"
      ],
      [
        "s",
        "en"
      ],
      [
        "i",
        "d"
      ],
      [
        "Ġ",
        "D"
      ],
      [
        "r",
        "u"
      ],
      [
        "a",
        "g"
      ],
      [
        "ĠÉ£",
        "ef"
      ],
      [
        "Ġd",
        "i"
      ],
      [
        "z",
        "i"
      ],
      [
        "u",
        "n"
      ],
      [
        "Ġa",
        "m"
      ],
      [
        "Ç",
        "§"
      ],
      [
        "Ä",
        "į"
      ],
      [
        "Ġt",
        "u"
      ],
      [
        "w",
        "a"
      ],
      [
        "y",
        "en"
      ],
      [
        "Ġ",
        "ma"
      ],
      [
        "Ġw",
        "a"
      ],
      [
        "Ġ",
        "U"
      ],
      [
        "i",
        "w"
      ],
      [
        "e",
        "t"
      ],
      [
        "y",
        "a"
      ],
      [
        "b",
        "a"
      ],
      [
        "e",
        "q"
      ],
      [
        "Ġ",
        "("
      ],
      [
        "u",
        "l"
      ],
      [
        "i",
        "r"
      ],
      [
        "Ġ",
        "-"
      ],
      [
        "Ġ",
        "Y"
      ],
      [
        "Ġt",
        "t"
      ],
      [
        "á¹",
        "Ľ"
      ],
      [
        "á¹",
        "£"
      ],
      [
        "Ġye",
        "tt"
      ],
      [
        "Ġ",
        "S"
      ],
      [
        "m",
        "en"
      ],
      [
        "Ġa",
        "s"
      ],
      [
        "d",
        "d"
      ],
      [
        "ed",
        "d"
      ],
      [
        "Ġye",
        "l"
      ],
      [
        "Ġu",
        "s"
      ],
      [
        "e",
        "tt"
      ],
      [
        "Ġ",
        "L"
      ],
      [
        "m",
        "u"
      ],
      [
        "Ġ",
        ":"
      ],
      [
        "w",
        "en"
      ],
      [
        "á¹Ń",
        "á¹Ń"
      ],
      [
        "i",
        "l"
      ],
      [
        "g",
        "a"
      ],
      [
        "n",
        "ni"
      ],
      [
        "Ġ",
        "Â"
      ],
      [
        "l",
        "an"
      ],
      [
        ".",
        "."
      ],
      [
        "ag",
        "i"
      ],
      [
        "É£",
        "a"
      ],
      [
        "w",
        "al"
      ],
      [
        "Ġakk",
        "en"
      ],
      [
        "e",
        "z"
      ],
      [
        "a",
        "m"
      ],
      [
        "s",
        "a"
      ],
      [
        "Ġ",
        "1"
      ],
      [
        "Ġ",
        "c"
      ],
      [
        "Ġs",
        "eg"
      ],
      [
        "q",
        "q"
      ],
      [
        "a",
        "É£"
      ],
      [
        "r",
        "an"
      ],
      [
        "e",
        "k"
      ],
      [
        "w",
        "i"
      ],
      [
        "Ġ",
        "m"
      ],
      [
        "u",
        "É£"
      ],
      [
        "en",
        "t"
      ],
      [
        "e",
        "kk"
      ],
      [
        "m",
        "an"
      ],
      [
        "eg",
        "g"
      ],
      [
        "Ġi",
        "s"
      ],
      [
        "a",
        "t"
      ],
      [
        "me",
        "k"
      ],
      [
        "Ġa",
        "c"
      ],
      [
        "Ġl",
        "e"
      ],
      [
        "i",
        "m"
      ],
      [
        "Ġ",
        "f"
      ],
      [
        "Ġn",
        "eÉ£"
      ],
      [
        "Ġ",
        "b"
      ],
      [
        "r",
        "en"
      ],
      [
        "u",
        "s"
      ],
      [
        "el",
        "l"
      ],
      [
        "Ġ",
        "B"
      ],
      [
        "Ġy",
        "is"
      ],
      [
        "Ġ",
        "g"
      ],
      [
        "Ġ",
        "la"
      ],
      [
        "m",
        "er"
      ],
      [
        "la",
        "y"
      ],
      [
        "u",
        "f"
      ],
      [
        "ĠÂ",
        "«"
      ],
      [
        "Ġa",
        "n"
      ],
      [
        "Äį",
        "Äį"
      ],
      [
        "ĠU",
        "r"
      ],
      [
        "u",
        "d"
      ],
      [
        "li",
        "t"
      ],
      [
        "e",
        "w"
      ],
      [
        "an",
        "t"
      ],
      [
        "i",
        "É£"
      ],
      [
        "e",
        "c"
      ],
      [
        "el",
        "la"
      ],
      [
        "Ġ",
        "Æ"
      ],
      [
        "Ġye",
        "s"
      ],
      [
        "ĠT",
        "a"
      ],
      [
        "Ġ",
        "N"
      ],
      [
        "Ġa",
        "r"
      ],
      [
        "ÉĽ",
        "a"
      ],
      [
        "Ġt",
        "em"
      ],
      [
        "ur",
        "t"
      ],
      [
        "Ġte",
        "s"
      ],
      [
        "Ġw",
        "ay"
      ],
      [
        "Ġi",
        "d"
      ],
      [
        "e",
        "á¸¥"
      ],
      [
        "Ġ",
        ","
      ],
      [
        "me",
        "z"
      ],
      [
        "Ġk",
        "ra"
      ],
      [
        "c",
        "a"
      ],
      [
        "me",
        "d"
      ],
      [
        "es",
        "s"
      ],
      [
        "Ġyi",
        "wen"
      ],
      [
        "q",
        "b"
      ],
      [
        "me",
        "s"
      ],
      [
        "á¸į",
        "en"
      ],
      [
        "Ġ",
        "2"
      ],
      [
        "d",
        "i"
      ],
      [
        "kk",
        "en"
      ],
      [
        "d",
        "an"
      ],
      [
        "zi",
        "É£"
      ],
      [
        "Ġ",
        "z"
      ],
      [
        "en",
        "na"
      ],
      [
        "y",
        "i"
      ],
      [
        "á¹Ń",
        "as"
      ],
      [
        "Ġte",
        "tt"
      ],
      [
        "al",
        "en"
      ],
      [
        "b",
        "i"
      ],
      [
        "el",
        "li"
      ],
      [
        "Ã",
        "©"
      ],
      [
        "Ġ",
        "r"
      ],
      [
        "Ġyel",
        "la"
      ],
      [
        "t",
        "a"
      ],
      [
        "t",
        "i"
      ],
      [
        "n",
        "eÉ£"
      ],
      [
        "e",
        "ÉĽ"
      ],
      [
        "Ġu",
        "m"
      ],
      [
        "Ġk",
        "an"
      ],
      [
        "Ġa",
        "ma"
      ],
      [
        "as",
        "en"
      ],
      [
        "ĠA",
        "d"
      ],
      [
        "Ġt",
        "al"
      ],
      [
        "Ġ",
        "W"
      ],
      [
        "d",
        "u"
      ],
      [
        "Ġ",
        "mi"
      ],
      [
        "Ġye",
        "m"
      ],
      [
        "Ġye",
        "ss"
      ],
      [
        "Ġ",
        "\""
      ],
      [
        "k",
        "an"
      ],
      [
        "o",
        "n"
      ],
      [
        "n",
        "sen"
      ],
      [
        "Ġi",
        "mi"
      ],
      [
        "Ġa",
        "yen"
      ],
      [
        "Ġy",
        "er"
      ],
      [
        "Ġu",
        "la"
      ],
      [
        "c",
        "i"
      ],
      [
        "x",
        "x"
      ],
      [
        "d",
        "en"
      ],
      [
        "z",
        "al"
      ],
      [
        "ĠM",
        "a"
      ],
      [
        "ma",
        "ziÉ£"
      ],
      [
        "l",
        "en"
      ],
      [
        "Ġn",
        "ett"
      ],
      [
        "Ġ",
        "me"
      ],
      [
        "ĠT",
        "i"
      ],
      [
        "f",
        "a"
      ],
      [
        "w",
        "in"
      ],
      [
        "ar",
        "t"
      ],
      [
        "..",
        "."
      ],
      [
        "Ġw",
        "in"
      ],
      [
        "d",
        "em"
      ],
      [
        "Ġt",
        "s"
      ],
      [
        "s",
        "i"
      ],
      [
        "em",
        "m"
      ],
      [
        "Ġakk",
        "ed"
      ],
      [
        "ar",
        "en"
      ],
      [
        "ut",
        "lay"
      ],
      [
        "k",
        "a"
      ],
      [
        "Ġu",
        "n"
      ],
      [
        "u",
        "ra"
      ],
      [
        "u",
        "á¸¥"
      ],
      [
        "Ġ",
        "R"
      ],
      [
        "Ġs",
        "s"
      ],
      [
        "eq",
        "q"
      ],
      [
        "er",
        "t"
      ],
      [
        "xx",
        "am"
      ],
      [
        "u",
        "m"
      ],
      [
        "Ġu",
        "g"
      ],
      [
        "qb",
        "ay"
      ],
      [
        "Ç§",
        "Ç§"
      ],
      [
        "a",
        "d"
      ],
      [
        "z",
        "en"
      ],
      [
        "maziÉ£",
        "t"
      ],
      [
        "Ġyel",
        "lan"
      ],
      [
        "Ġa",
        "É£"
      ],
      [
        "ĠA",
        "t"
      ],
      [
        "u",
        "g"
      ],
      [
        "a",
        "f"
      ],
      [
        "Ġta",
        "s"
      ],
      [
        "me",
        "É£"
      ],
      [
        "Ġt",
        "utlay"
      ],
      [
        "ĠÆ",
        "Ĳ"
      ],
      [
        "Ġy",
        "al"
      ],
      [
        "y",
        "in"
      ],
      [
        "Â",
        "»"
      ],
      [
        "e",
        "x"
      ],
      [
        "Ġyi",
        "w"
      ],
      [
        "ĠD",
        "eg"
      ],
      [
        "i",
        "á¸į"
      ],
      [
        "is",
        "t"
      ],
      [
        "Ġ",
        "C"
      ],
      [
        "ĠÂ",
        "»"
      ],
      [
        "n",
        "u"
      ],
      [
        "Ġ",
        "x"
      ],
      [
        "ru",
        "á¸¥"
      ],
      [
        "Ġt",
        "en"
      ],
      [
        "Ġa",
        "ss"
      ],
      [
        "Ġte",
        "z"
      ],
      [
        "Ġyi",
        "d"
      ],
      [
        "Ġf",
        "ell"
      ],
      [
        "Ġye",
        "z"
      ],
      [
        "Ġg",
        "ar"
      ],
      [
        "Ġa",
        "g"
      ],
      [
        "Ġu",
        "É£"
      ],
      [
        "w",
        "ar"
      ],
      [
        "Ġn",
        "ni"
      ],
      [
        "m",
        "urt"
      ],
      [
        "t",
        "en"
      ],
      [
        "em",
        "ma"
      ],
      [
        "Ġa",
        "k"
      ],
      [
        "e",
        "h"
      ],
      [
        "Ġs",
        "i"
      ],
      [
        "Ġye",
        "b"
      ],
      [
        "k",
        "u"
      ],
      [
        "ra",
        "w"
      ],
      [
        "Ġ",
        "F"
      ],
      [
        "Ġta",
        "g"
      ],
      [
        "a",
        "k"
      ],
      [
        "ri",
        "d"
      ],
      [
        "Ġs",
        "in"
      ],
      [
        "Ġl",
        "á¸¥"
      ],
      [
        "aw",
        "al"
      ],
      [
        "Ġt",
        "me"
      ],
      [
        "Ġta",
        "ma"
      ],
      [
        "as",
        "s"
      ],
      [
        "Ġu",
        "ma"
      ],
      [
        "ĠA",
        "s"
      ],
      [
        "Ġw",
        "id"
      ],
      [
        "Ġi",
        "l"
      ],
      [
        "Ġa",
        "á¹Ńas"
      ],
      [
        "b",
        "an"
      ],
      [
        "Ġte",
        "f"
      ],
      [
        "b",
        "er"
      ],
      [
        "h",
        "i"
      ],
      [
        "Ġac",
        "u"
      ],
      [
        "c",
        "u"
      ],
      [
        "el",
        "t"
      ],
      [
        "Ġway",
        "en"
      ],
      [
        "Ġ",
        "."
      ],
      [
        "Ġi",
        "m"
      ],
      [
        "Ġa",
        "y"
      ],
      [
        "n",
        "an"
      ],
      [
        "h",
        "a"
      ],
      [
        "Ġd",
        "e"
      ],
      [
        "med",
        "ya"
      ],
      [
        "i",
        "k"
      ],
      [
        "g",
        "al"
      ],
      [
        "f",
        "er"
      ],
      [
        "qbay",
        "lit"
      ],
      [
        "uÉ£",
        "al"
      ],
      [
        "e",
        "á¹Ńá¹Ń"
      ],
      [
        "Ġa",
        "wal"
      ],
      [
        "Ġtutlay",
        "t"
      ],
      [
        "Ġyiw",
        "et"
      ],
      [
        "Ġa",
        "l"
      ],
      [
        "Ġ",
        "K"
      ],
      [
        "Ġi",
        "n"
      ],
      [
        "r",
        "is"
      ],
      [
        "Ġ",
        "ÉĽ"
      ],
      [
        "aÉ£",
        "en"
      ],
      [
        "ez",
        "z"
      ],
      [
        "Ġ",
        "á¸¥"
      ],
      [
        "É£",
        "en"
      ],
      [
        "ef",
        "f"
      ],
      [
        "ÄįÄį",
        "i"
      ],
      [
        "el",
        "ma"
      ],
      [
        "Ġt",
        "in"
      ],
      [
        "ay",
        "en"
      ],
      [
        "Ġ",
        "p"
      ],
      [
        "la",
        "q"
      ],
      [
        "Ġyi",
        "m"
      ],
      [
        "b",
        "u"
      ],
      [
        "Ġye",
        "f"
      ],
      [
        "Ġte",
        "b"
      ],
      [
        "Ġan",
        "da"
      ],
      [
        "Ġa",
        "z"
      ],
      [
        "á¸",
        "¤"
      ],
      [
        "Ġy",
        "in"
      ],
      [
        "t",
        "in"
      ],
      [
        "al",
        "a"
      ],
      [
        "Ġt",
        "er"
      ],
      [
        "Ġtu",
        "ra"
      ],
      [
        "Ġ",
        "?"
      ],
      [
        "ĠÉ£",
        "ur"
      ],
      [
        "e",
        "á¹Ľ"
      ],
      [
        "ĠÆ",
        "Ķ"
      ],
      [
        "n",
        "neÉ£"
      ],
      [
        "dd",
        "art"
      ],
      [
        "b",
        "edd"
      ],
      [
        "e",
        "j"
      ],
      [
        "ga",
        "ra"
      ],
      [
        "Ġt",
        "É£"
      ],
      [
        "Ġt",
        "murt"
      ],
      [
        "Ġw",
        "is"
      ],
      [
        "q",
        "a"
      ],
      [
        "ĠA",
        "m"
      ],
      [
        "i",
        "f"
      ],
      [
        "Ġu",
        "f"
      ],
      [
        "Ġl",
        "lan"
      ],
      [
        "Ġma",
        "ca"
      ],
      [
        "g",
        "en"
      ],
      [
        ")",
        "."
      ],
      [
        "mi",
        "r"
      ],
      [
        "sen",
        "t"
      ],
      [
        "Ġ1",
        "9"
      ],
      [
        "Ġi",
        "É£"
      ],
      [
        "u",
        "q"
      ],
      [
        "Ġta",
        "z"
      ],
      [
        "l",
        "eá¸į"
      ],
      [
        "Ġw",
        "u"
      ],
      [
        "Ġta",
        "É£"
      ],
      [
        "Ġ",
        "Z"
      ],
      [
        "Ġd",
        "aÉ£en"
      ],
      [
        "r",
        "e"
      ],
      [
        "Ġ",
        "3"
      ],
      [
        "in",
        "t"
      ],
      [
        "Ġt",
        "is"
      ],
      [
        "Ġy",
        "enna"
      ],
      [
        "ni",
        "t"
      ],
      [
        "Ġta",
        "ddart"
      ],
      [
        "es",
        "t"
      ],
      [
        "Â»",
        ","
      ],
      [
        "ri",
        "c"
      ],
      [
        "i",
        "yi"
      ],
      [
        "y",
        "ett"
      ],
      [
        "u",
        "b"
      ],
      [
        "iw",
        "in"
      ],
      [
        "b",
        "rid"
      ],
      [
        "Ġw",
        "al"
      ],
      [
        "z",
        "a"
      ],
      [
        "Ġwa",
        "kken"
      ],
      [
        "Ġ2",
        "0"
      ],
      [
        "á¹£",
        "á¹£"
      ],
      [
        "ra",
        "b"
      ],
      [
        "Ġ",
        "á¸¤"
      ],
      [
        "Ġt",
        "an"
      ],
      [
        "Ġa",
        "me"
      ],
      [
        "z",
        "u"
      ],
      [
        "ed",
        "da"
      ],
      [
        "l",
        "is"
      ],
      [
        "Ġa",
        "f"
      ],
      [
        "Ġd",
        "a"
      ],
      [
        "egg",
        "as"
      ],
      [
        "w",
        "an"
      ],
      [
        "É£",
        "i"
      ],
      [
        "Ġ",
        "ba"
      ],
      [
        "Ġt",
        "maziÉ£t"
      ],
      [
        "Ġc",
        "c"
      ],
      [
        "Ġ",
        "!"
      ],
      [
        "á¸į",
        "ris"
      ],
      [
        "Ġd",
        "u"
      ],
      [
        "Ġta",
        "y"
      ],
      [
        "á¹Ńá¹Ń",
        "ut"
      ],
      [
        "w",
        "it"
      ],
      [
        ")",
        ","
      ],
      [
        "Ġa",
        "mek"
      ],
      [
        "g",
        "er"
      ],
      [
        "ra",
        "r"
      ],
      [
        "eb",
        "bi"
      ],
      [
        "Ġn",
        "ekk"
      ],
      [
        "Ġnett",
        "a"
      ],
      [
        "Ġte",
        "w"
      ],
      [
        "Ġte",
        "ss"
      ],
      [
        "in",
        "es"
      ],
      [
        "mez",
        "war"
      ],
      [
        "Ġta",
        "f"
      ],
      [
        "c",
        "t"
      ],
      [
        "Ġta",
        "m"
      ],
      [
        "Ġd",
        "d"
      ],
      [
        "Ġti",
        "d"
      ],
      [
        "Ġta",
        "me"
      ],
      [
        "Ġl",
        "eq"
      ],
      [
        "em",
        "t"
      ],
      [
        "Ġac",
        "ku"
      ],
      [
        "Ġti",
        "k"
      ],
      [
        "ma",
        "wen"
      ],
      [
        "i",
        "li"
      ],
      [
        "al",
        "i"
      ],
      [
        "Ġakk",
        "a"
      ],
      [
        "á¸¥",
        "a"
      ],
      [
        "Ġi",
        "laq"
      ],
      [
        "Ġtu",
        "d"
      ],
      [
        "á¸¥",
        "ric"
      ],
      [
        "f",
        "u"
      ],
      [
        "er",
        "ra"
      ],
      [
        "r",
        "eá¸į"
      ],
      [
        "ga",
        "z"
      ],
      [
        "ĠT",
        "as"
      ],
      [
        "Ġ",
        "qq"
      ],
      [
        "ÉĽ",
        "an"
      ],
      [
        "Ġis",
        "em"
      ],
      [
        "Ġula",
        "c"
      ],
      [
        "Ġa",
        "la"
      ],
      [
        "áºĵ",
        "áºĵ"
      ],
      [
        "mes",
        "lay"
      ],
      [
        "Ġa",
        "zal"
      ],
      [
        "n",
        "en"
      ],
      [
        "o",
        "m"
      ],
      [
        "á¸¥",
        "al"
      ],
      [
        "Ġ",
        "á¹"
      ],
      [
        "Ġu",
        "d"
      ],
      [
        "Ġte",
        "É£"
      ],
      [
        "zi",
        "k"
      ],
      [
        "na",
        "mek"
      ],
      [
        "Ġi",
        "ÉĽ"
      ],
      [
        "Ġt",
        "eg"
      ],
      [
        "ay",
        "t"
      ],
      [
        "na",
        "t"
      ],
      [
        "Ġma",
        "ÄįÄįi"
      ],
      [
        "Ġa",
        "t"
      ],
      [
        "Ġta",
        "r"
      ],
      [
        "Ġye",
        "w"
      ],
      [
        "g",
        "i"
      ],
      [
        "Ġa",
        "ya"
      ],
      [
        "er",
        "ru"
      ],
      [
        "f",
        "en"
      ],
      [
        "a",
        "b"
      ],
      [
        "a",
        "ÉĽ"
      ],
      [
        "Ġu",
        "z"
      ],
      [
        "Ġnni",
        "á¸įen"
      ],
      [
        "ĠM",
        "i"
      ],
      [
        "Ġ",
        "4"
      ],
      [
        "dd",
        "en"
      ],
      [
        "Ġd",
        "É£a"
      ],
      [
        "Ġi",
        "x"
      ],
      [
        "Ġi",
        "z"
      ],
      [
        "ĠI",
        "s"
      ],
      [
        "Ġi",
        "man"
      ],
      [
        "É£",
        "al"
      ],
      [
        "c",
        "en"
      ],
      [
        "l",
        "es"
      ],
      [
        "da",
        "m"
      ],
      [
        "en",
        "d"
      ],
      [
        "ef",
        "k"
      ],
      [
        "Ġi",
        "w"
      ],
      [
        "Ġ",
        "á¹Ńá¹Ń"
      ],
      [
        "y",
        "u"
      ],
      [
        "ew",
        "w"
      ],
      [
        "ur",
        "en"
      ],
      [
        "z",
        "an"
      ],
      [
        "ul",
        "t"
      ],
      [
        "Ġt",
        "ella"
      ],
      [
        "Ġw",
        "awal"
      ],
      [
        "aw",
        "i"
      ],
      [
        "ekk",
        "a"
      ],
      [
        "Ġi",
        "á¸¥"
      ],
      [
        "aw",
        "alen"
      ],
      [
        "Ġ",
        "G"
      ],
      [
        "Ġ",
        "/"
      ],
      [
        "Ġ",
        "ï"
      ],
      [
        "Ġ",
        "zik"
      ],
      [
        "er",
        "r"
      ],
      [
        "f",
        "an"
      ],
      [
        "l",
        "al"
      ],
      [
        "Ġb",
        "elli"
      ],
      [
        "iw",
        "en"
      ],
      [
        "Ġle",
        "á¸¥"
      ],
      [
        "Ġw",
        "ass"
      ],
      [
        "Ġ",
        "H"
      ],
      [
        "Ġti",
        "m"
      ],
      [
        "e",
        "ÄįÄį"
      ],
      [
        "o",
        "u"
      ],
      [
        "Ġt",
        "mu"
      ],
      [
        "É£",
        "er"
      ],
      [
        "in",
        "i"
      ],
      [
        "Ġa",
        "q"
      ],
      [
        "Ġle",
        "ÉĽ"
      ],
      [
        "á¸į",
        "t"
      ],
      [
        "Ġ",
        ";"
      ],
      [
        "Ġtu",
        "g"
      ],
      [
        "q",
        "u"
      ],
      [
        "Ġy",
        "a"
      ],
      [
        "uf",
        "a"
      ],
      [
        "medya",
        "z"
      ],
      [
        "Ġye",
        "qq"
      ],
      [
        "y",
        "an"
      ],
      [
        "áºĵ",
        "ri"
      ],
      [
        "u",
        "k"
      ],
      [
        "i",
        "b"
      ],
      [
        "É£",
        "an"
      ],
      [
        "r",
        "eÉ£"
      ],
      [
        "dan",
        "en"
      ],
      [
        "Ġi",
        "wa"
      ],
      [
        "l",
        "eÉ£"
      ],
      [
        "g",
        "an"
      ],
      [
        "á¸į",
        "a"
      ],
      [
        "un",
        "t"
      ],
      [
        "aw",
        "en"
      ],
      [
        "f",
        "eÉ£"
      ],
      [
        "egg",
        "asen"
      ],
      [
        "ĠA",
        "n"
      ],
      [
        "Ġtud",
        "ert"
      ],
      [
        "Ġus",
        "eggas"
      ],
      [
        "ir",
        "t"
      ],
      [
        "Ġw",
        "ar"
      ],
      [
        "ri",
        "t"
      ],
      [
        "Ġs",
        "nat"
      ],
      [
        "Ġyem",
        "ma"
      ],
      [
        "ur",
        "i"
      ],
      [
        "Ġw",
        "as"
      ],
      [
        "ra",
        "y"
      ],
      [
        "Ġ",
        "â"
      ],
      [
        "tt",
        "i"
      ],
      [
        "w",
        "t"
      ],
      [
        "mu",
        "d"
      ],
      [
        "Ġw",
        "i"
      ],
      [
        "ec",
        "t"
      ],
      [
        "Ġt",
        "f"
      ],
      [
        "qq",
        "ran"
      ],
      [
        "Ġd",
        "in"
      ],
      [
        "Ġ",
        "5"
      ],
      [
        "ar",
        "u"
      ],
      [
        "Ġ",
        "P"
      ],
      [
        "ek",
        "la"
      ],
      [
        "Ġti",
        "ra"
      ],
      [
        "l",
        "u"
      ],
      [
        "s",
        "it"
      ],
      [
        "y",
        "ag"
      ],
      [
        "w",
        "as"
      ],
      [
        "c",
        "em"
      ],
      [
        "Ġ",
        "["
      ],
      [
        "ĠD",
        "i"
      ],
      [
        "Ġw",
        "an"
      ],
      [
        "b",
        "en"
      ],
      [
        "Ġta",
        "qbaylit"
      ],
      [
        "i",
        "tt"
      ],
      [
        "ĠA",
        "mek"
      ],
      [
        "Ġyer",
        "na"
      ],
      [
        "e",
        "y"
      ],
      [
        "e",
        "Ç§Ç§"
      ],
      [
        "r",
        "in"
      ],
      [
        "al",
        "t"
      ],
      [
        "ss",
        "an"
      ],
      [
        "Ġn",
        "es"
      ],
      [
        "n",
        "es"
      ],
      [
        "eb",
        "b"
      ],
      [
        "ĠM",
        "uá¸¥"
      ],
      [
        "Ġ",
        "j"
      ],
      [
        "s",
        "t"
      ],
      [
        "u",
        "dd"
      ],
      [
        "Ġl",
        "eb"
      ],
      [
        "r",
        "es"
      ],
      [
        "Ġl",
        "x"
      ],
      [
        "ĠTi",
        "zi"
      ],
      [
        "x",
        "ef"
      ],
      [
        "Ġyes",
        "ÉĽa"
      ],
      [
        "Ġta",
        "ÉĽ"
      ],
      [
        "Ġi",
        "g"
      ],
      [
        "elma",
        "den"
      ],
      [
        "0",
        "0"
      ],
      [
        "ay",
        "er"
      ],
      [
        "ma",
        "r"
      ],
      [
        "Ġwa",
        "á¹Ńas"
      ],
      [
        "Ġy",
        "en"
      ],
      [
        "á¸į",
        "an"
      ],
      [
        "Ġye",
        "kk"
      ],
      [
        "Ġu",
        "l"
      ],
      [
        "m",
        "ut"
      ],
      [
        "Ġy",
        "uÉ£al"
      ],
      [
        "Ġl",
        "q"
      ],
      [
        "Ġi",
        "r"
      ],
      [
        "leá¸į",
        "t"
      ],
      [
        "Ġu",
        "xxam"
      ],
      [
        "Ġi",
        "f"
      ],
      [
        "mezwar",
        "u"
      ],
      [
        "da",
        "t"
      ],
      [
        "Ġ",
        "q"
      ],
      [
        "Ġi",
        "me"
      ],
      [
        "i",
        "q"
      ],
      [
        "o",
        "r"
      ],
      [
        "Ġz",
        "z"
      ],
      [
        "Ġi",
        "t"
      ],
      [
        "Ġ",
        "á¹£á¹£"
      ],
      [
        "wa",
        "c"
      ],
      [
        "Ġta",
        "w"
      ],
      [
        "y",
        "as"
      ],
      [
        "n",
        "ut"
      ],
      [
        "Ġyi",
        "li"
      ],
      [
        "Ġl",
        "em"
      ],
      [
        "Ġl",
        "ÉĽ"
      ],
      [
        "Ġti",
        "g"
      ],
      [
        "Ġ",
        "X"
      ],
      [
        "b",
        "ay"
      ],
      [
        "l",
        "em"
      ],
      [
        "d",
        "er"
      ],
      [
        "ex",
        "dem"
      ],
      [
        "Ġy",
        "u"
      ],
      [
        "aw",
        "in"
      ],
      [
        "rab",
        "t"
      ],
      [
        "Ġi",
        "hi"
      ],
      [
        "Ġba",
        "ba"
      ],
      [
        "Ġle",
        "x"
      ],
      [
        "Ġte",
        "qbaylit"
      ],
      [
        "á¹Ń",
        "a"
      ],
      [
        "i",
        "g"
      ],
      [
        "m",
        "al"
      ],
      [
        "áºĵ",
        "ar"
      ],
      [
        "Ġ",
        "J"
      ],
      [
        "É£",
        "li"
      ],
      [
        "Ġt",
        "ma"
      ],
      [
        "il",
        "t"
      ],
      [
        "iw",
        "ant"
      ],
      [
        "Ġtal",
        "É£a"
      ],
      [
        "ay",
        "a"
      ],
      [
        "Ġn",
        "ess"
      ],
      [
        "Ġac",
        "á¸¥al"
      ],
      [
        "d",
        "in"
      ],
      [
        "Ġi",
        "yi"
      ],
      [
        "Ġyis",
        "em"
      ],
      [
        "Ġ",
        "6"
      ],
      [
        "Ġa",
        "brid"
      ],
      [
        "k",
        "er"
      ],
      [
        "Ġw",
        "awalen"
      ],
      [
        "Ġwa",
        "k"
      ],
      [
        "y",
        "es"
      ],
      [
        "t",
        "er"
      ],
      [
        "h",
        "an"
      ],
      [
        "Ġu",
        "q"
      ],
      [
        "Ġm",
        "mi"
      ],
      [
        "ÉĽ",
        "na"
      ],
      [
        "Ġa",
        "mezwaru"
      ],
      [
        "Ġi",
        "á¸į"
      ],
      [
        "Ġi",
        "ma"
      ],
      [
        "y",
        "ess"
      ],
      [
        "aw",
        "eá¸į"
      ],
      [
        "ew",
        "wi"
      ],
      [
        "l",
        "in"
      ],
      [
        "x",
        "edd"
      ],
      [
        "Ġ",
        "E"
      ],
      [
        "w",
        "ay"
      ],
      [
        "Ġ",
        "Q"
      ],
      [
        "ÉĽ",
        "i"
      ],
      [
        "Ġyett",
        "wa"
      ],
      [
        "z",
        "z"
      ],
      [
        "emm",
        "el"
      ],
      [
        "Ġyel",
        "li"
      ],
      [
        "Ġw",
        "ul"
      ],
      [
        "á¸¥",
        "en"
      ],
      [
        "y",
        "er"
      ],
      [
        "Ġyes",
        "ÉĽan"
      ],
      [
        "a",
        "á¸į"
      ],
      [
        "me",
        "á¸į"
      ],
      [
        "da",
        "d"
      ],
      [
        "em",
        "mi"
      ],
      [
        "id",
        "ir"
      ],
      [
        "li",
        "É£"
      ],
      [
        "ed",
        "men"
      ],
      [
        "Ġd",
        "du"
      ],
      [
        "na",
        "f"
      ],
      [
        "u",
        "mi"
      ],
      [
        "Ġye",
        "á¹Ńá¹Ń"
      ],
      [
        "y",
        "nut"
      ],
      [
        "Ġtem",
        "na"
      ],
      [
        "er",
        "s"
      ],
      [
        "Ġt",
        "la"
      ],
      [
        "ba",
        "ÉĽ"
      ],
      [
        "Ġiwa",
        "kken"
      ],
      [
        "Ġw",
        "ud"
      ],
      [
        "Ġ",
        "h"
      ],
      [
        "Ġway",
        "a"
      ],
      [
        "z",
        "em"
      ],
      [
        "Ġtag",
        "gara"
      ],
      [
        "ĠT",
        "om"
      ],
      [
        "x",
        "el"
      ],
      [
        "i",
        "yen"
      ],
      [
        "la",
        "yen"
      ],
      [
        "Ġti",
        "kk"
      ],
      [
        "Ġtem",
        "s"
      ],
      [
        "a",
        "c"
      ],
      [
        "e",
        "áºĵ"
      ],
      [
        "ĠU",
        "la"
      ],
      [
        "s",
        "ist"
      ],
      [
        "ri",
        "r"
      ],
      [
        "r",
        "o"
      ],
      [
        "ĠA",
        "kken"
      ],
      [
        "a",
        "ra"
      ],
      [
        "na",
        "di"
      ],
      [
        "ĠA",
        "r"
      ],
      [
        "Ġtu",
        "É£al"
      ],
      [
        "Ġti",
        "li"
      ],
      [
        "is",
        "en"
      ],
      [
        "Ġyi",
        "r"
      ],
      [
        "Ġtme",
        "á¹Ńá¹Ńut"
      ],
      [
        "da",
        "É£"
      ],
      [
        "ĠR",
        "ebbi"
      ],
      [
        "Ġyis",
        "eggasen"
      ],
      [
        "Ġi",
        "c"
      ],
      [
        "ĠB",
        "u"
      ],
      [
        "Ġn",
        "ez"
      ],
      [
        "elma",
        "d"
      ],
      [
        "m",
        "ma"
      ],
      [
        "medyaz",
        "t"
      ],
      [
        "l",
        "e"
      ],
      [
        "q",
        "en"
      ],
      [
        "Ã",
        "¨"
      ],
      [
        "ef",
        "ra"
      ],
      [
        "x",
        "dem"
      ],
      [
        "wa",
        "ra"
      ],
      [
        "Ġtme",
        "tti"
      ],
      [
        "Ġa",
        "w"
      ],
      [
        "id",
        "i"
      ],
      [
        "d",
        "eg"
      ],
      [
        "bay",
        "el"
      ],
      [
        "bedd",
        "el"
      ],
      [
        "Ġa",
        "xxam"
      ],
      [
        "k",
        "en"
      ],
      [
        "h",
        "at"
      ],
      [
        "Ġnett",
        "at"
      ],
      [
        "n",
        "ul"
      ],
      [
        "edd",
        "i"
      ],
      [
        "Ġ",
        "7"
      ],
      [
        "ti",
        "on"
      ],
      [
        "Ġye",
        "g"
      ],
      [
        "Ġar",
        "mi"
      ],
      [
        "ezz",
        "ayer"
      ],
      [
        "nni",
        "á¸įen"
      ],
      [
        "Ġt",
        "n"
      ],
      [
        "men",
        "d"
      ],
      [
        "Ġw",
        "un"
      ],
      [
        "á¹Ľ",
        "a"
      ],
      [
        "wal",
        "i"
      ],
      [
        "sent",
        "el"
      ],
      [
        "Ġqq",
        "aren"
      ],
      [
        "m",
        "t"
      ],
      [
        "Ġt",
        "k"
      ],
      [
        "Ġti",
        "É£"
      ],
      [
        "Ġ",
        "0"
      ],
      [
        "Ġyi",
        "á¸į"
      ],
      [
        "i",
        "on"
      ],
      [
        "g",
        "u"
      ],
      [
        "ci",
        "c"
      ],
      [
        "Ġtal",
        "lit"
      ],
      [
        "d",
        "É£a"
      ],
      [
        "Ġg",
        "er"
      ],
      [
        "qb",
        "el"
      ],
      [
        "h",
        "il"
      ],
      [
        "Ġi",
        "tt"
      ],
      [
        "eg",
        "z"
      ],
      [
        "w",
        "el"
      ],
      [
        "Ġug",
        "ar"
      ],
      [
        "ra",
        "t"
      ],
      [
        "Ġtid",
        "et"
      ],
      [
        "ĠS",
        "i"
      ],
      [
        "Ġme",
        "dden"
      ],
      [
        "É£",
        "eÉ£"
      ],
      [
        "i",
        "á¸¥"
      ],
      [
        "ba",
        "z"
      ],
      [
        "Ġtu",
        "l"
      ],
      [
        "Ġt",
        "el"
      ],
      [
        "Ġt",
        "á¸¥"
      ],
      [
        "Ġte",
        "á¸¥"
      ],
      [
        "Ġid",
        "eg"
      ],
      [
        "Ġyez",
        "mer"
      ],
      [
        "n",
        "ar"
      ],
      [
        "Ġma",
        "zal"
      ],
      [
        "Ġa",
        "ÉĽ"
      ],
      [
        "s",
        "an"
      ],
      [
        "â",
        "µ"
      ],
      [
        "la",
        "m"
      ],
      [
        "Ġyi",
        "man"
      ],
      [
        "Ġte",
        "qq"
      ],
      [
        "Ġtes",
        "ÉĽa"
      ],
      [
        "\"",
        "."
      ],
      [
        "Ġkra",
        "á¸į"
      ],
      [
        "Ġye",
        "á¸¥"
      ],
      [
        "Ġwa",
        "man"
      ],
      [
        "Ġye",
        "ÉĽ"
      ],
      [
        "Ġi",
        "b"
      ],
      [
        "c",
        "c"
      ],
      [
        "É£",
        "ar"
      ],
      [
        "Ġt",
        "ÉĽ"
      ],
      [
        "ma",
        "ÉĽ"
      ],
      [
        "ĠÉ£",
        "as"
      ],
      [
        "Ġu",
        "á¸įris"
      ],
      [
        "raw",
        "t"
      ],
      [
        "Ġtaz",
        "wara"
      ],
      [
        "Ġi",
        "k"
      ],
      [
        "eff",
        "ir"
      ],
      [
        "Ġts",
        "ekla"
      ],
      [
        "Ġt",
        "l"
      ],
      [
        "É£",
        "ur"
      ],
      [
        "Ġa",
        "sen"
      ],
      [
        "Ġum",
        "dan"
      ],
      [
        "Ġye",
        "á¸į"
      ],
      [
        "ef",
        "ru"
      ],
      [
        "Ġu",
        "k"
      ],
      [
        "ĠT",
        "am"
      ],
      [
        "s",
        "u"
      ],
      [
        "ĠI",
        "xef"
      ],
      [
        "Ç§",
        "a"
      ],
      [
        "ĠÂ»",
        "."
      ],
      [
        "Ġ",
        "8"
      ],
      [
        "w",
        "ir"
      ],
      [
        "eb",
        "á¸¥"
      ],
      [
        "Ġ20",
        "1"
      ],
      [
        "mu",
        "s"
      ],
      [
        "il",
        "in"
      ],
      [
        "t",
        "ar"
      ],
      [
        "Ġye",
        "k"
      ],
      [
        "ĠA",
        "y"
      ],
      [
        "Ġte",
        "k"
      ],
      [
        "ĠL",
        "ezzayer"
      ],
      [
        "É£",
        "u"
      ],
      [
        "ru",
        "y"
      ],
      [
        "i",
        "men"
      ],
      [
        "il",
        "en"
      ],
      [
        "eb",
        "ba"
      ],
      [
        "h",
        "em"
      ],
      [
        "Ġd",
        "es"
      ],
      [
        "aw",
        "t"
      ],
      [
        "á¸į",
        "in"
      ],
      [
        "la",
        "f"
      ],
      [
        "á¹Ń",
        "i"
      ],
      [
        "Ġti",
        "ma"
      ],
      [
        "u",
        "ma"
      ],
      [
        "wac",
        "ult"
      ],
      [
        "Ġte",
        "dd"
      ],
      [
        "ĠS",
        "eg"
      ],
      [
        "ra",
        "d"
      ],
      [
        "Ġl",
        "es"
      ],
      [
        "Ġa",
        "á¸¥"
      ],
      [
        "edd",
        "an"
      ],
      [
        "Ġn",
        "n"
      ],
      [
        "Ġi",
        "q"
      ],
      [
        "Ġu",
        "mez"
      ],
      [
        "Ġwud",
        "em"
      ],
      [
        "Ġte",
        "d"
      ],
      [
        "Ġway",
        "eá¸į"
      ],
      [
        "m",
        "el"
      ],
      [
        "Ġyis",
        "mawen"
      ],
      [
        "Ġam",
        "en"
      ],
      [
        "ef",
        "ka"
      ],
      [
        "yen",
        "na"
      ],
      [
        "ĠA",
        "l"
      ],
      [
        "it",
        "en"
      ],
      [
        "t",
        "e"
      ],
      [
        "Ġye",
        "dd"
      ],
      [
        "da",
        "w"
      ],
      [
        "qu",
        "e"
      ],
      [
        "Ġ",
        "ruá¸¥"
      ],
      [
        "Ġu",
        "ÉĽ"
      ],
      [
        "Ġd",
        "effir"
      ],
      [
        "wal",
        "a"
      ],
      [
        "Ġame",
        "qqran"
      ],
      [
        "Ġme",
        "qq"
      ],
      [
        "ĠY",
        "ella"
      ],
      [
        "f",
        "i"
      ],
      [
        "ĠtaÉĽ",
        "rabt"
      ],
      [
        "s",
        "el"
      ],
      [
        "b",
        "la"
      ],
      [
        "r",
        "ef"
      ],
      [
        "k",
        "i"
      ],
      [
        "z",
        "un"
      ],
      [
        "ĠI",
        "É£"
      ],
      [
        "Ġï",
        "Ĥ"
      ],
      [
        "d",
        "eÉ£"
      ],
      [
        "ur",
        "an"
      ],
      [
        "j",
        "a"
      ],
      [
        "d",
        "int"
      ],
      [
        "Ġu",
        "brid"
      ],
      [
        "ĠA",
        "ss"
      ],
      [
        "q",
        "el"
      ],
      [
        "f",
        "el"
      ],
      [
        "ca",
        "h"
      ],
      [
        "ar",
        "i"
      ],
      [
        "b",
        "eá¸¥"
      ],
      [
        "Ġwu",
        "ssan"
      ],
      [
        "ÉĽ",
        "en"
      ],
      [
        "Ġa",
        "x"
      ],
      [
        "ri",
        "f"
      ],
      [
        "n",
        "er"
      ],
      [
        "g",
        "ar"
      ],
      [
        "ya",
        "á¸į"
      ],
      [
        "Ġyi",
        "l"
      ],
      [
        "ĠT",
        "t"
      ],
      [
        "Ġtikk",
        "elt"
      ],
      [
        "c",
        "h"
      ],
      [
        "Ġye",
        "ÄįÄį"
      ],
      [
        "Ġs",
        "ÉĽ"
      ],
      [
        "in",
        "ist"
      ],
      [
        "b",
        "ar"
      ],
      [
        "Ġta",
        "q"
      ],
      [
        "Ġi",
        "ruá¸¥"
      ],
      [
        "ĠA",
        "g"
      ],
      [
        "ran",
        "sist"
      ],
      [
        "d",
        "ud"
      ],
      [
        "Ġ",
        "á¹Ľ"
      ],
      [
        "ĠT",
        "an"
      ],
      [
        "Ġ",
        "'"
      ],
      [
        "Æ",
        "Ĳ"
      ],
      [
        "edd",
        "u"
      ],
      [
        "Ġt",
        "enna"
      ],
      [
        "w",
        "eá¸į"
      ],
      [
        "mez",
        "daÉ£"
      ],
      [
        "n",
        "t"
      ],
      [
        "ĠA",
        "á¹Ńas"
      ],
      [
        "er",
        "baz"
      ],
      [
        "Ġye",
        "c"
      ],
      [
        "Ġtame",
        "á¹Ńá¹Ńut"
      ],
      [
        "mezwar",
        "ut"
      ],
      [
        "Ġ",
        "*"
      ],
      [
        "g",
        "un"
      ],
      [
        "t",
        "eq"
      ],
      [
        "Ġda",
        "xel"
      ],
      [
        "Ġun",
        "gal"
      ],
      [
        "mes",
        "layen"
      ],
      [
        "Ġ",
        "9"
      ],
      [
        "Ġ",
        "á¹Ń"
      ],
      [
        "Ġwa",
        "mek"
      ],
      [
        "Ġddu",
        "nit"
      ],
      [
        "as",
        "t"
      ],
      [
        "b",
        "el"
      ],
      [
        "Ġ",
        "kk"
      ],
      [
        "Ġti",
        "r"
      ],
      [
        "m",
        "is"
      ],
      [
        "n",
        "in"
      ],
      [
        "Ġm",
        "li"
      ],
      [
        "Ġla",
        "dÉ£a"
      ],
      [
        "Ġta",
        "maziÉ£t"
      ],
      [
        "kk",
        "a"
      ],
      [
        "ur",
        "e"
      ],
      [
        "fer",
        "d"
      ],
      [
        "Ġti",
        "f"
      ],
      [
        "ri",
        "É£"
      ],
      [
        "ĠA",
        "z"
      ],
      [
        "di",
        "c"
      ],
      [
        "Ġtay",
        "ri"
      ],
      [
        "men",
        "t"
      ],
      [
        "g",
        "et"
      ],
      [
        "ĠÆĶ",
        "ef"
      ],
      [
        "Ġá¹",
        "¬"
      ],
      [
        "Ġyett",
        "ili"
      ],
      [
        "Ġus",
        "el"
      ],
      [
        "n",
        "uÉ£"
      ],
      [
        "áºĵ",
        "i"
      ],
      [
        "ray",
        "t"
      ],
      [
        "c",
        "e"
      ],
      [
        "Ġye",
        "Ç§Ç§"
      ],
      [
        "g",
        "it"
      ],
      [
        "g",
        "ay"
      ],
      [
        "Ġk",
        "eÄįÄį"
      ],
      [
        "ĠY",
        "ett"
      ],
      [
        "ni",
        "É£"
      ],
      [
        "Ġas",
        "mi"
      ],
      [
        "Ġl",
        "Ç§"
      ],
      [
        "Ġyew",
        "wi"
      ],
      [
        "Ġwun",
        "gal"
      ],
      [
        "É£",
        "iÉ£"
      ],
      [
        "ru",
        "m"
      ],
      [
        "r",
        "em"
      ],
      [
        "eg",
        "ga"
      ],
      [
        "áºĵ",
        "er"
      ],
      [
        "Ġ1",
        "0"
      ],
      [
        "Ġd",
        "ayen"
      ],
      [
        "Ġn",
        "eb"
      ],
      [
        "Ġc",
        "wi"
      ],
      [
        "y",
        "ez"
      ],
      [
        "Ġte",
        "q"
      ],
      [
        "ĠI",
        "hi"
      ],
      [
        "Ġt",
        "z"
      ],
      [
        "ĠA",
        "ma"
      ],
      [
        "ed",
        "É£eÉ£"
      ],
      [
        "ĠA",
        "c"
      ],
      [
        "ĠI",
        "l"
      ],
      [
        "qbay",
        "li"
      ],
      [
        "ĠT",
        "im"
      ],
      [
        "w",
        "lan"
      ],
      [
        "u",
        "c"
      ],
      [
        "Ġta",
        "b"
      ],
      [
        "Ġye",
        "É£"
      ],
      [
        "Ġ20",
        "0"
      ],
      [
        "Ġyi",
        "f"
      ],
      [
        "g",
        "t"
      ],
      [
        "n",
        "nes"
      ],
      [
        "na",
        "w"
      ],
      [
        "á¹Ń",
        "uá¸¥"
      ],
      [
        "Ġá¹",
        "ļ"
      ],
      [
        "Ġn",
        "af"
      ],
      [
        "ĠY",
        "enna"
      ],
      [
        "u",
        "á¸į"
      ],
      [
        "ĠA",
        "k"
      ],
      [
        "y",
        "el"
      ],
      [
        "ĠL",
        "a"
      ],
      [
        "cah",
        "ut"
      ],
      [
        "Ġta",
        "d"
      ],
      [
        "ĠMa",
        "ca"
      ],
      [
        "Ġye",
        "d"
      ],
      [
        "Ġta",
        "mezwarut"
      ],
      [
        "b",
        "eÉĽ"
      ],
      [
        "Ġme",
        "bla"
      ],
      [
        "Ġu",
        "namek"
      ],
      [
        "mer",
        "t"
      ],
      [
        "Ġa",
        "namek"
      ],
      [
        "o",
        "ur"
      ],
      [
        "Ġyeb",
        "É£a"
      ],
      [
        "ra",
        "c"
      ],
      [
        "Ġti",
        "l"
      ],
      [
        "ci",
        "ct"
      ],
      [
        "an",
        "en"
      ],
      [
        "Ġmli",
        "á¸¥"
      ],
      [
        "Ġwas",
        "mi"
      ],
      [
        "h",
        "u"
      ],
      [
        "Ġm",
        "inist"
      ],
      [
        "f",
        "ir"
      ],
      [
        "Ġyi",
        "É£"
      ],
      [
        "Ġti",
        "z"
      ],
      [
        "me",
        "ÉĽ"
      ],
      [
        "mi",
        "l"
      ],
      [
        "n",
        "al"
      ],
      [
        "q",
        "i"
      ],
      [
        "t",
        "u"
      ],
      [
        "Ġlá¸¥",
        "al"
      ],
      [
        "Ġu",
        "c"
      ],
      [
        "Ġam",
        "kan"
      ],
      [
        "eqq",
        "ar"
      ],
      [
        "ura",
        "r"
      ],
      [
        "la",
        "É£"
      ],
      [
        "i",
        "c"
      ],
      [
        "ĠL",
        "eq"
      ],
      [
        "ĠMuá¸¥",
        "end"
      ],
      [
        "ĠA",
        "yen"
      ],
      [
        "Ġyi",
        "ma"
      ],
      [
        "Ġar",
        "gaz"
      ],
      [
        "Ġtay",
        "eá¸į"
      ],
      [
        "Ġtutlay",
        "in"
      ],
      [
        "mi",
        "t"
      ],
      [
        "u",
        "dam"
      ],
      [
        "Ġg",
        "ma"
      ],
      [
        "ĠT",
        "ag"
      ],
      [
        "ĠT",
        "aw"
      ],
      [
        "Ġti",
        "la"
      ],
      [
        "f",
        "ar"
      ],
      [
        "Ġta",
        "á¸¥"
      ],
      [
        "Ġuma",
        "ta"
      ],
      [
        "É£",
        "iá¸į"
      ],
      [
        "Ġu",
        "sen"
      ],
      [
        "y",
        "ar"
      ],
      [
        "an",
        "i"
      ],
      [
        "ĠF",
        "ran"
      ],
      [
        "ba",
        "d"
      ],
      [
        "Ġ",
        "Ç"
      ],
      [
        "al",
        "ay"
      ],
      [
        "er",
        "d"
      ],
      [
        "sa",
        "b"
      ],
      [
        "Ġl",
        "qa"
      ],
      [
        "Ġal",
        "mi"
      ],
      [
        "á¸į",
        "i"
      ],
      [
        "Ġl",
        "w"
      ],
      [
        "k",
        "el"
      ],
      [
        "Ġt",
        "g"
      ],
      [
        "na",
        "m"
      ],
      [
        "Ġa",
        "ni"
      ],
      [
        "eb",
        "d"
      ],
      [
        "ĠS",
        "idi"
      ],
      [
        "en",
        "f"
      ],
      [
        "Ġta",
        "k"
      ],
      [
        "ru",
        "s"
      ],
      [
        "Ġle",
        "h"
      ],
      [
        "Ġb",
        "u"
      ],
      [
        "u",
        "kk"
      ],
      [
        "ĠN",
        "ekk"
      ],
      [
        "Ġyer",
        "zan"
      ],
      [
        "eqq",
        "a"
      ],
      [
        "q",
        "t"
      ],
      [
        "Ġw",
        "em"
      ],
      [
        "Ġta",
        "murt"
      ],
      [
        "z",
        "er"
      ],
      [
        "ĠA",
        "wal"
      ],
      [
        "Ġt",
        "ent"
      ],
      [
        "eww",
        "eá¸į"
      ],
      [
        "aw",
        "sa"
      ],
      [
        "ebá¸¥",
        "it"
      ],
      [
        "wa",
        "É£"
      ],
      [
        "ĠTa",
        "z"
      ],
      [
        "w",
        "urt"
      ],
      [
        "Ġye",
        "xdem"
      ],
      [
        "É£",
        "el"
      ],
      [
        "Ġu",
        "dem"
      ],
      [
        "b",
        "ir"
      ],
      [
        "Ġt",
        "wacult"
      ],
      [
        "nsen",
        "t"
      ],
      [
        "ci",
        "x"
      ],
      [
        "Ġa",
        "hat"
      ],
      [
        "xedd",
        "im"
      ],
      [
        "i",
        "á¸įen"
      ],
      [
        "Ġcwi",
        "á¹Ń"
      ],
      [
        "É",
        "Ļ"
      ],
      [
        "á¸¥",
        "t"
      ],
      [
        "á¹£",
        "a"
      ],
      [
        "Ġn",
        "ufa"
      ],
      [
        "Ġam",
        "dan"
      ],
      [
        "Ġam",
        "s"
      ],
      [
        "n",
        "as"
      ],
      [
        "en",
        "s"
      ],
      [
        "wa",
        "Ç§"
      ],
      [
        "1",
        "9"
      ],
      [
        "eb",
        "ÉĽa"
      ],
      [
        "áº",
        "Ĵ"
      ],
      [
        "Ġiw",
        "umi"
      ],
      [
        "Ã",
        "ª"
      ],
      [
        "áºĵ",
        "ra"
      ],
      [
        "y",
        "irt"
      ],
      [
        "Ã",
        "¢"
      ],
      [
        "ĠW",
        "in"
      ],
      [
        "ĠIs",
        "em"
      ],
      [
        "ĠD",
        "É£a"
      ],
      [
        "Ġta",
        "á¹£"
      ],
      [
        "ĠtÉ£",
        "iwant"
      ],
      [
        "Ġleq",
        "dic"
      ],
      [
        "d",
        "it"
      ],
      [
        "s",
        "ut"
      ],
      [
        "k",
        "ayt"
      ],
      [
        "Ġt",
        "medyazt"
      ],
      [
        "w",
        "ura"
      ],
      [
        "na",
        "g"
      ],
      [
        "em",
        "res"
      ],
      [
        "Ġta",
        "mu"
      ],
      [
        "Ġyel",
        "han"
      ],
      [
        "Ġtu",
        "f"
      ],
      [
        "Ġaf",
        "us"
      ],
      [
        "Ġwa",
        "d"
      ],
      [
        "Ġam",
        "an"
      ],
      [
        "Ġu",
        "á¸į"
      ],
      [
        "á¹Ľ",
        "en"
      ],
      [
        "ĠuÉ£",
        "erbaz"
      ],
      [
        "Ġt",
        "ruá¸¥"
      ],
      [
        "ĠI",
        "m"
      ],
      [
        "Ġt",
        "x"
      ],
      [
        "Ġyef",
        "ka"
      ],
      [
        "Ġu",
        "ga"
      ],
      [
        "Ġyett",
        "was"
      ],
      [
        "n",
        "un"
      ],
      [
        "\"",
        ","
      ],
      [
        "uf",
        "t"
      ],
      [
        "r",
        "eá¸¥"
      ],
      [
        "maziÉ£",
        "en"
      ],
      [
        "Ġyim",
        "danen"
      ],
      [
        "ra",
        "s"
      ],
      [
        "b",
        "al"
      ],
      [
        "Ġ",
        "et"
      ],
      [
        "Ġte",
        "c"
      ],
      [
        "Ġti",
        "me"
      ],
      [
        "Ġuf",
        "us"
      ],
      [
        "Ġ",
        "áºĵ"
      ],
      [
        "Ġleq",
        "bayel"
      ],
      [
        "edd",
        "em"
      ],
      [
        "lis",
        "en"
      ],
      [
        "ni",
        "win"
      ],
      [
        "at",
        "ion"
      ],
      [
        "Ġyid",
        "les"
      ],
      [
        "Ġ",
        "+"
      ],
      [
        "ez",
        "zi"
      ],
      [
        "in",
        "u"
      ],
      [
        "Ġw",
        "er"
      ],
      [
        "dd",
        "it"
      ],
      [
        "ga",
        "zen"
      ],
      [
        "Ġya",
        "kk"
      ],
      [
        "em",
        "ren"
      ],
      [
        "a",
        "á¹Ń"
      ],
      [
        "â",
        "´"
      ],
      [
        "Ġs",
        "em"
      ],
      [
        "Ġwa",
        "zal"
      ],
      [
        "in",
        "a"
      ],
      [
        "Ġu",
        "qbel"
      ],
      [
        "j",
        "j"
      ],
      [
        "q",
        "ran"
      ],
      [
        "ezz",
        "u"
      ],
      [
        "c",
        "id"
      ],
      [
        "Ġu",
        "me"
      ],
      [
        "Ġ1",
        "8"
      ],
      [
        "d",
        "ec"
      ],
      [
        "Ġag",
        "i"
      ],
      [
        "ĠI",
        "n"
      ],
      [
        "ÉĽ",
        "aw"
      ],
      [
        "ir",
        "e"
      ],
      [
        "t",
        "ett"
      ],
      [
        "ma",
        "s"
      ],
      [
        "Ġuma",
        "wal"
      ],
      [
        "as",
        "sen"
      ],
      [
        "Ġw",
        "ag"
      ],
      [
        "á¸įris",
        "en"
      ],
      [
        "eff",
        "eÉ£"
      ],
      [
        "Ġs",
        "dat"
      ],
      [
        "ri",
        "b"
      ],
      [
        "Ġam",
        "zun"
      ],
      [
        "k",
        "ar"
      ],
      [
        "l",
        "alen"
      ],
      [
        "Ġyin",
        "elmaden"
      ],
      [
        "Ġimi",
        "r"
      ],
      [
        "Ġu",
        "áºĵ"
      ],
      [
        "Ġn",
        "em"
      ],
      [
        "Ġamen",
        "zu"
      ],
      [
        "Ġnez",
        "mer"
      ],
      [
        "n",
        "em"
      ],
      [
        "Ġ",
        "v"
      ],
      [
        "Ġtemna",
        "á¸įt"
      ],
      [
        "Ġu",
        "á¸¥ric"
      ],
      [
        "Ġta",
        "j"
      ],
      [
        "bi",
        "b"
      ],
      [
        "ĠU",
        "n"
      ],
      [
        "eá¹Ńá¹Ń",
        "a"
      ],
      [
        "du",
        "k"
      ],
      [
        "gara",
        "den"
      ],
      [
        "Ġya",
        "kan"
      ],
      [
        "Ġ",
        "O"
      ],
      [
        "Ġu",
        "ss"
      ],
      [
        "Ġz",
        "dat"
      ],
      [
        "2",
        "0"
      ],
      [
        "Ġt",
        "áºĵ"
      ],
      [
        "s",
        "in"
      ],
      [
        "Ġk",
        "ul"
      ],
      [
        "Ġs",
        "É£ur"
      ],
      [
        "Ġur",
        "gaz"
      ],
      [
        "Ġn",
        "ek"
      ],
      [
        "Ġy",
        "uÉ£"
      ],
      [
        "Ġi",
        "j"
      ],
      [
        "eq",
        "da"
      ],
      [
        "al",
        "it"
      ],
      [
        "ĠM",
        "o"
      ],
      [
        "ĠTa",
        "f"
      ],
      [
        "Ġwu",
        "mi"
      ],
      [
        "ra",
        "m"
      ],
      [
        "aw",
        "it"
      ],
      [
        "Ġt",
        "mer"
      ],
      [
        "Ġyi",
        "g"
      ],
      [
        "Ġwi",
        "yaá¸į"
      ],
      [
        "ĠFran",
        "sa"
      ],
      [
        "Ġte",
        "kk"
      ],
      [
        "Ġl",
        "ba"
      ],
      [
        "ĠÆĶ",
        "er"
      ],
      [
        "Ġï",
        "ĥ"
      ],
      [
        "Ġk",
        "em"
      ],
      [
        "l",
        "us"
      ],
      [
        "Ġwa",
        "m"
      ],
      [
        "h",
        "en"
      ],
      [
        "Ġwak",
        "ud"
      ],
      [
        "la",
        "s"
      ],
      [
        "Ġi",
        "cu"
      ],
      [
        "ĠT",
        "al"
      ],
      [
        "Ġu",
        "á¸¥"
      ],
      [
        "elli",
        "d"
      ],
      [
        "Ġ",
        "ÄįÄį"
      ],
      [
        "Ġyem",
        "mut"
      ],
      [
        "Ġtima",
        "wit"
      ],
      [
        "Ġyeqq",
        "im"
      ],
      [
        "eb",
        "bu"
      ],
      [
        "ĠL",
        "lan"
      ],
      [
        "Ġn",
        "ut"
      ],
      [
        "Ġ",
        "mu"
      ],
      [
        "Ġi",
        "men"
      ],
      [
        "ĠA",
        "q"
      ],
      [
        "Ġi",
        "ban"
      ],
      [
        "Ġx",
        "as"
      ],
      [
        "ĠB",
        "en"
      ],
      [
        "Ġs",
        "yin"
      ],
      [
        "Ġt",
        "c"
      ],
      [
        "h",
        "er"
      ],
      [
        "Ġ1",
        "1"
      ],
      [
        "Ġd",
        "agi"
      ],
      [
        "u",
        "ss"
      ],
      [
        "Ġs",
        "en"
      ],
      [
        "li",
        "l"
      ],
      [
        "Ġt",
        "q"
      ],
      [
        "Ġi",
        "ss"
      ],
      [
        "á¸į",
        "u"
      ],
      [
        "ĠT",
        "ett"
      ],
      [
        "Ġum",
        "yag"
      ],
      [
        "Ġm",
        "erra"
      ],
      [
        "á¸į",
        "al"
      ],
      [
        "Ġ",
        "..."
      ],
      [
        "ĠT",
        "ala"
      ],
      [
        "n",
        "ect"
      ],
      [
        "as",
        "ent"
      ],
      [
        "Ġllan",
        "t"
      ],
      [
        "Ġtaá¹£",
        "ebá¸¥it"
      ],
      [
        "ĠS",
        "a"
      ],
      [
        "ĠA",
        "á¸¥ric"
      ],
      [
        "Ġwal",
        "len"
      ],
      [
        "r",
        "Ã©"
      ],
      [
        "s",
        "as"
      ],
      [
        "ĠY",
        "u"
      ],
      [
        "e",
        "á¹£"
      ],
      [
        "Ġd",
        "daw"
      ],
      [
        "c",
        "á¹Ńuá¸¥"
      ],
      [
        "ĠÂ»",
        ","
      ],
      [
        "Ġ1",
        "5"
      ],
      [
        "Ġawal",
        "en"
      ],
      [
        "Ġyef",
        "feÉ£"
      ],
      [
        "y",
        "eÇ§Ç§"
      ],
      [
        "eá¹Ľ",
        "á¹Ľ"
      ],
      [
        "ay",
        "ri"
      ],
      [
        "o",
        "l"
      ],
      [
        "Ġ",
        "á¸į"
      ],
      [
        "Ġn",
        "exdem"
      ],
      [
        "Ġyer",
        "ra"
      ],
      [
        "i",
        "z"
      ],
      [
        "Ġil",
        "mend"
      ],
      [
        "y",
        "t"
      ],
      [
        "Ġx",
        "edmen"
      ],
      [
        "ÉĽ",
        "u"
      ],
      [
        "ĠY",
        "al"
      ],
      [
        "ga",
        "d"
      ],
      [
        "meÉ£",
        "ra"
      ],
      [
        "ĠïĤ",
        "·"
      ],
      [
        "gay",
        "et"
      ],
      [
        "Ġte",
        "j"
      ],
      [
        "er",
        "f"
      ],
      [
        "ĠÇ",
        "¦"
      ],
      [
        "Ġ1",
        "2"
      ],
      [
        "eq",
        "t"
      ],
      [
        "Ġtem",
        "dint"
      ],
      [
        "Ġl",
        "f"
      ],
      [
        "Ġtla",
        "ta"
      ],
      [
        "Ġa",
        "na"
      ],
      [
        "Ġw",
        "eá¸¥"
      ],
      [
        "ÉĽ",
        "id"
      ],
      [
        "Ġi",
        "h"
      ],
      [
        "Ġwa",
        "cu"
      ],
      [
        "s",
        "er"
      ],
      [
        "wal",
        "t"
      ],
      [
        "Ġl",
        "l"
      ],
      [
        "Ġy",
        "ura"
      ],
      [
        "eá¸į",
        "ru"
      ],
      [
        "teq",
        "si"
      ],
      [
        "Ġas",
        "eggas"
      ],
      [
        "Ġte",
        "á¸į"
      ],
      [
        "edd",
        "un"
      ],
      [
        "x",
        "al"
      ],
      [
        "y",
        "ef"
      ],
      [
        "Ġ",
        "Ã"
      ],
      [
        "Ġla",
        "wan"
      ],
      [
        "Ġu",
        "sentel"
      ],
      [
        "Ġw",
        "ug"
      ],
      [
        "Ġtal",
        "É£"
      ],
      [
        "ĠY",
        "iwen"
      ],
      [
        "e",
        "Ç§"
      ],
      [
        "eÉ£",
        "t"
      ],
      [
        "Ġs",
        "b"
      ],
      [
        "el",
        "mi"
      ],
      [
        "eq",
        "dec"
      ],
      [
        "e",
        "ur"
      ],
      [
        "ma",
        "d"
      ],
      [
        "Ġi",
        "bedd"
      ],
      [
        "g",
        "ir"
      ],
      [
        "Ġu",
        "mi"
      ],
      [
        "Ġleb",
        "É£i"
      ],
      [
        "Ġtal",
        "a"
      ],
      [
        "bad",
        "ut"
      ],
      [
        "a",
        "men"
      ],
      [
        "Ġt",
        "w"
      ],
      [
        "ul",
        "en"
      ],
      [
        "edd",
        "men"
      ],
      [
        "g",
        "ur"
      ],
      [
        "r",
        "eb"
      ],
      [
        "s",
        "eÉ£"
      ],
      [
        "l",
        "et"
      ],
      [
        "r",
        "ur"
      ],
      [
        "s",
        "ul"
      ],
      [
        "k",
        "em"
      ],
      [
        "Ġda",
        "kken"
      ],
      [
        "Ġw",
        "e"
      ],
      [
        "ru",
        "n"
      ],
      [
        "y",
        "ekk"
      ],
      [
        "ĠT",
        "in"
      ],
      [
        "Ġ",
        "%"
      ],
      [
        "Ġte",
        "á¹Ńá¹Ń"
      ],
      [
        "Ġtu",
        "dd"
      ],
      [
        "u",
        "x"
      ],
      [
        "wa",
        "dem"
      ],
      [
        "ir",
        "em"
      ],
      [
        "Ġba",
        "b"
      ],
      [
        "neÉ£",
        "laf"
      ],
      [
        "me",
        "áºĵ"
      ],
      [
        "á¸¥",
        "u"
      ],
      [
        "ĠI",
        "mi"
      ],
      [
        "m",
        "in"
      ],
      [
        "zi",
        "z"
      ],
      [
        "Ġtt",
        "ar"
      ],
      [
        "Ġdin",
        "na"
      ],
      [
        "ĠS",
        "s"
      ],
      [
        "wa",
        "á¸¥"
      ],
      [
        "Ġumez",
        "ruy"
      ],
      [
        "k",
        "ant"
      ],
      [
        "t",
        "es"
      ],
      [
        "ra",
        "á¸¥"
      ],
      [
        "Ġy",
        "ug"
      ],
      [
        "Ġtug",
        "et"
      ],
      [
        "ra",
        "á¸į"
      ],
      [
        "ÉĽ",
        "t"
      ],
      [
        "Ġ",
        ")"
      ],
      [
        "ĠN",
        "ett"
      ],
      [
        "a",
        "z"
      ],
      [
        "ĠUla",
        "c"
      ],
      [
        "n",
        "e"
      ],
      [
        "Ġa",
        "j"
      ],
      [
        "Ġama",
        "ru"
      ],
      [
        "ĠB",
        "gayet"
      ],
      [
        "Ġyi",
        "z"
      ],
      [
        "r",
        "ew"
      ],
      [
        "s",
        "iwin"
      ],
      [
        "Ġte",
        "ÄįÄį"
      ],
      [
        "Ġte",
        "ÉĽ"
      ],
      [
        "Ġ1",
        "4"
      ],
      [
        "Ø",
        "§"
      ],
      [
        "ĠT",
        "aÉ£"
      ],
      [
        "Ã¨",
        "re"
      ],
      [
        "Ġmeqq",
        "ren"
      ],
      [
        "ĠY",
        "i"
      ],
      [
        "emma",
        "st"
      ],
      [
        "ĠZ",
        "z"
      ],
      [
        "a",
        "h"
      ],
      [
        "Ġa",
        "b"
      ],
      [
        "ĠA",
        "xxam"
      ],
      [
        "Ġ19",
        "9"
      ],
      [
        "ferd",
        "isen"
      ],
      [
        "ul",
        "in"
      ],
      [
        "u",
        "á¹Ľ"
      ],
      [
        "Ġtef",
        "ransist"
      ],
      [
        "Ġtam",
        "s"
      ],
      [
        "Ġ",
        "á¹£"
      ],
      [
        "Ġla",
        "ÉĽ"
      ],
      [
        "Ġass",
        "aÉ£"
      ],
      [
        "ej",
        "dan"
      ],
      [
        "Ġnut",
        "ni"
      ],
      [
        "li",
        "man"
      ],
      [
        "ed",
        "meÉ£"
      ],
      [
        "ĠM",
        "ar"
      ],
      [
        "ĠMa",
        "ÄįÄįi"
      ],
      [
        "Ġama",
        "ynut"
      ],
      [
        "w",
        "et"
      ],
      [
        "em",
        "mu"
      ],
      [
        "Ġ1",
        "3"
      ],
      [
        "ĠA",
        "b"
      ],
      [
        "Ġtu",
        "É£"
      ],
      [
        "Ġcc",
        "na"
      ],
      [
        "Ġwa",
        "t"
      ],
      [
        "Ġ19",
        "8"
      ],
      [
        "wi",
        "É£"
      ],
      [
        "er",
        "na"
      ],
      [
        "us",
        "t"
      ],
      [
        "Ġyi",
        "xef"
      ],
      [
        "Ġani",
        "da"
      ],
      [
        "ĠM",
        "d"
      ],
      [
        "d",
        "im"
      ],
      [
        "Ġá¹",
        "¢"
      ],
      [
        "ÉĽa",
        "d"
      ],
      [
        "Ġi",
        "ni"
      ],
      [
        "Ġyeb",
        "da"
      ],
      [
        "nul",
        "fu"
      ],
      [
        "Ġn",
        "iá¸įen"
      ],
      [
        "Ġum",
        "kan"
      ],
      [
        "Ġp",
        "ro"
      ],
      [
        "n",
        "eá¸į"
      ],
      [
        "Ġta",
        "t"
      ],
      [
        "Ġtu",
        "ss"
      ],
      [
        "á¹Ńi",
        "j"
      ],
      [
        "ĠLeq",
        "bayel"
      ],
      [
        "s",
        "eá¸į"
      ],
      [
        "ĠT",
        "ura"
      ],
      [
        "ĠTa",
        "me"
      ],
      [
        "Ġtemna",
        "á¸įin"
      ],
      [
        "f",
        "iÉ£"
      ],
      [
        "ĠiÉ£",
        "ef"
      ],
      [
        "Ġs",
        "ÉĽan"
      ],
      [
        "il",
        "eÉ£"
      ],
      [
        "Ġi",
        "ger"
      ],
      [
        "af",
        "en"
      ],
      [
        "ĠtaÉ£",
        "iwant"
      ],
      [
        "Ġ",
        "áºĴ"
      ],
      [
        "ĠÆĶ",
        "as"
      ],
      [
        "Ġwam",
        "mud"
      ],
      [
        "er",
        "b"
      ],
      [
        "Ġis",
        "eggasen"
      ],
      [
        "Ġala",
        "mma"
      ],
      [
        "ÉĽ",
        "ed"
      ],
      [
        "Ġyeá¹Ńá¹Ń",
        "ef"
      ],
      [
        "ra",
        "É£"
      ],
      [
        "ĠY",
        "es"
      ],
      [
        "e",
        "á¹£á¹£"
      ],
      [
        "l",
        "ent"
      ],
      [
        "in",
        "e"
      ],
      [
        "á¹Ńá¹Ń",
        "an"
      ],
      [
        "ni",
        "l"
      ],
      [
        "Ġus",
        "efru"
      ],
      [
        "Ġwar",
        "raw"
      ],
      [
        "ĠI",
        "laq"
      ],
      [
        "ĠiÉĽ",
        "eddan"
      ],
      [
        "Ġr",
        "r"
      ],
      [
        "ĠA",
        "É£"
      ],
      [
        "ĠÆĲ",
        "li"
      ],
      [
        "Ġu",
        "neÉ£laf"
      ],
      [
        "Ġtik",
        "li"
      ],
      [
        "y",
        "ant"
      ],
      [
        "Ġa",
        "áºĵ"
      ],
      [
        "ell",
        "u"
      ],
      [
        "ber",
        "dan"
      ],
      [
        "ri",
        "men"
      ],
      [
        "emm",
        "ur"
      ],
      [
        "Ġlw",
        "eqt"
      ],
      [
        "a",
        "q"
      ],
      [
        "uÉ£",
        "en"
      ],
      [
        "uq",
        "ilt"
      ],
      [
        "u",
        "h"
      ],
      [
        "Ġi",
        "mu"
      ],
      [
        "ĠL",
        "á¸¥"
      ],
      [
        "meÉ£",
        "ri"
      ],
      [
        "z",
        "É£a"
      ],
      [
        "iw",
        "elt"
      ],
      [
        "ĠTa",
        "ma"
      ],
      [
        "Ġl",
        "liÉ£"
      ],
      [
        "ĠI",
        "I"
      ],
      [
        "Ġtaf",
        "at"
      ],
      [
        "as",
        "i"
      ],
      [
        "ĠB",
        "el"
      ],
      [
        "Ġteb",
        "É£iá¸į"
      ],
      [
        "me",
        "t"
      ],
      [
        "ĠT",
        "u"
      ],
      [
        "ĠTa",
        "maziÉ£t"
      ],
      [
        "Ġtmu",
        "É£li"
      ],
      [
        "Ġye",
        "x"
      ],
      [
        "ma",
        "ten"
      ],
      [
        "áºĵri",
        "É£"
      ],
      [
        "l",
        "ist"
      ],
      [
        "á¹Ľ",
        "an"
      ],
      [
        "ek",
        "cem"
      ],
      [
        "al",
        "len"
      ],
      [
        "Ġb",
        "É£iÉ£"
      ],
      [
        "Ġc",
        "on"
      ],
      [
        "cu",
        "ha"
      ],
      [
        "k",
        "t"
      ],
      [
        "á¸į",
        "iq"
      ],
      [
        "Ġa",
        "á¸¥ric"
      ],
      [
        "Ġá¹Ľ",
        "á¹Ľ"
      ],
      [
        "ug",
        "en"
      ],
      [
        "iw",
        "eá¸į"
      ],
      [
        "nt",
        "eÉ£"
      ],
      [
        "s",
        "b"
      ],
      [
        "Ġud",
        "lis"
      ],
      [
        "Ġwe",
        "xxam"
      ],
      [
        ")",
        ":"
      ],
      [
        "d",
        "ay"
      ],
      [
        "in",
        "iÉ£"
      ],
      [
        "ec",
        "men"
      ],
      [
        "Ġti",
        "c"
      ],
      [
        "du",
        "kk"
      ],
      [
        "Ġu",
        "ssan"
      ],
      [
        "Ġt",
        "y"
      ],
      [
        "É£",
        "art"
      ],
      [
        "ran",
        "t"
      ],
      [
        "Ġyekk",
        "a"
      ],
      [
        "Ġt",
        "j"
      ],
      [
        "d",
        "e"
      ],
      [
        "Ġ",
        "<"
      ],
      [
        "á¸¥ric",
        "en"
      ],
      [
        "Ġu",
        "men"
      ],
      [
        "Ġa",
        "mez"
      ],
      [
        "Â»",
        "."
      ],
      [
        "i",
        "x"
      ],
      [
        "ma",
        "t"
      ],
      [
        "ĠA",
        "ÉĽ"
      ],
      [
        "g",
        "in"
      ],
      [
        "ĠU",
        "s"
      ],
      [
        "baÉĽ",
        "t"
      ],
      [
        "Ġyi",
        "me"
      ],
      [
        "ell",
        "al"
      ],
      [
        "s",
        "ay"
      ],
      [
        "s",
        "eb"
      ],
      [
        "ra",
        "f"
      ],
      [
        "o",
        "o"
      ],
      [
        "uf",
        "an"
      ],
      [
        "Ġte",
        "áºĵ"
      ],
      [
        "Ġte",
        "áºĵri"
      ],
      [
        "ĠTa",
        "ÉĽ"
      ],
      [
        "ĠA",
        "f"
      ],
      [
        "Ġle",
        "w"
      ],
      [
        "Ġil",
        "elli"
      ],
      [
        "li",
        "f"
      ],
      [
        "Ġtla",
        "win"
      ],
      [
        "Ġwas",
        "sa"
      ],
      [
        "f",
        "É£en"
      ],
      [
        "r",
        "ek"
      ],
      [
        "Ġtik",
        "wal"
      ],
      [
        "Ġw",
        "agi"
      ],
      [
        "es",
        "sa"
      ],
      [
        "mil",
        "t"
      ],
      [
        "e",
        "á¹Ń"
      ],
      [
        "Ġtew",
        "wi"
      ],
      [
        "Ġw",
        "ur"
      ],
      [
        "ar",
        "ut"
      ],
      [
        "rir",
        "t"
      ],
      [
        "gara",
        "d"
      ],
      [
        "Ġte",
        "x"
      ],
      [
        "Ġm",
        "gal"
      ],
      [
        "á¸į",
        "eÉ£"
      ],
      [
        "Ġum",
        "s"
      ],
      [
        "Ġtas",
        "leá¸įt"
      ],
      [
        "Ġ1",
        "6"
      ],
      [
        "u",
        "j"
      ],
      [
        "Ġn",
        "neÉ£"
      ],
      [
        "Ġtes",
        "leá¸įt"
      ],
      [
        "t",
        "ent"
      ],
      [
        "mez",
        "wura"
      ],
      [
        "Ġt",
        "ant"
      ],
      [
        "r",
        "t"
      ],
      [
        "h",
        "el"
      ],
      [
        "Ġyi",
        "É£er"
      ],
      [
        "Ġa",
        "á¸įris"
      ],
      [
        "ul",
        "ud"
      ],
      [
        "Ġis",
        "mawen"
      ],
      [
        "egz",
        "awal"
      ],
      [
        "a",
        "á¸¥"
      ],
      [
        "Ġá¹ļ",
        "ebbi"
      ],
      [
        "li",
        "lit"
      ],
      [
        "Ġtug",
        "na"
      ],
      [
        "Ġnni",
        "É£"
      ],
      [
        "eá¹Ńá¹Ń",
        "ef"
      ],
      [
        "ĠT",
        "ar"
      ],
      [
        "Ġad",
        "eg"
      ],
      [
        "ir",
        "in"
      ],
      [
        "z",
        "zu"
      ],
      [
        "iw",
        "el"
      ],
      [
        "Ġtes",
        "ÉĽ"
      ],
      [
        "Ġlx",
        "ir"
      ],
      [
        "Ġb",
        "erra"
      ],
      [
        "ĠIÉ£",
        "il"
      ],
      [
        "sa",
        "tin"
      ],
      [
        "ĠuÉ£",
        "alen"
      ],
      [
        "ĠA",
        "namek"
      ],
      [
        "ir",
        "en"
      ],
      [
        "r",
        "ez"
      ],
      [
        "Ġl",
        "mut"
      ],
      [
        "ĠY",
        "ewweá¸į"
      ],
      [
        "Ġc",
        "i"
      ],
      [
        "ert",
        "it"
      ],
      [
        "n",
        "wen"
      ],
      [
        "Ġt",
        "elli"
      ],
      [
        "Ġa",
        "medya"
      ],
      [
        "ĠTas",
        "leá¸įt"
      ],
      [
        "Ġtig",
        "awt"
      ],
      [
        "y",
        "eá¸į"
      ],
      [
        "lay",
        "t"
      ],
      [
        "Ġwa",
        "deg"
      ],
      [
        "Ġminist",
        "re"
      ],
      [
        "n",
        "ess"
      ],
      [
        "á¹Ń",
        "an"
      ],
      [
        "xxam",
        "t"
      ],
      [
        "Ġyez",
        "mir"
      ],
      [
        "Ġtmu",
        "ra"
      ],
      [
        "Ġ",
        "áºĵriÉ£"
      ],
      [
        "mi",
        "d"
      ],
      [
        "Ġnni",
        "g"
      ],
      [
        "ber",
        "kan"
      ],
      [
        "Ġyeá¸į",
        "ran"
      ],
      [
        "Ġa",
        "áºĵar"
      ],
      [
        "an",
        "in"
      ],
      [
        "Ġu",
        "nadi"
      ],
      [
        "mek",
        "ti"
      ],
      [
        "f",
        "ali"
      ],
      [
        "Ġwak",
        "al"
      ],
      [
        "Ç§",
        "u"
      ],
      [
        "Ġtamu",
        "É£li"
      ],
      [
        "en",
        "ni"
      ],
      [
        "Ġim",
        "danen"
      ],
      [
        "ef",
        "ren"
      ],
      [
        "ĠM",
        "ass"
      ],
      [
        "uq",
        "el"
      ],
      [
        "me",
        "ÉĽna"
      ],
      [
        "Ġter",
        "gal"
      ],
      [
        "ut",
        "er"
      ],
      [
        "Ġtag",
        "nit"
      ],
      [
        "gen",
        "ni"
      ],
      [
        "Ġweá¸¥",
        "d"
      ],
      [
        "ÉĽ",
        "er"
      ],
      [
        "ĠA",
        "á¸¥"
      ],
      [
        "Ġk",
        "emm"
      ],
      [
        "Ġss",
        "uq"
      ],
      [
        "ÉĽ",
        "in"
      ],
      [
        "ĠleÉĽ",
        "mer"
      ],
      [
        "b",
        "ed"
      ],
      [
        "Ġuma",
        "á¸įal"
      ],
      [
        "'",
        "'"
      ],
      [
        "c",
        "um"
      ],
      [
        "q",
        "ay"
      ],
      [
        "si",
        "f"
      ],
      [
        "Ġy",
        "ufa"
      ],
      [
        "Ġtt",
        "em"
      ],
      [
        "Ġti",
        "b"
      ],
      [
        "h",
        "al"
      ],
      [
        "Ç§",
        "in"
      ],
      [
        "ĠK",
        "ra"
      ],
      [
        "Ġl",
        "k"
      ]
    ]
  }
}