{
  "version": "1.0",
  "truncation": null,
  "padding": null,
  "added_tokens": [
    {
      "id": 0,
      "content": "<unk>",
      "single_word": false,
      "lstrip": false,
      "rstrip": false,
      "normalized": false,
      "special": true
    },
    {
      "id": 1,
      "content": "<bos>",
      "single_word": false,
      "lstrip": false,
      "rstrip": false,
      "normalized": false,
      "special": true
    }
  ],
  "normalizer": null,
  "pre_tokenizer": {
    "type": "ByteLevel",
    "add_prefix_space": true,
    "trim_offsets": true,
    "use_regex": true
  },
  "post_processor": null,
  "decoder": {
    "type": "ByteLevel",
    "add_prefix_space": true,
    "trim_offsets": true,
    "use_regex": true
  },
  "model": {
    "type": "BPE",
    "dropout": null,
    "unk_token": "<unk>",
    "continuing_subword_prefix": null,
    "end_of_word_suffix": null,
    "fuse_unk": false,
    "byte_fallback": false,
    "ignore_merges": false,
    "vocab": {
      "<unk>": 0,
      "<bos>": 1,
      "!": 2,
      "\"": 3,
      "#": 4,
      "$": 5,
      "%": 6,
      "&": 7,
      "'": 8,
      "(": 9,
      ")": 10,
      "*": 11,
      "+": 12,
      ",": 13,
      "-": 14,
      ".": 15,
      "/": 16,
      "0": 17,
      "1": 18,
      "2": 19,
      "3": 20,
      "4": 21,
      "5": 22,
      "6": 23,
      "7": 24,
      "8": 25,
      "9": 26,
      ":": 27,
      ";": 28,
      "<": 29,
      "=": 30,
      ">": 31,
      "?": 32,
      "@": 33,
      "A": 34,
      "B": 35,
      "C": 36,
      "D": 37,
      "E": 38,
      "F": 39,
      "G": 40,
      "H": 41,
      "I": 42,
      "J": 43,
      "K": 44,
      "L": 45,
      "M": 46,
      "N": 47,
      "O": 48,
      "P": 49,
      "Q": 50,
      "R": 51,
      "S": 52,
      "T": 53,
      "U": 54,
      "V": 55,
      "W": 56,
      "X": 57,
      "Y": 58,
      "Z": 59,
      "[": 60,
      "\\": 61,
      "]": 62,
      "^": 63,
      "_": 64,
      "`": 65,
      "a": 66,
      "b": 67,
      "c": 68,
      "d": 69,
      "e": 70,
      "f": 71,
      "g": 72,
      "h": 73,
      "i": 74,
      "j": 75,
      "k": 76,
      "l": 77,
      "m": 78,
      "n": 79,
      "o": 80,
      "p": 81,
      "q": 82,
      "r": 83,
      "s": 84,
      "t": 85,
      "u": 86,
      "v": 87,
      "w": 88,
      "x": 89,
      "y": 90,
      "z": 91,
      "{": 92,
      "|": 93,
      "}": 94,
      "~": 95,
      "¡": 96,
      "¢": 97,
      "£": 98,
      "¤": 99,
      "¥": 100,
      "¦": 101,
      "§": 102,
      "¨": 103,
      "©": 104,
      "ª": 105,
      "«": 106,
      "¬": 107,
      "®": 108,
      "¯": 109,
      "°": 110,
      "±": 111,
      "²": 112,
      "³": 113,
      "´": 114,
      "µ": 115,
      "¶": 116,
      "·": 117,
      "¸": 118,
      "¹": 119,
      "º": 120,
      "»": 121,
      "¼": 122,
      "½": 123,
      "¾": 124,
      "¿": 125,
      "À": 126,
      "Á": 127,
      "Â": 128,
      "Ã": 129,
      "Ä": 130,
      "Å": 131,
      "Æ": 132,
      "Ç": 133,
      "È": 134,
      "É": 135,
      "Ê": 136,
      "Ë": 137,
      "Ì": 138,
      "Í": 139,
      "Î": 140,
      "Ï": 141,
      "Ð": 142,
      "Ñ": 143,
      "Ò": 144,
      "Ó": 145,
      "Ô": 146,
      "Õ": 147,
      "Ö": 148,
      "×": 149,
      "Ø": 150,
      "Ù": 151,
      "Ú": 152,
      "Û": 153,
      "Ü": 154,
      "Ý": 155,
      "Þ": 156,
      "ß": 157,
      "à": 158,
      "á": 159,
      "â": 160,
      "ã": 161,
      "ä": 162,
      "å": 163,
      "æ": 164,
      "ç": 165,
      "è": 166,
      "é": 167,
      "ê": 168,
      "ë": 169,
      "ì": 170,
      "í": 171,
      "î": 172,
      "ï": 173,
      "ð": 174,
      "ñ": 175,
      "ò": 176,
      "ó": 177,
      "ô": 178,
      "õ": 179,
      "ö": 180,
      "÷": 181,
      "ø": 182,
      "ù": 183,
      "ú": 184,
      "û": 185,
      "ü": 186,
      "ý": 187,
      "þ": 188,
      "ÿ": 189,
      "Ā": 190,
      "ā": 191,
      "Ă": 192,
      "ă": 193,
      "Ą": 194,
      "ą": 195,
      "Ć": 196,
      "ć": 197,
      "Ĉ": 198,
      "ĉ": 199,
      "Ċ": 200,
      "ċ": 201,
      "Č": 202,
      "č": 203,
      "Ď": 204,
      "ď": 205,
      "Đ": 206,
      "đ": 207,
      "Ē": 208,
      "ē": 209,
      "Ĕ": 210,
      "ĕ": 211,
      "Ė": 212,
      "ė": 213,
      "Ę": 214,
      "ę": 215,
      "Ě": 216,
      "ě": 217,
      "Ĝ": 218,
      "ĝ": 219,
      "Ğ": 220,
      "ğ": 221,
      "Ġ": 222,
      "ġ": 223,
      "Ģ": 224,
      "ģ": 225,
      "Ĥ": 226,
      "ĥ": 227,
      "Ħ": 228,
      "ħ": 229,
      "Ĩ": 230,
      "ĩ": 231,
      "Ī": 232,
      "ī": 233,
      "Ĭ": 234,
      "ĭ": 235,
      "Į": 236,
      "į": 237,
      "İ": 238,
      "ı": 239,
      "Ĳ": 240,
      "ĳ": 241,
      "Ĵ": 242,
      "ĵ": 243,
      "Ķ": 244,
      "ķ": 245,
      "ĸ": 246,
      "Ĺ": 247,
      "ĺ": 248,
      "Ļ": 249,
      "ļ": 250,
      "Ľ": 251,
      "ľ": 252,
      "Ŀ": 253,
      "ŀ": 254,
      "Ł": 255,
      "ł": 256,
      "Ń": 257,
      "Ġt": 258,
      "Ġa": 259,
      "en": 260,
      "É£": 261,
      "Ġd": 262,
      "Ġn": 263,
      "Ġy": 264,
      "Ġi": 265,
      "á¸": 266,
      "an": 267,
      "Ġu": 268,
      "er": 269,
      "ra": 270,
      "al": 271,
      "Ġye": 272,
      "in": 273,
      "eg": 274,
      "á¹": 275,
      "ma": 276,
      "Ġs": 277,
      "á¸į": 278,
      "Ġw": 279,
      "la": 280,
      "el": 281,
      "em": 282,
      "á¸¥": 283,
      "me": 284,
      "Ġad": 285,
      "ÉĽ": 286,
      "Ġta": 287,
      "is": 288,
      "ĠA": 289,
      "kk": 290,
      "ar": 291,
      "ĠÉ£": 292,
      "as": 293,
      "Ġl": 294,
      "Ġte": 295,
      "tt": 296,
      "á¹Ń": 297,
      "ef": 298,
      "Ġyi": 299,
      "ĠT": 300,
      "li": 301,
      "Ġdeg": 302,
      "eÉ£": 303,
      "na": 304,
      "es": 305,
      "ed": 306,
      "mi": 307,
      "ni": 308,
      "ay": 309,
      "ur": 310,
      "Ġara": 311,
      "Ġti": 312,
      "ri": 313,
      "da": 314,
      "ĠÉ£er": 315,
      "Ġakk": 316,
      "it": 317,
      "aw": 318,
      "áº": 319,
      "eb": 320,
      "áºĵ": 321,
      "ut": 322,
      "Ġur": 323,
      "eá¸į": 324,
      "ĠI": 325,
      "ss": 326,
      "ĠM": 327,
      "Ġk": 328,
      "sen": 329,
      "id": 330,
      "ĠD": 331,
      "ru": 332,
      "ag": 333,
      "ĠÉ£ef": 334,
      "Ġdi": 335,
      "zi": 336,
      "un": 337,
      "Ġam": 338,
      "Ç§": 339,
      "Äį": 340,
      "Ġtu": 341,
      "wa": 342,
      "yen": 343,
      "Ġma": 344,
      "Ġwa": 345,
      "ĠU": 346,
      "iw": 347,
      "et": 348,
      "ya": 349,
      "ba": 350,
      "eq": 351,
      "Ġ(": 352,
      "ul": 353,
      "ir": 354,
      "Ġ-": 355,
      "ĠY": 356,
      "Ġtt": 357,
      "á¹Ľ": 358,
      "á¹£": 359,
      "Ġyett": 360,
      "ĠS": 361,
      "men": 362,
      "Ġas": 363,
      "dd": 364,
      "edd": 365,
      "Ġyel": 366,
      "Ġus": 367,
      "ett": 368,
      "ĠL": 369,
      "mu": 370,
      "Ġ:": 371,
      "wen": 372,
      "á¹Ńá¹Ń": 373,
      "il": 374,
      "ga": 375,
      "nni": 376,
      "ĠÂ": 377,
      "lan": 378,
      "..": 379,
      "agi": 380,
      "É£a": 381,
      "wal": 382,
      "Ġakken": 383,
      "ez": 384,
      "am": 385,
      "sa": 386,
      "Ġ1": 387,
      "Ġc": 388,
      "Ġseg": 389,
      "qq": 390,
      "aÉ£": 391,
      "ran": 392,
      "ek": 393,
      "wi": 394,
      "Ġm": 395,
      "uÉ£": 396,
      "ent": 397,
      "ekk": 398,
      "man": 399,
      "egg": 400,
      "Ġis": 401,
      "at": 402,
      "mek": 403,
      "Ġac": 404,
      "Ġle": 405,
      "im": 406,
      "Ġf": 407,
      "ĠneÉ£": 408,
      "Ġb": 409,
      "ren": 410,
      "us": 411,
      "ell": 412,
      "ĠB": 413,
      "Ġyis": 414,
      "Ġg": 415,
      "Ġla": 416,
      "mer": 417,
      "lay": 418,
      "uf": 419,
      "ĠÂ«": 420,
      "Ġan": 421,
      "ÄįÄį": 422,
      "ĠUr": 423,
      "ud": 424,
      "lit": 425,
      "ew": 426,
      "ant": 427,
      "iÉ£": 428,
      "ec": 429,
      "ella": 430,
      "ĠÆ": 431,
      "Ġyes": 432,
      "ĠTa": 433,
      "ĠN": 434,
      "Ġar": 435,
      "ÉĽa": 436,
      "Ġtem": 437,
      "urt": 438,
      "Ġtes": 439,
      "Ġway": 440,
      "Ġid": 441,
      "eá¸¥": 442,
      "Ġ,": 443,
      "mez": 444,
      "Ġkra": 445,
      "ca": 446,
      "med": 447,
      "ess": 448,
      "Ġyiwen": 449,
      "qb": 450,
      "mes": 451,
      "á¸įen": 452,
      "Ġ2": 453,
      "di": 454,
      "kken": 455,
      "dan": 456,
      "ziÉ£": 457,
      "Ġz": 458,
      "enna": 459,
      "yi": 460,
      "á¹Ńas": 461,
      "Ġtett": 462,
      "alen": 463,
      "bi": 464,
      "elli": 465,
      "Ã©": 466,
      "Ġr": 467,
      "Ġyella": 468,
      "ta": 469,
      "ti": 470,
      "neÉ£": 471,
      "eÉĽ": 472,
      "Ġum": 473,
      "Ġkan": 474,
      "Ġama": 475,
      "asen": 476,
      "ĠAd": 477,
      "Ġtal": 478,
      "ĠW": 479,
      "du": 480,
      "Ġmi": 481,
      "Ġyem": 482,
      "Ġyess": 483,
      "Ġ\"": 484,
      "kan": 485,
      "on": 486,
      "nsen": 487,
      "Ġimi": 488,
      "Ġayen": 489,
      "Ġyer": 490,
      "Ġula": 491,
      "ci": 492,
      "xx": 493,
      "den": 494,
      "zal": 495,
      "ĠMa": 496,
      "maziÉ£": 497,
      "len": 498,
      "Ġnett": 499,
      "Ġme": 500,
      "ĠTi": 501,
      "fa": 502,
      "win": 503,
      "art": 504,
      "...": 505,
      "Ġwin": 506,
      "dem": 507,
      "Ġts": 508,
      "si": 509,
      "emm": 510,
      "Ġakked": 511,
      "aren": 512,
      "utlay": 513,
      "ka": 514,
      "Ġun": 515,
      "ura": 516,
      "uá¸¥": 517,
      "ĠR": 518,
      "Ġss": 519,
      "eqq": 520,
      "ert": 521,
      "xxam": 522,
      "um": 523,
      "Ġug": 524,
      "qbay": 525,
      "Ç§Ç§": 526,
      "ad": 527,
      "zen": 528,
      "maziÉ£t": 529,
      "Ġyellan": 530,
      "ĠaÉ£": 531,
      "ĠAt": 532,
      "ug": 533,
      "af": 534,
      "Ġtas": 535,
      "meÉ£": 536,
      "Ġtutlay": 537,
      "ĠÆĲ": 538,
      "Ġyal": 539,
      "yin": 540,
      "Â»": 541,
      "ex": 542,
      "Ġyiw": 543,
      "ĠDeg": 544,
      "iá¸į": 545,
      "ist": 546,
      "ĠC": 547,
      "ĠÂ»": 548,
      "nu": 549,
      "Ġx": 550,
      "ruá¸¥": 551,
      "Ġten": 552,
      "Ġass": 553,
      "Ġtez": 554,
      "Ġyid": 555,
      "Ġfell": 556,
      "Ġyez": 557,
      "Ġgar": 558,
      "Ġag": 559,
      "ĠuÉ£": 560,
      "war": 561,
      "Ġnni": 562,
      "murt": 563,
      "ten": 564,
      "emma": 565,
      "Ġak": 566,
      "eh": 567,
      "Ġsi": 568,
      "Ġyeb": 569,
      "ku": 570,
      "raw": 571,
      "ĠF": 572,
      "Ġtag": 573,
      "ak": 574,
      "rid": 575,
      "Ġsin": 576,
      "Ġlá¸¥": 577,
      "awal": 578,
      "Ġtme": 579,
      "Ġtama": 580,
      "ass": 581,
      "Ġuma": 582,
      "ĠAs": 583,
      "Ġwid": 584,
      "Ġil": 585,
      "Ġaá¹Ńas": 586,
      "ban": 587,
      "Ġtef": 588,
      "ber": 589,
      "hi": 590,
      "Ġacu": 591,
      "cu": 592,
      "elt": 593,
      "Ġwayen": 594,
      "Ġ.": 595,
      "Ġim": 596,
      "Ġay": 597,
      "nan": 598,
      "ha": 599,
      "Ġde": 600,
      "medya": 601,
      "ik": 602,
      "gal": 603,
      "fer": 604,
      "qbaylit": 605,
      "uÉ£al": 606,
      "eá¹Ńá¹Ń": 607,
      "Ġawal": 608,
      "Ġtutlayt": 609,
      "Ġyiwet": 610,
      "Ġal": 611,
      "ĠK": 612,
      "Ġin": 613,
      "ris": 614,
      "ĠÉĽ": 615,
      "aÉ£en": 616,
      "ezz": 617,
      "Ġá¸¥": 618,
      "É£en": 619,
      "eff": 620,
      "ÄįÄįi": 621,
      "elma": 622,
      "Ġtin": 623,
      "ayen": 624,
      "Ġp": 625,
      "laq": 626,
      "Ġyim": 627,
      "bu": 628,
      "Ġyef": 629,
      "Ġteb": 630,
      "Ġanda": 631,
      "Ġaz": 632,
      "á¸¤": 633,
      "Ġyin": 634,
      "tin": 635,
      "ala": 636,
      "Ġter": 637,
      "Ġtura": 638,
      "Ġ?": 639,
      "ĠÉ£ur": 640,
      "eá¹Ľ": 641,
      "ĠÆĶ": 642,
      "nneÉ£": 643,
      "ddart": 644,
      "bedd": 645,
      "ej": 646,
      "gara": 647,
      "ĠtÉ£": 648,
      "Ġtmurt": 649,
      "Ġwis": 650,
      "qa": 651,
      "ĠAm": 652,
      "if": 653,
      "Ġuf": 654,
      "Ġllan": 655,
      "Ġmaca": 656,
      "gen": 657,
      ").": 658,
      "mir": 659,
      "sent": 660,
      "Ġ19": 661,
      "ĠiÉ£": 662,
      "uq": 663,
      "Ġtaz": 664,
      "leá¸į": 665,
      "Ġwu": 666,
      "ĠtaÉ£": 667,
      "ĠZ": 668,
      "ĠdaÉ£en": 669,
      "re": 670,
      "Ġ3": 671,
      "int": 672,
      "Ġtis": 673,
      "Ġyenna": 674,
      "nit": 675,
      "Ġtaddart": 676,
      "est": 677,
      "Â»,": 678,
      "ric": 679,
      "iyi": 680,
      "yett": 681,
      "ub": 682,
      "iwin": 683,
      "brid": 684,
      "Ġwal": 685,
      "za": 686,
      "Ġwakken": 687,
      "Ġ20": 688,
      "á¹£á¹£": 689,
      "rab": 690,
      "Ġá¸¤": 691,
      "Ġtan": 692,
      "Ġame": 693,
      "zu": 694,
      "edda": 695,
      "lis": 696,
      "Ġaf": 697,
      "Ġda": 698,
      "eggas": 699,
      "wan": 700,
      "É£i": 701,
      "Ġba": 702,
      "ĠtmaziÉ£t": 703,
      "Ġcc": 704,
      "Ġ!": 705,
      "á¸įris": 706,
      "Ġdu": 707,
      "Ġtay": 708,
      "á¹Ńá¹Ńut": 709,
      "wit": 710,
      "),": 711,
      "Ġamek": 712,
      "ger": 713,
      "rar": 714,
      "ebbi": 715,
      "Ġnekk": 716,
      "Ġnetta": 717,
      "Ġtew": 718,
      "Ġtess": 719,
      "ines": 720,
      "mezwar": 721,
      "Ġtaf": 722,
      "ct": 723,
      "Ġtam": 724,
      "Ġdd": 725,
      "Ġtid": 726,
      "Ġtame": 727,
      "Ġleq": 728,
      "emt": 729,
      "Ġacku": 730,
      "Ġtik": 731,
      "mawen": 732,
      "ili": 733,
      "ali": 734,
      "Ġakka": 735,
      "á¸¥a": 736,
      "Ġilaq": 737,
      "Ġtud": 738,
      "á¸¥ric": 739,
      "fu": 740,
      "erra": 741,
      "reá¸į": 742,
      "gaz": 743,
      "ĠTas": 744,
      "Ġqq": 745,
      "ÉĽan": 746,
      "Ġisem": 747,
      "Ġulac": 748,
      "Ġala": 749,
      "áºĵáºĵ": 750,
      "meslay": 751,
      "Ġazal": 752,
      "nen": 753,
      "om": 754,
      "á¸¥al": 755,
      "Ġá¹": 756,
      "Ġud": 757,
      "ĠteÉ£": 758,
      "zik": 759,
      "namek": 760,
      "ĠiÉĽ": 761,
      "Ġteg": 762,
      "ayt": 763,
      "nat": 764,
      "ĠmaÄįÄįi": 765,
      "Ġat": 766,
      "Ġtar": 767,
      "Ġyew": 768,
      "gi": 769,
      "Ġaya": 770,
      "erru": 771,
      "fen": 772,
      "ab": 773,
      "aÉĽ": 774,
      "Ġuz": 775,
      "Ġnniá¸įen": 776,
      "ĠMi": 777,
      "Ġ4": 778,
      "dden": 779,
      "ĠdÉ£a": 780,
      "Ġix": 781,
      "Ġiz": 782,
      "ĠIs": 783,
      "Ġiman": 784,
      "É£al": 785,
      "cen": 786,
      "les": 787,
      "dam": 788,
      "end": 789,
      "efk": 790,
      "Ġiw": 791,
      "Ġá¹Ńá¹Ń": 792,
      "yu": 793,
      "eww": 794,
      "uren": 795,
      "zan": 796,
      "ult": 797,
      "Ġtella": 798,
      "Ġwawal": 799,
      "awi": 800,
      "ekka": 801,
      "Ġiá¸¥": 802,
      "awalen": 803,
      "ĠG": 804,
      "Ġ/": 805,
      "Ġï": 806,
      "Ġzik": 807,
      "err": 808,
      "fan": 809,
      "lal": 810,
      "Ġbelli": 811,
      "iwen": 812,
      "Ġleá¸¥": 813,
      "Ġwass": 814,
      "ĠH": 815,
      "Ġtim": 816,
      "eÄįÄį": 817,
      "ou": 818,
      "Ġtmu": 819,
      "É£er": 820,
      "ini": 821,
      "Ġaq": 822,
      "ĠleÉĽ": 823,
      "á¸įt": 824,
      "Ġ;": 825,
      "Ġtug": 826,
      "qu": 827,
      "Ġya": 828,
      "ufa": 829,
      "medyaz": 830,
      "Ġyeqq": 831,
      "yan": 832,
      "áºĵri": 833,
      "uk": 834,
      "ib": 835,
      "É£an": 836,
      "reÉ£": 837,
      "danen": 838,
      "Ġiwa": 839,
      "leÉ£": 840,
      "gan": 841,
      "á¸įa": 842,
      "unt": 843,
      "awen": 844,
      "feÉ£": 845,
      "eggasen": 846,
      "ĠAn": 847,
      "Ġtudert": 848,
      "Ġuseggas": 849,
      "irt": 850,
      "Ġwar": 851,
      "rit": 852,
      "Ġsnat": 853,
      "Ġyemma": 854,
      "uri": 855,
      "Ġwas": 856,
      "ray": 857,
      "Ġâ": 858,
      "tti": 859,
      "wt": 860,
      "mud": 861,
      "Ġwi": 862,
      "ect": 863,
      "Ġtf": 864,
      "qqran": 865,
      "Ġdin": 866,
      "Ġ5": 867,
      "aru": 868,
      "ĠP": 869,
      "ekla": 870,
      "Ġtira": 871,
      "lu": 872,
      "sit": 873,
      "yag": 874,
      "was": 875,
      "cem": 876,
      "Ġ[": 877,
      "ĠDi": 878,
      "Ġwan": 879,
      "ben": 880,
      "Ġtaqbaylit": 881,
      "itt": 882,
      "ĠAmek": 883,
      "Ġyerna": 884,
      "ey": 885,
      "eÇ§Ç§": 886,
      "rin": 887,
      "alt": 888,
      "ssan": 889,
      "Ġnes": 890,
      "nes": 891,
      "ebb": 892,
      "ĠMuá¸¥": 893,
      "Ġj": 894,
      "st": 895,
      "udd": 896,
      "Ġleb": 897,
      "res": 898,
      "Ġlx": 899,
      "ĠTizi": 900,
      "xef": 901,
      "ĠyesÉĽa": 902,
      "ĠtaÉĽ": 903,
      "Ġig": 904,
      "elmaden": 905,
      "00": 906,
      "ayer": 907,
      "mar": 908,
      "Ġwaá¹Ńas": 909,
      "Ġyen": 910,
      "á¸įan": 911,
      "Ġyekk": 912,
      "Ġul": 913,
      "mut": 914,
      "ĠyuÉ£al": 915,
      "Ġlq": 916,
      "Ġir": 917,
      "leá¸įt": 918,
      "Ġuxxam": 919,
      "Ġif": 920,
      "mezwaru": 921,
      "dat": 922,
      "Ġq": 923,
      "Ġime": 924,
      "iq": 925,
      "or": 926,
      "Ġzz": 927,
      "Ġit": 928,
      "Ġá¹£á¹£": 929,
      "wac": 930,
      "Ġtaw": 931,
      "yas": 932,
      "nut": 933,
      "Ġyili": 934,
      "Ġlem": 935,
      "ĠlÉĽ": 936,
      "Ġtig": 937,
      "ĠX": 938,
      "bay": 939,
      "lem": 940,
      "der": 941,
      "exdem": 942,
      "Ġyu": 943,
      "awin": 944,
      "rabt": 945,
      "Ġihi": 946,
      "Ġbaba": 947,
      "Ġlex": 948,
      "Ġteqbaylit": 949,
      "á¹Ńa": 950,
      "ig": 951,
      "mal": 952,
      "áºĵar": 953,
      "ĠJ": 954,
      "É£li": 955,
      "Ġtma": 956,
      "ilt": 957,
      "iwant": 958,
      "ĠtalÉ£a": 959,
      "aya": 960,
      "Ġness": 961,
      "Ġacá¸¥al": 962,
      "din": 963,
      "Ġiyi": 964,
      "Ġyisem": 965,
      "Ġ6": 966,
      "Ġabrid": 967,
      "ker": 968,
      "Ġwawalen": 969,
      "Ġwak": 970,
      "yes": 971,
      "ter": 972,
      "han": 973,
      "Ġuq": 974,
      "Ġmmi": 975,
      "ÉĽna": 976,
      "Ġamezwaru": 977,
      "Ġiá¸į": 978,
      "Ġima": 979,
      "yess": 980,
      "aweá¸į": 981,
      "ewwi": 982,
      "lin": 983,
      "xedd": 984,
      "ĠE": 985,
      "way": 986,
      "ĠQ": 987,
      "ÉĽi": 988,
      "Ġyettwa": 989,
      "zz": 990,
      "emmel": 991,
      "Ġyelli": 992,
      "Ġwul": 993,
      "á¸¥en": 994,
      "yer": 995,
      "ĠyesÉĽan": 996,
      "aá¸į": 997,
      "meá¸į": 998,
      "dad": 999,
      "emmi": 1000,
      "idir": 1001,
      "liÉ£": 1002,
      "edmen": 1003,
      "Ġddu": 1004,
      "naf": 1005,
      "umi": 1006,
      "Ġyeá¹Ńá¹Ń": 1007,
      "ynut": 1008,
      "Ġtemna": 1009,
      "ers": 1010,
      "Ġtla": 1011,
      "baÉĽ": 1012,
      "Ġiwakken": 1013,
      "Ġwud": 1014,
      "Ġh": 1015,
      "Ġwaya": 1016,
      "zem": 1017,
      "Ġtaggara": 1018,
      "ĠTom": 1019,
      "xel": 1020,
      "iyen": 1021,
      "layen": 1022,
      "Ġtikk": 1023
    },
    "merges": [
      [
        "Ġ",
        "t"
      ],
      [
        "Ġ",
        "a"
      ],
      [
        "e",
        "n"
      ],
      [
        "É",
        "£"
      ],
      [
        "Ġ",
        "d"
      ],
      [
        "Ġ",
        "n"
      ],
      [
        "Ġ",
        "y"
      ],
      [
        "Ġ",
        "i"
      ],
      [
        "á",
        "¸"
      ],
      [
        "a",
        "n"
      ],
      [
        "Ġ",
        "u"
      ],
      [
        "e",
        "r"
      ],
      [
        "r",
        "a"
      ],
      [
        "a",
        "l"
      ],
      [
        "Ġy",
        "e"
      ],
      [
        "i",
        "n"
      ],
      [
        "e",
        "g"
      ],
      [
        "á",
        "¹"
      ],
      [
        "m",
        "a"
      ],
      [
        "Ġ",
        "s"
      ],
      [
        "á¸",
        "į"
      ],
      [
        "Ġ",
        "w"
      ],
      [
        "l",
        "a"
      ],
      [
        "e",
        "l"
      ],
      [
        "e",
        "m"
      ],
      [
        "á¸",
        "¥"
      ],
      [
        "m",
        "e"
      ],
      [
        "Ġa",
        "d"
      ],
      [
        "É",
        "Ľ"
      ],
      [
        "Ġt",
        "a"
      ],
      [
        "i",
        "s"
      ],
      [
        "Ġ",
        "A"
      ],
      [
        "k",
        "k"
      ],
      [
        "a",
        "r"
      ],
      [
        "Ġ",
        "É£"
      ],
      [
        "a",
        "s"
      ],
      [
        "Ġ",
        "l"
      ],
      [
        "Ġt",
        "e"
      ],
      [
        "t",
        "t"
      ],
      [
        "á¹",
        "Ń"
      ],
      [
        "e",
        "f"
      ],
      [
        "Ġy",
        "i"
      ],
      [
        "Ġ",
        "T"
      ],
      [
        "l",
        "i"
      ],
      [
        "Ġd",
        "eg"
      ],
      [
        "e",
        "É£"
      ],
      [
        "n",
        "a"
      ],
      [
        "e",
        "s"
      ],
      [
        "e",
        "d"
      ],
      [
        "m",
        "i"
      ],
      [
        "n",
        "i"
      ],
      [
        "a",
        "y"
      ],
      [
        "u",
        "r"
      ],
      [
        "Ġa",
        "ra"
      ],
      [
        "Ġt",
        "i"
      ],
      [
        "r",
        "i"
      ],
      [
        "d",
        "a"
      ],
      [
        "ĠÉ£",
        "er"
      ],
      [
        "Ġa",
        "kk"
      ],
      [
        "i",
        "t"
      ],
      [
        "a",
        "w"
      ],
      [
        "á",
        "º"
      ],
      [
        "e",
        "b"
      ],
      [
        "áº",
        "ĵ"
      ],
      [
        "u",
        "t"
      ],
      [
        "Ġu",
        "r"
      ],
      [
        "e",
        "á¸į"
      ],
      [
        "Ġ",
        "I"
      ],
      [
        "s",
        "s"
      ],
      [
        "Ġ",
        "M"
      ],
      [
        "Ġ",
        "k"
      ],
      [
        "s",
        "en"
      ],
      [
        "i",
        "d"
      ],
      [
        "Ġ",
        "D"
      ],
      [
        "r",
        "u"
      ],
      [
        "a",
        "g"
      ],
      [
        "ĠÉ£",
        "ef"
      ],
      [
        "Ġd",
        "i"
      ],
      [
        "z",
        "i"
      ],
      [
        "u",
        "n"
      ],
      [
        "Ġa",
        "m"
      ],
      [
        "Ç",
        "§"
      ],
      [
        "Ä",
        "į"
      ],
      [
        "Ġt",
        "u"
      ],
      [
        "w",
        "a"
      ],
      [
        "y",
        "en"
      ],
      [
        "Ġ",
        "ma"
      ],
      [
        "Ġw",
        "a"
      ],
      [
        "Ġ",
        "U"
      ],
      [
        "i",
        "w"
      ],
      [
        "e",
        "t"
      ],
      [
        "y",
        "a"
      ],
      [
        "b",
        "a"
      ],
      [
        "e",
        "q"
      ],
      [
        "Ġ",
        "("
      ],
      [
        "u",
        "l"
      ],
      [
        "i",
        "r"
      ],
      [
        "Ġ",
        "-"
      ],
      [
        "Ġ",
        "Y"
      ],
      [
        "Ġt",
        "t"
      ],
      [
        "á¹",
        "Ľ"
      ],
      [
        "á¹",
        "£"
      ],
      [
        "Ġye",
        "tt"
      ],
      [
        "Ġ",
        "S"
      ],
      [
        "m",
        "en"
      ],
      [
        "Ġa",
        "s"
      ],
      [
        "d",
        "d"
      ],
      [
        "ed",
        "d"
      ],
      [
        "Ġye",
        "l"
      ],
      [
        "Ġu",
        "s"
      ],
      [
        "e",
        "tt"
      ],
      [
        "Ġ",
        "L"
      ],
      [
        "m",
        "u"
      ],
      [
        "Ġ",
        ":"
      ],
      [
        "w",
        "en"
      ],
      [
        "á¹Ń",
        "á¹Ń"
      ],
      [
        "i",
        "l"
      ],
      [
        "g",
        "a"
      ],
      [
        "n",
        "ni"
      ],
      [
        "Ġ",
        "Â"
      ],
      [
        "l",
        "an"
      ],
      [
        ".",
        "."
      ],
      [
        "ag",
        "i"
      ],
      [
        "É£",
        "a"
      ],
      [
        "w",
        "al"
      ],
      [
        "Ġakk",
        "en"
      ],
      [
        "e",
        "z"
      ],
      [
        "a",
        "m"
      ],
      [
        "s",
        "a"
      ],
      [
        "Ġ",
        "1"
      ],
      [
        "Ġ",
        "c"
      ],
      [
        "Ġs",
        "eg"
      ],
      [
        "q",
        "q"
      ],
      [
        "a",
        "É£"
      ],
      [
        "r",
        "an"
      ],
      [
        "e",
        "k"
      ],
      [
        "w",
        "i"
      ],
      [
        "Ġ",
        "m"
      ],
      [
        "u",
        "É£"
      ],
      [
        "en",
        "t"
      ],
      [
        "e",
        "kk"
      ],
      [
        "m",
        "an"
      ],
      [
        "eg",
        "g"
      ],
      [
        "Ġi",
        "s"
      ],
      [
        "a",
        "t"
      ],
      [
        "me",
        "k"
      ],
      [
        "Ġa",
        "c"
      ],
      [
        "Ġl",
        "e"
      ],
      [
        "i",
        "m"
      ],
      [
        "Ġ",
        "f"
      ],
      [
        "Ġn",
        "eÉ£"
      ],
      [
        "Ġ",
        "b"
      ],
      [
        "r",
        "en"
      ],
      [
        "u",
        "s"
      ],
      [
        "el",
        "l"
      ],
      [
        "Ġ",
        "B"
      ],
      [
        "Ġy",
        "is"
      ],
      [
        "Ġ",
        "g"
      ],
      [
        "Ġ",
        "la"
      ],
      [
        "m",
        "er"
      ],
      [
        "la",
        "y"
      ],
      [
        "u",
        "f"
      ],
      [
        "ĠÂ",
        "«"
      ],
      [
        "Ġa",
        "n"
      ],
      [
        "Äį",
        "Äį"
      ],
      [
        "ĠU",
        "r"
      ],
      [
        "u",
        "d"
      ],
      [
        "li",
        "t"
      ],
      [
        "e",
        "w"
      ],
      [
        "an",
        "t"
      ],
      [
        "i",
        "É£"
      ],
      [
        "e",
        "c"
      ],
      [
        "el",
        "la"
      ],
      [
        "Ġ",
        "Æ"
      ],
      [
        "Ġye",
        "s"
      ],
      [
        "ĠT",
        "a"
      ],
      [
        "Ġ",
        "N"
      ],
      [
        "Ġa",
        "r"
      ],
      [
        "ÉĽ",
        "a"
      ],
      [
        "Ġt",
        "em"
      ],
      [
        "ur",
        "t"
      ],
      [
        "Ġte",
        "s"
      ],
      [
        "Ġw",
        "ay"
      ],
      [
        "Ġi",
        "d"
      ],
      [
        "e",
        "á¸¥"
      ],
      [
        "Ġ",
        ","
      ],
      [
        "me",
        "z"
      ],
      [
        "Ġk",
        "ra"
      ],
      [
        "c",
        "a"
      ],
      [
        "me",
        "d"
      ],
      [
        "es",
        "s"
      ],
      [
        "Ġyi",
        "wen"
      ],
      [
        "q",
        "b"
      ],
      [
        "me",
        "s"
      ],
      [
        "á¸į",
        "en"
      ],
      [
        "Ġ",
        "2"
      ],
      [
        "d",
        "i"
      ],
      [
        "kk",
        "en"
      ],
      [
        "d",
        "an"
      ],
      [
        "zi",
        "É£"
      ],
      [
        "Ġ",
        "z"
      ],
      [
        "en",
        "na"
      ],
      [
        "y",
        "i"
      ],
      [
        "á¹Ń",
        "as"
      ],
      [
        "Ġte",
        "tt"
      ],
      [
        "al",
        "en"
      ],
      [
        "b",
        "i"
      ],
      [
        "el",
        "li"
      ],
      [
        "Ã",
        "©"
      ],
      [
        "Ġ",
        "r"
      ],
      [
        "Ġyel",
        "la"
      ],
      [
        "t",
        "a"
      ],
      [
        "t",
        "i"
      ],
      [
        "n",
        "eÉ£"
      ],
      [
        "e",
        "ÉĽ"
      ],
      [
        "Ġu",
        "m"
      ],
      [
        "Ġk",
        "an"
      ],
      [
        "Ġa",
        "ma"
      ],
      [
        "as",
        "en"
      ],
      [
        "ĠA",
        "d"
      ],
      [
        "Ġt",
        "al"
      ],
      [
        "Ġ",
        "W"
      ],
      [
        "d",
        "u"
      ],
      [
        "Ġ",
        "mi"
      ],
      [
        "Ġye",
        "m"
      ],
      [
        "Ġye",
        "ss"
      ],
      [
        "Ġ",
        "\""
      ],
      [
        "k",
        "an"
      ],
      [
        "o",
        "n"
      ],
      [
        "n",
        "sen"
      ],
      [
        "Ġi",
        "mi"
      ],
      [
        "Ġa",
        "yen"
      ],
      [
        "Ġy",
        "er"
      ],
      [
        "Ġu",
        "la"
      ],
      [
        "c",
        "i"
      ],
      [
        "x",
        "x"
      ],
      [
        "d",
        "en"
      ],
      [
        "z",
        "al"
      ],
      [
        "ĠM",
        "a"
      ],
      [
        "ma",
        "ziÉ£"
      ],
      [
        "l",
        "en"
      ],
      [
        "Ġn",
        "ett"
      ],
      [
        "Ġ",
        "me"
      ],
      [
        "ĠT",
        "i"
      ],
      [
        "f",
        "a"
      ],
      [
        "w",
        "in"
      ],
      [
        "ar",
        "t"
      ],
      [
        "..",
        "."
      ],
      [
        "Ġw",
        "in"
      ],
      [
        "d",
        "em"
      ],
      [
        "Ġt",
        "s"
      ],
      [
        "s",
        "i"
      ],
      [
        "em",
        "m"
      ],
      [
        "Ġakk",
        "ed"
      ],
      [
        "ar",
        "en"
      ],
      [
        "ut",
        "lay"
      ],
      [
        "k",
        "a"
      ],
      [
        "Ġu",
        "n"
      ],
      [
        "u",
        "ra"
      ],
      [
        "u",
        "á¸¥"
      ],
      [
        "Ġ",
        "R"
      ],
      [
        "Ġs",
        "s"
      ],
      [
        "eq",
        "q"
      ],
      [
        "er",
        "t"
      ],
      [
        "xx",
        "am"
      ],
      [
        "u",
        "m"
      ],
      [
        "Ġu",
        "g"
      ],
      [
        "qb",
        "ay"
      ],
      [
        "Ç§",
        "Ç§"
      ],
      [
        "a",
        "d"
      ],
      [
        "z",
        "en"
      ],
      [
        "maziÉ£",
        "t"
      ],
      [
        "Ġyel",
        "lan"
      ],
      [
        "Ġa",
        "É£"
      ],
      [
        "ĠA",
        "t"
      ],
      [
        "u",
        "g"
      ],
      [
        "a",
        "f"
      ],
      [
        "Ġta",
        "s"
      ],
      [
        "me",
        "É£"
      ],
      [
        "Ġt",
        "utlay"
      ],
      [
        "ĠÆ",
        "Ĳ"
      ],
      [
        "Ġy",
        "al"
      ],
      [
        "y",
        "in"
      ],
      [
        "Â",
        "»"
      ],
      [
        "e",
        "x"
      ],
      [
        "Ġyi",
        "w"
      ],
      [
        "ĠD",
        "eg"
      ],
      [
        "i",
        "á¸į"
      ],
      [
        "is",
        "t"
      ],
      [
        "Ġ",
        "C"
      ],
      [
        "ĠÂ",
        "»"
      ],
      [
        "n",
        "u"
      ],
      [
        "Ġ",
        "x"
      ],
      [
        "ru",
        "á¸¥"
      ],
      [
        "Ġt",
        "en"
      ],
      [
        "Ġa",
        "ss"
      ],
      [
        "Ġte",
        "z"
      ],
      [
        "Ġyi",
        "d"
      ],
      [
        "Ġf",
        "ell"
      ],
      [
        "Ġye",
        "z"
      ],
      [
        "Ġg",
        "ar"
      ],
      [
        "Ġa",
        "g"
      ],
      [
        "Ġu",
        "É£"
      ],
      [
        "w",
        "ar"
      ],
      [
        "Ġn",
        "ni"
      ],
      [
        "m",
        "urt"
      ],
      [
        "t",
        "en"
      ],
      [
        "em",
        "ma"
      ],
      [
        "Ġa",
        "k"
      ],
      [
        "e",
        "h"
      ],
      [
        "Ġs",
        "i"
      ],
      [
        "Ġye",
        "b"
      ],
      [
        "k",
        "u"
      ],
      [
        "ra",
        "w"
      ],
      [
        "Ġ",
        "F"
      ],
      [
        "Ġta",
        "g"
      ],
      [
        "a",
        "k"
      ],
      [
        "ri",
        "d"
      ],
      [
        "Ġs",
        "in"
      ],
      [
        "Ġl",
        "á¸¥"
      ],
      [
        "aw",
        "al"
      ],
      [
        "Ġt",
        "me"
      ],
      [
        "Ġta",
        "ma"
      ],
      [
        "as",
        "s"
      ],
      [
        "Ġu",
        "ma"
      ],
      [
        "ĠA",
        "s"
      ],
      [
        "Ġw",
        "id"
      ],
      [
        "Ġi",
        "l"
      ],
      [
        "Ġa",
        "á¹Ńas"
      ],
      [
        "b",
        "an"
      ],
      [
        "Ġte",
        "f"
      ],
      [
        "b",
        "er"
      ],
      [
        "h",
        "i"
      ],
      [
        "Ġac",
        "u"
      ],
      [
        "c",
        "u"
      ],
      [
        "el",
        "t"
      ],
      [
        "Ġway",
        "en"
      ],
      [
        "Ġ",
        "."
      ],
      [
        "Ġi",
        "m"
      ],
      [
        "Ġa",
        "y"
      ],
      [
        "n",
        "an"
      ],
      [
        "h",
        "a"
      ],
      [
        "Ġd",
        "e"
      ],
      [
        "med",
        "ya"
      ],
      [
        "i",
        "k"
      ],
      [
        "g",
        "al"
      ],
      [
        "f",
        "er"
      ],
      [
        "qbay",
        "lit"
      ],
      [
        "uÉ£",
        "al"
      ],
      [
        "e",
        "á¹Ńá¹Ń"
      ],
      [
        "Ġa",
        "wal"
      ],
      [
        "Ġtutlay",
        "t"
      ],
      [
        "Ġyiw",
        "et"
      ],
      [
        "Ġa",
        "l"
      ],
      [
        "Ġ",
        "K"
      ],
      [
        "Ġi",
        "n"
      ],
      [
        "r",
        "is"
      ],
      [
        "Ġ",
        "ÉĽ"
      ],
      [
        "aÉ£",
        "en"
      ],
      [
        "ez",
        "z"
      ],
      [
        "Ġ",
        "á¸¥"
      ],
      [
        "É£",
        "en"
      ],
      [
        "ef",
        "f"
      ],
      [
        "ÄįÄį",
        "i"
      ],
      [
        "el",
        "ma"
      ],
      [
        "Ġt",
        "in"
      ],
      [
        "ay",
        "en"
      ],
      [
        "Ġ",
        "p"
      ],
      [
        "la",
        "q"
      ],
      [
        "Ġyi",
        "m"
      ],
      [
        "b",
        "u"
      ],
      [
        "Ġye",
        "f"
      ],
      [
        "Ġte",
        "b"
      ],
      [
        "Ġan",
        "da"
      ],
      [
        "Ġa",
        "z"
      ],
      [
        "á¸",
        "¤"
      ],
      [
        "Ġy",
        "in"
      ],
      [
        "t",
        "in"
      ],
      [
        "al",
        "a"
      ],
      [
        "Ġt",
        "er"
      ],
      [
        "Ġtu",
        "ra"
      ],
      [
        "Ġ",
        "?"
      ],
      [
        "ĠÉ£",
        "ur"
      ],
      [
        "e",
        "á¹Ľ"
      ],
      [
        "ĠÆ",
        "Ķ"
      ],
      [
        "n",
        "neÉ£"
      ],
      [
        "dd",
        "art"
      ],
      [
        "b",
        "edd"
      ],
      [
        "e",
        "j"
      ],
      [
        "ga",
        "ra"
      ],
      [
        "Ġt",
        "É£"
      ],
      [
        "Ġt",
        "murt"
      ],
      [
        "Ġw",
        "is"
      ],
      [
        "q",
        "a"
      ],
      [
        "ĠA",
        "m"
      ],
      [
        "i",
        "f"
      ],
      [
        "Ġu",
        "f"
      ],
      [
        "Ġl",
        "lan"
      ],
      [
        "Ġma",
        "ca"
      ],
      [
        "g",
        "en"
      ],
      [
        ")",
        "."
      ],
      [
        "mi",
        "r"
      ],
      [
        "sen",
        "t"
      ],
      [
        "Ġ1",
        "9"
      ],
      [
        "Ġi",
        "É£"
      ],
      [
        "u",
        "q"
      ],
      [
        "Ġta",
        "z"
      ],
      [
        "l",
        "eá¸į"
      ],
      [
        "Ġw",
        "u"
      ],
      [
        "Ġta",
        "É£"
      ],
      [
        "Ġ",
        "Z"
      ],
      [
        "Ġd",
        "aÉ£en"
      ],
      [
        "r",
        "e"
      ],
      [
        "Ġ",
        "3"
      ],
      [
        "in",
        "t"
      ],
      [
        "Ġt",
        "is"
      ],
      [
        "Ġy",
        "enna"
      ],
      [
        "ni",
        "t"
      ],
      [
        "Ġta",
        "ddart"
      ],
      [
        "es",
        "t"
      ],
      [
        "Â»",
        ","
      ],
      [
        "ri",
        "c"
      ],
      [
        "i",
        "yi"
      ],
      [
        "y",
        "ett"
      ],
      [
        "u",
        "b"
      ],
      [
        "iw",
        "in"
      ],
      [
        "b",
        "rid"
      ],
      [
        "Ġw",
        "al"
      ],
      [
        "z",
        "a"
      ],
      [
        "Ġwa",
        "kken"
      ],
      [
        "Ġ2",
        "0"
      ],
      [
        "á¹£",
        "á¹£"
      ],
      [
        "ra",
        "b"
      ],
      [
        "Ġ",
        "á¸¤"
      ],
      [
        "Ġt",
        "an"
      ],
      [
        "Ġa",
        "me"
      ],
      [
        "z",
        "u"
      ],
      [
        "ed",
        "da"
      ],
      [
        "l",
        "is"
      ],
      [
        "Ġa",
        "f"
      ],
      [
        "Ġd",
        "a"
      ],
      [
        "egg",
        "as"
      ],
      [
        "w",
        "an"
      ],
      [
        "É£",
        "i"
      ],
      [
        "Ġ",
        "ba"
      ],
      [
        "Ġt",
        "maziÉ£t"
      ],
      [
        "Ġc",
        "c"
      ],
      [
        "Ġ",
        "!"
      ],
      [
        "á¸į",
        "ris"
      ],
      [
        "Ġd",
        "u"
      ],
      [
        "Ġta",
        "y"
      ],
      [
        "á¹Ńá¹Ń",
        "ut"
      ],
      [
        "w",
        "it"
      ],
      [
        ")",
        ","
      ],
      [
        "Ġa",
        "mek"
      ],
      [
        "g",
        "er"
      ],
      [
        "ra",
        "r"
      ],
      [
        "eb",
        "bi"
      ],
      [
        "Ġn",
        "ekk"
      ],
      [
        "Ġnett",
        "a"
      ],
      [
        "Ġte",
        "w"
      ],
      [
        "Ġte",
        "ss"
      ],
      [
        "in",
        "es"
      ],
      [
        "mez",
        "war"
      ],
      [
        "Ġta",
        "f"
      ],
      [
        "c",
        "t"
      ],
      [
        "Ġta",
        "m"
      ],
      [
        "Ġd",
        "d"
      ],
      [
        "Ġti",
        "d"
      ],
      [
        "Ġta",
        "me"
      ],
      [
        "Ġl",
        "eq"
      ],
      [
        "em",
        "t"
      ],
      [
        "Ġac",
        "ku"
      ],
      [
        "Ġti",
        "k"
      ],
      [
        "ma",
        "wen"
      ],
      [
        "i",
        "li"
      ],
      [
        "al",
        "i"
      ],
      [
        "Ġakk",
        "a"
      ],
      [
        "á¸¥",
        "a"
      ],
      [
        "Ġi",
        "laq"
      ],
      [
        "Ġtu",
        "d"
      ],
      [
        "á¸¥",
        "ric"
      ],
      [
        "f",
        "u"
      ],
      [
        "er",
        "ra"
      ],
      [
        "r",
        "eá¸į"
      ],
      [
        "ga",
        "z"
      ],
      [
        "ĠT",
        "as"
      ],
      [
        "Ġ",
        "qq"
      ],
      [
        "ÉĽ",
        "an"
      ],
      [
        "Ġis",
        "em"
      ],
      [
        "Ġula",
        "c"
      ],
      [
        "Ġa",
        "la"
      ],
      [
        "áºĵ",
        "áºĵ"
      ],
      [
        "mes",
        "lay"
      ],
      [
        "Ġa",
        "zal"
      ],
      [
        "n",
        "en"
      ],
      [
        "o",
        "m"
      ],
      [
        "á¸¥",
        "al"
      ],
      [
        "Ġ",
        "á¹"
      ],
      [
        "Ġu",
        "d"
      ],
      [
        "Ġte",
        "É£"
      ],
      [
        "zi",
        "k"
      ],
      [
        "na",
        "mek"
      ],
      [
        "Ġi",
        "ÉĽ"
      ],
      [
        "Ġt",
        "eg"
      ],
      [
        "ay",
        "t"
      ],
      [
        "na",
        "t"
      ],
      [
        "Ġma",
        "ÄįÄįi"
      ],
      [
        "Ġa",
        "t"
      ],
      [
        "Ġta",
        "r"
      ],
      [
        "Ġye",
        "w"
      ],
      [
        "g",
        "i"
      ],
      [
        "Ġa",
        "ya"
      ],
      [
        "er",
        "ru"
      ],
      [
        "f",
        "en"
      ],
      [
        "a",
        "b"
      ],
      [
        "a",
        "ÉĽ"
      ],
      [
        "Ġu",
        "z"
      ],
      [
        "Ġnni",
        "á¸įen"
      ],
      [
        "ĠM",
        "i"
      ],
      [
        "Ġ",
        "4"
      ],
      [
        "dd",
        "en"
      ],
      [
        "Ġd",
        "É£a"
      ],
      [
        "Ġi",
        "x"
      ],
      [
        "Ġi",
        "z"
      ],
      [
        "ĠI",
        "s"
      ],
      [
        "Ġi",
        "man"
      ],
      [
        "É£",
        "al"
      ],
      [
        "c",
        "en"
      ],
      [
        "l",
        "es"
      ],
      [
        "da",
        "m"
      ],
      [
        "en",
        "d"
      ],
      [
        "ef",
        "k"
      ],
      [
        "Ġi",
        "w"
      ],
      [
        "Ġ",
        "á¹Ńá¹Ń"
      ],
      [
        "y",
        "u"
      ],
      [
        "ew",
        "w"
      ],
      [
        "ur",
        "en"
      ],
      [
        "z",
        "an"
      ],
      [
        "ul",
        "t"
      ],
      [
        "Ġt",
        "ella"
      ],
      [
        "Ġw",
        "awal"
      ],
      [
        "aw",
        "i"
      ],
      [
        "ekk",
        "a"
      ],
      [
        "Ġi",
        "á¸¥"
      ],
      [
        "aw",
        "alen"
      ],
      [
        "Ġ",
        "G"
      ],
      [
        "Ġ",
        "/"
      ],
      [
        "Ġ",
        "ï"
      ],
      [
        "Ġ",
        "zik"
      ],
      [
        "er",
        "r"
      ],
      [
        "f",
        "an"
      ],
      [
        "l",
        "al"
      ],
      [
        "Ġb",
        "elli"
      ],
      [
        "iw",
        "en"
      ],
      [
        "Ġle",
        "á¸¥"
      ],
      [
        "Ġw",
        "ass"
      ],
      [
        "Ġ",
        "H"
      ],
      [
        "Ġti",
        "m"
      ],
      [
        "e",
        "ÄįÄį"
      ],
      [
        "o",
        "u"
      ],
      [
        "Ġt",
        "mu"
      ],
      [
        "É£",
        "er"
      ],
      [
        "in",
        "i"
      ],
      [
        "Ġa",
        "q"
      ],
      [
        "Ġle",
        "ÉĽ"
      ],
      [
        "á¸į",
        "t"
      ],
      [
        "Ġ",
        ";"
      ],
      [
        "Ġtu",
        "g"
      ],
      [
        "q",
        "u"
      ],
      [
        "Ġy",
        "a"
      ],
      [
        "uf",
        "a"
      ],
      [
        "medya",
        "z"
      ],
      [
        "Ġye",
        "qq"
      ],
      [
        "y",
        "an"
      ],
      [
        "áºĵ",
        "ri"
      ],
      [
        "u",
        "k"
      ],
      [
        "i",
        "b"
      ],
      [
        "É£",
        "an"
      ],
      [
        "r",
        "eÉ£"
      ],
      [
        "dan",
        "en"
      ],
      [
        "Ġi",
        "wa"
      ],
      [
        "l",
        "eÉ£"
      ],
      [
        "g",
        "an"
      ],
      [
        "á¸į",
        "a"
      ],
      [
        "un",
        "t"
      ],
      [
        "aw",
        "en"
      ],
      [
        "f",
        "eÉ£"
      ],
      [
        "egg",
        "asen"
      ],
      [
        "ĠA",
        "n"
      ],
      [
        "Ġtud",
        "ert"
      ],
      [
        "Ġus",
        "eggas"
      ],
      [
        "ir",
        "t"
      ],
      [
        "Ġw",
        "ar"
      ],
      [
        "ri",
        "t"
      ],
      [
        "Ġs",
        "nat"
      ],
      [
        "Ġyem",
        "ma"
      ],
      [
        "ur",
        "i"
      ],
      [
        "Ġw",
        "as"
      ],
      [
        "ra",
        "y"
      ],
      [
        "Ġ",
        "â"
      ],
      [
        "tt",
        "i"
      ],
      [
        "w",
        "t"
      ],
      [
        "mu",
        "d"
      ],
      [
        "Ġw",
        "i"
      ],
      [
        "ec",
        "t"
      ],
      [
        "Ġt",
        "f"
      ],
      [
        "qq",
        "ran"
      ],
      [
        "Ġd",
        "in"
      ],
      [
        "Ġ",
        "5"
      ],
      [
        "ar",
        "u"
      ],
      [
        "Ġ",
        "P"
      ],
      [
        "ek",
        "la"
      ],
      [
        "Ġti",
        "ra"
      ],
      [
        "l",
        "u"
      ],
      [
        "s",
        "it"
      ],
      [
        "y",
        "ag"
      ],
      [
        "w",
        "as"
      ],
      [
        "c",
        "em"
      ],
      [
        "Ġ",
        "["
      ],
      [
        "ĠD",
        "i"
      ],
      [
        "Ġw",
        "an"
      ],
      [
        "b",
        "en"
      ],
      [
        "Ġta",
        "qbaylit"
      ],
      [
        "i",
        "tt"
      ],
      [
        "ĠA",
        "mek"
      ],
      [
        "Ġyer",
        "na"
      ],
      [
        "e",
        "y"
      ],
      [
        "e",
        "Ç§Ç§"
      ],
      [
        "r",
        "in"
      ],
      [
        "al",
        "t"
      ],
      [
        "ss",
        "an"
      ],
      [
        "Ġn",
        "es"
      ],
      [
        "n",
        "es"
      ],
      [
        "eb",
        "b"
      ],
      [
        "ĠM",
        "uá¸¥"
      ],
      [
        "Ġ",
        "j"
      ],
      [
        "s",
        "t"
      ],
      [
        "u",
        "dd"
      ],
      [
        "Ġl",
        "eb"
      ],
      [
        "r",
        "es"
      ],
      [
        "Ġl",
        "x"
      ],
      [
        "ĠTi",
        "zi"
      ],
      [
        "x",
        "ef"
      ],
      [
        "Ġyes",
        "ÉĽa"
      ],
      [
        "Ġta",
        "ÉĽ"
      ],
      [
        "Ġi",
        "g"
      ],
      [
        "elma",
        "den"
      ],
      [
        "0",
        "0"
      ],
      [
        "ay",
        "er"
      ],
      [
        "ma",
        "r"
      ],
      [
        "Ġwa",
        "á¹Ńas"
      ],
      [
        "Ġy",
        "en"
      ],
      [
        "á¸į",
        "an"
      ],
      [
        "Ġye",
        "kk"
      ],
      [
        "Ġu",
        "l"
      ],
      [
        "m",
        "ut"
      ],
      [
        "Ġy",
        "uÉ£al"
      ],
      [
        "Ġl",
        "q"
      ],
      [
        "Ġi",
        "r"
      ],
      [
        "leá¸į",
        "t"
      ],
      [
        "Ġu",
        "xxam"
      ],
      [
        "Ġi",
        "f"
      ],
      [
        "mezwar",
        "u"
      ],
      [
        "da",
        "t"
      ],
      [
        "Ġ",
        "q"
      ],
      [
        "Ġi",
        "me"
      ],
      [
        "i",
        "q"
      ],
      [
        "o",
        "r"
      ],
      [
        "Ġz",
        "z"
      ],
      [
        "Ġi",
        "t"
      ],
      [
        "Ġ",
        "á¹£á¹£"
      ],
      [
        "wa",
        "c"
      ],
      [
        "Ġta",
        "w"
      ],
      [
        "y",
        "as"
      ],
      [
        "n",
        "ut"
      ],
      [
        "Ġyi",
        "li"
      ],
      [
        "Ġl",
        "em"
      ],
      [
        "Ġl",
        "ÉĽ"
      ],
      [
        "Ġti",
        "g"
      ],
      [
        "Ġ",
        "X"
      ],
      [
        "b",
        "ay"
      ],
      [
        "l",
        "em"
      ],
      [
        "d",
        "er"
      ],
      [
        "ex",
        "dem"
      ],
      [
        "Ġy",
        "u"
      ],
      [
        "aw",
        "in"
      ],
      [
        "rab",
        "t"
      ],
      [
        "Ġi",
        "hi"
      ],
      [
        "Ġba",
        "ba"
      ],
      [
        "Ġle",
        "x"
      ],
      [
        "Ġte",
        "qbaylit"
      ],
      [
        "á¹Ń",
        "a"
      ],
      [
        "i",
        "g"
      ],
      [
        "m",
        "al"
      ],
      [
        "áºĵ",
        "ar"
      ],
      [
        "Ġ",
        "J"
      ],
      [
        "É£",
        "li"
      ],
      [
        "Ġt",
        "ma"
      ],
      [
        "il",
        "t"
      ],
      [
        "iw",
        "ant"
      ],
      [
        "Ġtal",
        "É£a"
      ],
      [
        "ay",
        "a"
      ],
      [
        "Ġn",
        "ess"
      ],
      [
        "Ġac",
        "á¸¥al"
      ],
      [
        "d",
        "in"
      ],
      [
        "Ġi",
        "yi"
      ],
      [
        "Ġyis",
        "em"
      ],
      [
        "Ġ",
        "6"
      ],
      [
        "Ġa",
        "brid"
      ],
      [
        "k",
        "er"
      ],
      [
        "Ġw",
        "awalen"
      ],
      [
        "Ġwa",
        "k"
      ],
      [
        "y",
        "es"
      ],
      [
        "t",
        "er"
      ],
      [
        "h",
        "an"
      ],
      [
        "Ġu",
        "q"
      ],
      [
        "Ġm",
        "mi"
      ],
      [
        "ÉĽ",
        "na"
      ],
      [
        "Ġa",
        "mezwaru"
      ],
      [
        "Ġi",
        "á¸į"
      ],
      [
        "Ġi",
        "ma"
      ],
      [
        "y",
        "ess"
      ],
      [
        "aw",
        "eá¸į"
      ],
      [
        "ew",
        "wi"
      ],
      [
        "l",
        "in"
      ],
      [
        "x",
        "edd"
      ],
      [
        "Ġ",
        "E"
      ],
      [
        "w",
        "ay"
      ],
      [
        "Ġ",
        "Q"
      ],
      [
        "ÉĽ",
        "i"
      ],
      [
        "Ġyett",
        "wa"
      ],
      [
        "z",
        "z"
      ],
      [
        "emm",
        "el"
      ],
      [
        "Ġyel",
        "li"
      ],
      [
        "Ġw",
        "ul"
      ],
      [
        "á¸¥",
        "en"
      ],
      [
        "y",
        "er"
      ],
      [
        "Ġyes",
        "ÉĽan"
      ],
      [
        "a",
        "á¸į"
      ],
      [
        "me",
        "á¸į"
      ],
      [
        "da",
        "d"
      ],
      [
        "em",
        "mi"
      ],
      [
        "id",
        "ir"
      ],
      [
        "li",
        "É£"
      ],
      [
        "ed",
        "men"
      ],
      [
        "Ġd",
        "du"
      ],
      [
        "na",
        "f"
      ],
      [
        "u",
        "mi"
      ],
      [
        "Ġye",
        "á¹Ńá¹Ń"
      ],
      [
        "y",
        "nut"
      ],
      [
        "Ġtem",
        "na"
      ],
      [
        "er",
        "s"
      ],
      [
        "Ġt",
        "la"
      ],
      [
        "ba",
        "ÉĽ"
      ],
      [
        "Ġiwa",
        "kken"
      ],
      [
        "Ġw",
        "ud"
      ],
      [
        "Ġ",
        "h"
      ],
      [
        "Ġway",
        "a"
      ],
      [
        "z",
        "em"
      ],
      [
        "Ġtag",
        "gara"
      ],
      [
        "ĠT",
        "om"
      ],
      [
        "x",
        "el"
      ],
      [
        "i",
        "yen"
      ],
      [
        "la",
        "yen"
      ],
      [
        "Ġti",
        "kk"
      ]
    ]
  }
}