{
  "version": "1.0",
  "truncation": null,
  "padding": null,
  "added_tokens": [
    {
      "id": 0,
      "content": "<unk>",
      "single_word": false,
      "lstrip": false,
      "rstrip": false,
      "normalized": false,
      "special": true
    },
    {
      "id": 1,
      "content": "<bos>",
      "single_word": false,
      "lstrip": false,
      "rstrip": false,
      "normalized": false,
      "special": true
    }
  ],
  "normalizer": null,
  "pre_tokenizer": {
    "type": "ByteLevel",
    "add_prefix_space": true,
    "trim_offsets": true,
    "use_regex": true
  },
  "post_processor": null,
  "decoder": {
    "type": "ByteLevel",
    "add_prefix_space": true,
    "trim_offsets": true,
    "use_regex": true
  },
  "model": {
    "type": "BPE",
    "dropout": null,
    "unk_token": "<unk>",
    "continuing_subword_prefix": null,
    "end_of_word_suffix": null,
    "fuse_unk": false,
    "byte_fallback": false,
    "ignore_merges": false,
    "vocab": {
      "<unk>": 0,
      "<bos>": 1,
      "!": 2,
      "\"": 3,
      "#": 4,
      "$": 5,
      "%": 6,
      "&": 7,
      "'": 8,
      "(": 9,
      ")": 10,
      "*": 11,
      "+": 12,
      ",": 13,
      "-": 14,
      ".": 15,
      "/": 16,
      "0": 17,
      "1": 18,
      "2": 19,
      "3": 20,
      "4": 21,
      "5": 22,
      "6": 23,
      "7": 24,
      "8": 25,
      "9": 26,
      ":": 27,
      ";": 28,
      "<": 29,
      "=": 30,
      ">": 31,
      "?": 32,
      "@": 33,
      "A": 34,
      "B": 35,
      "C": 36,
      "D": 37,
      "E": 38,
      "F": 39,
      "G": 40,
      "H": 41,
      "I": 42,
      "J": 43,
      "K": 44,
      "L": 45,
      "M": 46,
      "N": 47,
      "O": 48,
      "P": 49,
      "Q": 50,
      "R": 51,
      "S": 52,
      "T": 53,
      "U": 54,
      "V": 55,
      "W": 56,
      "X": 57,
      "Y": 58,
      "Z": 59,
      "[": 60,
      "\\": 61,
      "]": 62,
      "^": 63,
      "_": 64,
      "`": 65,
      "a": 66,
      "b": 67,
      "c": 68,
      "d": 69,
      "e": 70,
      "f": 71,
      "g": 72,
      "h": 73,
      "i": 74,
      "j": 75,
      "k": 76,
      "l": 77,
      "m": 78,
      "n": 79,
      "o": 80,
      "p": 81,
      "q": 82,
      "r": 83,
      "s": 84,
      "t": 85,
      "u": 86,
      "v": 87,
      "w": 88,
      "x": 89,
      "y": 90,
      "z": 91,
      "{": 92,
      "|": 93,
      "}": 94,
      "~": 95,
      "¡": 96,
      "¢": 97,
      "£": 98,
      "¤": 99,
      "¥": 100,
      "¦": 101,
      "§": 102,
      "¨": 103,
      "©": 104,
      "ª": 105,
      "«": 106,
      "¬": 107,
      "®": 108,
      "¯": 109,
      "°": 110,
      "±": 111,
      "²": 112,
      "³": 113,
      "´": 114,
      "µ": 115,
      "¶": 116,
      "·": 117,
      "¸": 118,
      "¹": 119,
      "º": 120,
      "»": 121,
      "¼": 122,
      "½": 123,
      "¾": 124,
      "¿": 125,
      "À": 126,
      "Á": 127,
      "Â": 128,
      "Ã": 129,
      "Ä": 130,
      "Å": 131,
      "Æ": 132,
      "Ç": 133,
      "È": 134,
      "É": 135,
      "Ê": 136,
      "Ë": 137,
      "Ì": 138,
      "Í": 139,
      "Î": 140,
      "Ï": 141,
      "Ð": 142,
      "Ñ": 143,
      "Ò": 144,
      "Ó": 145,
      "Ô": 146,
      "Õ": 147,
      "Ö": 148,
      "×": 149,
      "Ø": 150,
      "Ù": 151,
      "Ú": 152,
      "Û": 153,
      "Ü": 154,
      "Ý": 155,
      "Þ": 156,
      "ß": 157,
      "à": 158,
      "á": 159,
      "â": 160,
      "ã": 161,
      "ä": 162,
      "å": 163,
      "æ": 164,
      "ç": 165,
      "è": 166,
      "é": 167,
      "ê": 168,
      "ë": 169,
      "ì": 170,
      "í": 171,
      "î": 172,
      "ï": 173,
      "ð": 174,
      "ñ": 175,
      "ò": 176,
      "ó": 177,
      "ô": 178,
      "õ": 179,
      "ö": 180,
      "÷": 181,
      "ø": 182,
      "ù": 183,
      "ú": 184,
      "û": 185,
      "ü": 186,
      "ý": 187,
      "þ": 188,
      "ÿ": 189,
      "Ā": 190,
      "ā": 191,
      "Ă": 192,
      "ă": 193,
      "Ą": 194,
      "ą": 195,
      "Ć": 196,
      "ć": 197,
      "Ĉ": 198,
      "ĉ": 199,
      "Ċ": 200,
      "ċ": 201,
      "Č": 202,
      "č": 203,
      "Ď": 204,
      "ď": 205,
      "Đ": 206,
      "đ": 207,
      "Ē": 208,
      "ē": 209,
      "Ĕ": 210,
      "ĕ": 211,
      "Ė": 212,
      "ė": 213,
      "Ę": 214,
      "ę": 215,
      "Ě": 216,
      "ě": 217,
      "Ĝ": 218,
      "ĝ": 219,
      "Ğ": 220,
      "ğ": 221,
      "Ġ": 222,
      "ġ": 223,
      "Ģ": 224,
      "ģ": 225,
      "Ĥ": 226,
      "ĥ": 227,
      "Ħ": 228,
      "ħ": 229,
      "Ĩ": 230,
      "ĩ": 231,
      "Ī": 232,
      "ī": 233,
      "Ĭ": 234,
      "ĭ": 235,
      "Į": 236,
      "į": 237,
      "İ": 238,
      "ı": 239,
      "Ĳ": 240,
      "ĳ": 241,
      "Ĵ": 242,
      "ĵ": 243,
      "Ķ": 244,
      "ķ": 245,
      "ĸ": 246,
      "Ĺ": 247,
      "ĺ": 248,
      "Ļ": 249,
      "ļ": 250,
      "Ľ": 251,
      "ľ": 252,
      "Ŀ": 253,
      "ŀ": 254,
      "Ł": 255,
      "ł": 256,
      "Ń": 257,
      "Ġt": 258,
      "Ġa": 259,
      "en": 260,
      "É£": 261,
      "Ġd": 262,
      "Ġn": 263,
      "Ġy": 264,
      "Ġi": 265,
      "á¸": 266,
      "an": 267,
      "Ġu": 268,
      "er": 269,
      "ra": 270,
      "al": 271,
      "Ġye": 272,
      "in": 273,
      "eg": 274,
      "á¹": 275,
      "ma": 276,
      "Ġs": 277,
      "á¸į": 278,
      "Ġw": 279,
      "la": 280,
      "el": 281,
      "em": 282,
      "á¸¥": 283,
      "me": 284,
      "Ġad": 285,
      "ÉĽ": 286,
      "Ġta": 287,
      "is": 288,
      "ĠA": 289,
      "kk": 290,
      "ar": 291,
      "ĠÉ£": 292,
      "as": 293,
      "Ġl": 294,
      "Ġte": 295,
      "tt": 296,
      "á¹Ń": 297,
      "ef": 298,
      "Ġyi": 299,
      "ĠT": 300,
      "li": 301,
      "Ġdeg": 302,
      "eÉ£": 303,
      "na": 304,
      "es": 305,
      "ed": 306,
      "mi": 307,
      "ni": 308,
      "ay": 309,
      "ur": 310,
      "Ġara": 311,
      "Ġti": 312,
      "ri": 313,
      "da": 314,
      "ĠÉ£er": 315,
      "Ġakk": 316,
      "it": 317,
      "aw": 318,
      "áº": 319,
      "eb": 320,
      "áºĵ": 321,
      "ut": 322,
      "Ġur": 323,
      "eá¸į": 324,
      "ĠI": 325,
      "ss": 326,
      "ĠM": 327,
      "Ġk": 328,
      "sen": 329,
      "id": 330,
      "ĠD": 331,
      "ru": 332,
      "ag": 333,
      "ĠÉ£ef": 334,
      "Ġdi": 335,
      "zi": 336,
      "un": 337,
      "Ġam": 338,
      "Ç§": 339,
      "Äį": 340,
      "Ġtu": 341,
      "wa": 342,
      "yen": 343,
      "Ġma": 344,
      "Ġwa": 345,
      "ĠU": 346,
      "iw": 347,
      "et": 348,
      "ya": 349,
      "ba": 350,
      "eq": 351,
      "Ġ(": 352,
      "ul": 353,
      "ir": 354,
      "Ġ-": 355,
      "ĠY": 356,
      "Ġtt": 357,
      "á¹Ľ": 358,
      "á¹£": 359,
      "Ġyett": 360,
      "ĠS": 361,
      "men": 362,
      "Ġas": 363,
      "dd": 364,
      "edd": 365,
      "Ġyel": 366,
      "Ġus": 367,
      "ett": 368,
      "ĠL": 369,
      "mu": 370,
      "Ġ:": 371,
      "wen": 372,
      "á¹Ńá¹Ń": 373,
      "il": 374,
      "ga": 375,
      "nni": 376,
      "ĠÂ": 377,
      "lan": 378,
      "..": 379,
      "agi": 380,
      "É£a": 381,
      "wal": 382,
      "Ġakken": 383,
      "ez": 384,
      "am": 385,
      "sa": 386,
      "Ġ1": 387,
      "Ġc": 388,
      "Ġseg": 389,
      "qq": 390,
      "aÉ£": 391,
      "ran": 392,
      "ek": 393,
      "wi": 394,
      "Ġm": 395,
      "uÉ£": 396,
      "ent": 397,
      "ekk": 398,
      "man": 399,
      "egg": 400,
      "Ġis": 401,
      "at": 402,
      "mek": 403,
      "Ġac": 404,
      "Ġle": 405,
      "im": 406,
      "Ġf": 407,
      "ĠneÉ£": 408,
      "Ġb": 409,
      "ren": 410,
      "us": 411,
      "ell": 412,
      "ĠB": 413,
      "Ġyis": 414,
      "Ġg": 415,
      "Ġla": 416,
      "mer": 417,
      "lay": 418,
      "uf": 419,
      "ĠÂ«": 420,
      "Ġan": 421,
      "ÄįÄį": 422,
      "ĠUr": 423,
      "ud": 424,
      "lit": 425,
      "ew": 426,
      "ant": 427,
      "iÉ£": 428,
      "ec": 429,
      "ella": 430,
      "ĠÆ": 431,
      "Ġyes": 432,
      "ĠTa": 433,
      "ĠN": 434,
      "Ġar": 435,
      "ÉĽa": 436,
      "Ġtem": 437,
      "urt": 438,
      "Ġtes": 439,
      "Ġway": 440,
      "Ġid": 441,
      "eá¸¥": 442,
      "Ġ,": 443,
      "mez": 444,
      "Ġkra": 445,
      "ca": 446,
      "med": 447,
      "ess": 448,
      "Ġyiwen": 449,
      "qb": 450,
      "mes": 451,
      "á¸įen": 452,
      "Ġ2": 453,
      "di": 454,
      "kken": 455,
      "dan": 456,
      "ziÉ£": 457,
      "Ġz": 458,
      "enna": 459,
      "yi": 460,
      "á¹Ńas": 461,
      "Ġtett": 462,
      "alen": 463,
      "bi": 464,
      "elli": 465,
      "Ã©": 466,
      "Ġr": 467,
      "Ġyella": 468,
      "ta": 469,
      "ti": 470,
      "neÉ£": 471,
      "eÉĽ": 472,
      "Ġum": 473,
      "Ġkan": 474,
      "Ġama": 475,
      "asen": 476,
      "ĠAd": 477,
      "Ġtal": 478,
      "ĠW": 479,
      "du": 480,
      "Ġmi": 481,
      "Ġyem": 482,
      "Ġyess": 483,
      "Ġ\"": 484,
      "kan": 485,
      "on": 486,
      "nsen": 487,
      "Ġimi": 488,
      "Ġayen": 489,
      "Ġyer": 490,
      "Ġula": 491,
      "ci": 492,
      "xx": 493,
      "den": 494,
      "zal": 495,
      "ĠMa": 496,
      "maziÉ£": 497,
      "len": 498,
      "Ġnett": 499,
      "Ġme": 500,
      "ĠTi": 501,
      "fa": 502,
      "win": 503,
      "art": 504,
      "...": 505,
      "Ġwin": 506,
      "dem": 507,
      "Ġts": 508,
      "si": 509,
      "emm": 510,
      "Ġakked": 511,
      "aren": 512,
      "utlay": 513,
      "ka": 514,
      "Ġun": 515,
      "ura": 516,
      "uá¸¥": 517,
      "ĠR": 518,
      "Ġss": 519,
      "eqq": 520,
      "ert": 521,
      "xxam": 522,
      "um": 523,
      "Ġug": 524,
      "qbay": 525,
      "Ç§Ç§": 526,
      "ad": 527,
      "zen": 528,
      "maziÉ£t": 529,
      "Ġyellan": 530,
      "ĠaÉ£": 531,
      "ĠAt": 532,
      "ug": 533,
      "af": 534,
      "Ġtas": 535,
      "meÉ£": 536,
      "Ġtutlay": 537,
      "ĠÆĲ": 538,
      "Ġyal": 539,
      "yin": 540,
      "Â»": 541,
      "ex": 542,
      "Ġyiw": 543,
      "ĠDeg": 544,
      "iá¸į": 545,
      "ist": 546,
      "ĠC": 547,
      "ĠÂ»": 548,
      "nu": 549,
      "Ġx": 550,
      "ruá¸¥": 551,
      "Ġten": 552,
      "Ġass": 553,
      "Ġtez": 554,
      "Ġyid": 555,
      "Ġfell": 556,
      "Ġyez": 557,
      "Ġgar": 558,
      "Ġag": 559,
      "ĠuÉ£": 560,
      "war": 561,
      "Ġnni": 562,
      "murt": 563,
      "ten": 564,
      "emma": 565,
      "Ġak": 566,
      "eh": 567,
      "Ġsi": 568,
      "Ġyeb": 569,
      "ku": 570,
      "raw": 571,
      "ĠF": 572,
      "Ġtag": 573,
      "ak": 574,
      "rid": 575,
      "Ġsin": 576,
      "Ġlá¸¥": 577,
      "awal": 578,
      "Ġtme": 579,
      "Ġtama": 580,
      "ass": 581,
      "Ġuma": 582,
      "ĠAs": 583,
      "Ġwid": 584,
      "Ġil": 585,
      "Ġaá¹Ńas": 586,
      "ban": 587,
      "Ġtef": 588,
      "ber": 589,
      "hi": 590,
      "Ġacu": 591,
      "cu": 592,
      "elt": 593,
      "Ġwayen": 594,
      "Ġ.": 595,
      "Ġim": 596,
      "Ġay": 597,
      "nan": 598,
      "ha": 599,
      "Ġde": 600,
      "medya": 601,
      "ik": 602,
      "gal": 603,
      "fer": 604,
      "qbaylit": 605,
      "uÉ£al": 606,
      "eá¹Ńá¹Ń": 607,
      "Ġawal": 608,
      "Ġtutlayt": 609,
      "Ġyiwet": 610,
      "Ġal": 611,
      "ĠK": 612,
      "Ġin": 613,
      "ris": 614,
      "ĠÉĽ": 615,
      "aÉ£en": 616,
      "ezz": 617,
      "Ġá¸¥": 618,
      "É£en": 619,
      "eff": 620,
      "ÄįÄįi": 621,
      "elma": 622,
      "Ġtin": 623,
      "ayen": 624,
      "Ġp": 625,
      "laq": 626,
      "Ġyim": 627,
      "bu": 628,
      "Ġyef": 629,
      "Ġteb": 630,
      "Ġanda": 631,
      "Ġaz": 632,
      "á¸¤": 633,
      "Ġyin": 634,
      "tin": 635,
      "ala": 636,
      "Ġter": 637,
      "Ġtura": 638,
      "Ġ?": 639,
      "ĠÉ£ur": 640,
      "eá¹Ľ": 641,
      "ĠÆĶ": 642,
      "nneÉ£": 643,
      "ddart": 644,
      "bedd": 645,
      "ej": 646,
      "gara": 647,
      "ĠtÉ£": 648,
      "Ġtmurt": 649,
      "Ġwis": 650,
      "qa": 651,
      "ĠAm": 652,
      "if": 653,
      "Ġuf": 654,
      "Ġllan": 655,
      "Ġmaca": 656,
      "gen": 657,
      ").": 658,
      "mir": 659,
      "sent": 660,
      "Ġ19": 661,
      "ĠiÉ£": 662,
      "uq": 663,
      "Ġtaz": 664,
      "leá¸į": 665,
      "Ġwu": 666,
      "ĠtaÉ£": 667,
      "ĠZ": 668,
      "ĠdaÉ£en": 669,
      "re": 670,
      "Ġ3": 671,
      "int": 672,
      "Ġtis": 673,
      "Ġyenna": 674,
      "nit": 675,
      "Ġtaddart": 676,
      "est": 677,
      "Â»,": 678,
      "ric": 679,
      "iyi": 680,
      "yett": 681,
      "ub": 682,
      "iwin": 683,
      "brid": 684,
      "Ġwal": 685,
      "za": 686,
      "Ġwakken": 687,
      "Ġ20": 688,
      "á¹£á¹£": 689,
      "rab": 690,
      "Ġá¸¤": 691,
      "Ġtan": 692,
      "Ġame": 693,
      "zu": 694,
      "edda": 695,
      "lis": 696,
      "Ġaf": 697,
      "Ġda": 698,
      "eggas": 699,
      "wan": 700,
      "É£i": 701,
      "Ġba": 702,
      "ĠtmaziÉ£t": 703,
      "Ġcc": 704,
      "Ġ!": 705,
      "á¸įris": 706,
      "Ġdu": 707,
      "Ġtay": 708,
      "á¹Ńá¹Ńut": 709,
      "wit": 710,
      "),": 711,
      "Ġamek": 712,
      "ger": 713,
      "rar": 714,
      "ebbi": 715,
      "Ġnekk": 716,
      "Ġnetta": 717,
      "Ġtew": 718,
      "Ġtess": 719,
      "ines": 720,
      "mezwar": 721,
      "Ġtaf": 722,
      "ct": 723,
      "Ġtam": 724,
      "Ġdd": 725,
      "Ġtid": 726,
      "Ġtame": 727,
      "Ġleq": 728,
      "emt": 729,
      "Ġacku": 730,
      "Ġtik": 731,
      "mawen": 732,
      "ili": 733,
      "ali": 734,
      "Ġakka": 735,
      "á¸¥a": 736,
      "Ġilaq": 737,
      "Ġtud": 738,
      "á¸¥ric": 739,
      "fu": 740,
      "erra": 741,
      "reá¸į": 742,
      "gaz": 743,
      "ĠTas": 744,
      "Ġqq": 745,
      "ÉĽan": 746,
      "Ġisem": 747,
      "Ġulac": 748,
      "Ġala": 749,
      "áºĵáºĵ": 750,
      "meslay": 751,
      "Ġazal": 752,
      "nen": 753,
      "om": 754,
      "á¸¥al": 755,
      "Ġá¹": 756,
      "Ġud": 757,
      "ĠteÉ£": 758,
      "zik": 759,
      "namek": 760,
      "ĠiÉĽ": 761,
      "Ġteg": 762,
      "ayt": 763,
      "nat": 764,
      "ĠmaÄįÄįi": 765,
      "Ġat": 766,
      "Ġtar": 767,
      "Ġyew": 768,
      "gi": 769,
      "Ġaya": 770,
      "erru": 771,
      "fen": 772,
      "ab": 773,
      "aÉĽ": 774,
      "Ġuz": 775,
      "Ġnniá¸įen": 776,
      "ĠMi": 777,
      "Ġ4": 778,
      "dden": 779,
      "ĠdÉ£a": 780,
      "Ġix": 781,
      "Ġiz": 782,
      "ĠIs": 783,
      "Ġiman": 784,
      "É£al": 785,
      "cen": 786,
      "les": 787,
      "dam": 788,
      "end": 789,
      "efk": 790,
      "Ġiw": 791,
      "Ġá¹Ńá¹Ń": 792,
      "yu": 793,
      "eww": 794,
      "uren": 795,
      "zan": 796,
      "ult": 797,
      "Ġtella": 798,
      "Ġwawal": 799,
      "awi": 800,
      "ekka": 801,
      "Ġiá¸¥": 802,
      "awalen": 803,
      "ĠG": 804,
      "Ġ/": 805,
      "Ġï": 806,
      "Ġzik": 807,
      "err": 808,
      "fan": 809,
      "lal": 810,
      "Ġbelli": 811,
      "iwen": 812,
      "Ġleá¸¥": 813,
      "Ġwass": 814,
      "ĠH": 815,
      "Ġtim": 816,
      "eÄįÄį": 817,
      "ou": 818,
      "Ġtmu": 819,
      "É£er": 820,
      "ini": 821,
      "Ġaq": 822,
      "ĠleÉĽ": 823,
      "á¸įt": 824,
      "Ġ;": 825,
      "Ġtug": 826,
      "qu": 827,
      "Ġya": 828,
      "ufa": 829,
      "medyaz": 830,
      "Ġyeqq": 831,
      "yan": 832,
      "áºĵri": 833,
      "uk": 834,
      "ib": 835,
      "É£an": 836,
      "reÉ£": 837,
      "danen": 838,
      "Ġiwa": 839,
      "leÉ£": 840,
      "gan": 841,
      "á¸įa": 842,
      "unt": 843,
      "awen": 844,
      "feÉ£": 845,
      "eggasen": 846,
      "ĠAn": 847,
      "Ġtudert": 848,
      "Ġuseggas": 849,
      "irt": 850,
      "Ġwar": 851,
      "rit": 852,
      "Ġsnat": 853,
      "Ġyemma": 854,
      "uri": 855,
      "Ġwas": 856,
      "ray": 857,
      "Ġâ": 858,
      "tti": 859,
      "wt": 860,
      "mud": 861,
      "Ġwi": 862,
      "ect": 863,
      "Ġtf": 864,
      "qqran": 865,
      "Ġdin": 866,
      "Ġ5": 867,
      "aru": 868,
      "ĠP": 869,
      "ekla": 870,
      "Ġtira": 871,
      "lu": 872,
      "sit": 873,
      "yag": 874,
      "was": 875,
      "cem": 876,
      "Ġ[": 877,
      "ĠDi": 878,
      "Ġwan": 879,
      "ben": 880,
      "Ġtaqbaylit": 881,
      "itt": 882,
      "ĠAmek": 883,
      "Ġyerna": 884,
      "ey": 885,
      "eÇ§Ç§": 886,
      "rin": 887,
      "alt": 888,
      "ssan": 889,
      "Ġnes": 890,
      "nes": 891,
      "ebb": 892,
      "ĠMuá¸¥": 893,
      "Ġj": 894,
      "st": 895,
      "udd": 896,
      "Ġleb": 897,
      "res": 898,
      "Ġlx": 899,
      "ĠTizi": 900,
      "xef": 901,
      "ĠyesÉĽa": 902,
      "ĠtaÉĽ": 903,
      "Ġig": 904,
      "elmaden": 905,
      "00": 906,
      "ayer": 907,
      "mar": 908,
      "Ġwaá¹Ńas": 909,
      "Ġyen": 910,
      "á¸įan": 911,
      "Ġyekk": 912,
      "Ġul": 913,
      "mut": 914,
      "ĠyuÉ£al": 915,
      "Ġlq": 916,
      "Ġir": 917,
      "leá¸įt": 918,
      "Ġuxxam": 919,
      "Ġif": 920,
      "mezwaru": 921,
      "dat": 922,
      "Ġq": 923,
      "Ġime": 924,
      "iq": 925,
      "or": 926,
      "Ġzz": 927,
      "Ġit": 928,
      "Ġá¹£á¹£": 929,
      "wac": 930,
      "Ġtaw": 931,
      "yas": 932,
      "nut": 933,
      "Ġyili": 934,
      "Ġlem": 935,
      "ĠlÉĽ": 936,
      "Ġtig": 937,
      "ĠX": 938,
      "bay": 939,
      "lem": 940,
      "der": 941,
      "exdem": 942,
      "Ġyu": 943,
      "awin": 944,
      "rabt": 945,
      "Ġihi": 946,
      "Ġbaba": 947,
      "Ġlex": 948,
      "Ġteqbaylit": 949,
      "á¹Ńa": 950,
      "ig": 951,
      "mal": 952,
      "áºĵar": 953,
      "ĠJ": 954,
      "É£li": 955,
      "Ġtma": 956,
      "ilt": 957,
      "iwant": 958,
      "ĠtalÉ£a": 959,
      "aya": 960,
      "Ġness": 961,
      "Ġacá¸¥al": 962,
      "din": 963,
      "Ġiyi": 964,
      "Ġyisem": 965,
      "Ġ6": 966,
      "Ġabrid": 967,
      "ker": 968,
      "Ġwawalen": 969,
      "Ġwak": 970,
      "yes": 971,
      "ter": 972,
      "han": 973,
      "Ġuq": 974,
      "Ġmmi": 975,
      "ÉĽna": 976,
      "Ġamezwaru": 977,
      "Ġiá¸į": 978,
      "Ġima": 979,
      "yess": 980,
      "aweá¸į": 981,
      "ewwi": 982,
      "lin": 983,
      "xedd": 984,
      "ĠE": 985,
      "way": 986,
      "ĠQ": 987,
      "ÉĽi": 988,
      "Ġyettwa": 989,
      "zz": 990,
      "emmel": 991,
      "Ġyelli": 992,
      "Ġwul": 993,
      "á¸¥en": 994,
      "yer": 995,
      "ĠyesÉĽan": 996,
      "aá¸į": 997,
      "meá¸į": 998,
      "dad": 999,
      "emmi": 1000,
      "idir": 1001,
      "liÉ£": 1002,
      "edmen": 1003,
      "Ġddu": 1004,
      "naf": 1005,
      "umi": 1006,
      "Ġyeá¹Ńá¹Ń": 1007,
      "ynut": 1008,
      "Ġtemna": 1009,
      "ers": 1010,
      "Ġtla": 1011,
      "baÉĽ": 1012,
      "Ġiwakken": 1013,
      "Ġwud": 1014,
      "Ġh": 1015,
      "Ġwaya": 1016,
      "zem": 1017,
      "Ġtaggara": 1018,
      "ĠTom": 1019,
      "xel": 1020,
      "iyen": 1021,
      "layen": 1022,
      "Ġtikk": 1023,
      "Ġtems": 1024,
      "ac": 1025,
      "eáºĵ": 1026,
      "ĠUla": 1027,
      "sist": 1028,
      "rir": 1029,
      "ro": 1030,
      "ĠAkken": 1031,
      "ara": 1032,
      "nadi": 1033,
      "ĠAr": 1034,
      "ĠtuÉ£al": 1035,
      "Ġtili": 1036,
      "isen": 1037,
      "Ġyir": 1038,
      "Ġtmeá¹Ńá¹Ńut": 1039,
      "daÉ£": 1040,
      "ĠRebbi": 1041,
      "Ġyiseggasen": 1042,
      "Ġic": 1043,
      "ĠBu": 1044,
      "Ġnez": 1045,
      "elmad": 1046,
      "mma": 1047,
      "medyazt": 1048,
      "le": 1049,
      "qen": 1050,
      "Ã¨": 1051,
      "efra": 1052,
      "xdem": 1053,
      "wara": 1054,
      "Ġtmetti": 1055,
      "Ġaw": 1056,
      "idi": 1057,
      "deg": 1058,
      "bayel": 1059,
      "beddel": 1060,
      "Ġaxxam": 1061,
      "ken": 1062,
      "hat": 1063,
      "Ġnettat": 1064,
      "nul": 1065,
      "eddi": 1066,
      "Ġ7": 1067,
      "tion": 1068,
      "Ġyeg": 1069,
      "Ġarmi": 1070,
      "ezzayer": 1071,
      "nniá¸įen": 1072,
      "Ġtn": 1073,
      "mend": 1074,
      "Ġwun": 1075,
      "á¹Ľa": 1076,
      "wali": 1077,
      "sentel": 1078,
      "Ġqqaren": 1079,
      "mt": 1080,
      "Ġtk": 1081,
      "ĠtiÉ£": 1082,
      "Ġ0": 1083,
      "Ġyiá¸į": 1084,
      "ion": 1085,
      "gu": 1086,
      "cic": 1087,
      "Ġtallit": 1088,
      "dÉ£a": 1089,
      "Ġger": 1090,
      "qbel": 1091,
      "hil": 1092,
      "Ġitt": 1093,
      "egz": 1094,
      "wel": 1095,
      "Ġugar": 1096,
      "rat": 1097,
      "Ġtidet": 1098,
      "ĠSi": 1099,
      "Ġmedden": 1100,
      "É£eÉ£": 1101,
      "iá¸¥": 1102,
      "baz": 1103,
      "Ġtul": 1104,
      "Ġtel": 1105,
      "Ġtá¸¥": 1106,
      "Ġteá¸¥": 1107,
      "Ġideg": 1108,
      "Ġyezmer": 1109,
      "nar": 1110,
      "Ġmazal": 1111,
      "ĠaÉĽ": 1112,
      "san": 1113,
      "âµ": 1114,
      "lam": 1115,
      "Ġyiman": 1116,
      "Ġteqq": 1117,
      "ĠtesÉĽa": 1118,
      "\".": 1119,
      "Ġkraá¸į": 1120,
      "Ġyeá¸¥": 1121,
      "Ġwaman": 1122,
      "ĠyeÉĽ": 1123,
      "Ġib": 1124,
      "cc": 1125,
      "É£ar": 1126,
      "ĠtÉĽ": 1127,
      "maÉĽ": 1128,
      "ĠÉ£as": 1129,
      "Ġuá¸įris": 1130,
      "rawt": 1131,
      "Ġtazwara": 1132,
      "Ġik": 1133,
      "effir": 1134,
      "Ġtsekla": 1135,
      "Ġtl": 1136,
      "É£ur": 1137,
      "Ġasen": 1138,
      "Ġumdan": 1139,
      "Ġyeá¸į": 1140,
      "efru": 1141,
      "Ġuk": 1142,
      "ĠTam": 1143,
      "su": 1144,
      "ĠIxef": 1145,
      "Ç§a": 1146,
      "ĠÂ».": 1147,
      "Ġ8": 1148,
      "wir": 1149,
      "ebá¸¥": 1150,
      "Ġ201": 1151,
      "mus": 1152,
      "ilin": 1153,
      "tar": 1154,
      "Ġyek": 1155,
      "ĠAy": 1156,
      "Ġtek": 1157,
      "ĠLezzayer": 1158,
      "É£u": 1159,
      "ruy": 1160,
      "imen": 1161,
      "ilen": 1162,
      "ebba": 1163,
      "hem": 1164,
      "Ġdes": 1165,
      "awt": 1166,
      "á¸įin": 1167,
      "laf": 1168,
      "á¹Ńi": 1169,
      "Ġtima": 1170,
      "uma": 1171,
      "wacult": 1172,
      "Ġtedd": 1173,
      "ĠSeg": 1174,
      "rad": 1175,
      "Ġles": 1176,
      "Ġaá¸¥": 1177,
      "eddan": 1178,
      "Ġnn": 1179,
      "Ġiq": 1180,
      "Ġumez": 1181,
      "Ġwudem": 1182,
      "Ġted": 1183,
      "Ġwayeá¸į": 1184,
      "mel": 1185,
      "Ġyismawen": 1186,
      "Ġamen": 1187,
      "efka": 1188,
      "yenna": 1189,
      "ĠAl": 1190,
      "iten": 1191,
      "te": 1192,
      "Ġyedd": 1193,
      "daw": 1194,
      "que": 1195,
      "Ġruá¸¥": 1196,
      "ĠuÉĽ": 1197,
      "Ġdeffir": 1198,
      "wala": 1199,
      "Ġameqqran": 1200,
      "Ġmeqq": 1201,
      "ĠYella": 1202,
      "fi": 1203,
      "ĠtaÉĽrabt": 1204,
      "sel": 1205,
      "bla": 1206,
      "ref": 1207,
      "ki": 1208,
      "zun": 1209,
      "ĠIÉ£": 1210,
      "ĠïĤ": 1211,
      "deÉ£": 1212,
      "uran": 1213,
      "ja": 1214,
      "dint": 1215,
      "Ġubrid": 1216,
      "ĠAss": 1217,
      "qel": 1218,
      "fel": 1219,
      "cah": 1220,
      "ari": 1221,
      "beá¸¥": 1222,
      "Ġwussan": 1223,
      "ÉĽen": 1224,
      "Ġax": 1225,
      "rif": 1226,
      "ner": 1227,
      "gar": 1228,
      "yaá¸į": 1229,
      "Ġyil": 1230,
      "ĠTt": 1231,
      "Ġtikkelt": 1232,
      "ch": 1233,
      "ĠyeÄįÄį": 1234,
      "ĠsÉĽ": 1235,
      "inist": 1236,
      "bar": 1237,
      "Ġtaq": 1238,
      "Ġiruá¸¥": 1239,
      "ĠAg": 1240,
      "ransist": 1241,
      "dud": 1242,
      "Ġá¹Ľ": 1243,
      "ĠTan": 1244,
      "Ġ'": 1245,
      "ÆĲ": 1246,
      "eddu": 1247,
      "Ġtenna": 1248,
      "weá¸į": 1249,
      "mezdaÉ£": 1250,
      "nt": 1251,
      "ĠAá¹Ńas": 1252,
      "erbaz": 1253,
      "Ġyec": 1254,
      "Ġtameá¹Ńá¹Ńut": 1255,
      "mezwarut": 1256,
      "Ġ*": 1257,
      "gun": 1258,
      "teq": 1259,
      "Ġdaxel": 1260,
      "Ġungal": 1261,
      "meslayen": 1262,
      "Ġ9": 1263,
      "Ġá¹Ń": 1264,
      "Ġwamek": 1265,
      "Ġddunit": 1266,
      "ast": 1267,
      "bel": 1268,
      "Ġkk": 1269,
      "Ġtir": 1270,
      "mis": 1271,
      "nin": 1272,
      "Ġmli": 1273,
      "ĠladÉ£a": 1274,
      "ĠtamaziÉ£t": 1275,
      "kka": 1276,
      "ure": 1277,
      "ferd": 1278,
      "Ġtif": 1279,
      "riÉ£": 1280,
      "ĠAz": 1281,
      "dic": 1282,
      "Ġtayri": 1283,
      "ment": 1284,
      "get": 1285,
      "ĠÆĶef": 1286,
      "Ġá¹¬": 1287,
      "Ġyettili": 1288,
      "Ġusel": 1289,
      "nuÉ£": 1290,
      "áºĵi": 1291,
      "rayt": 1292,
      "ce": 1293,
      "ĠyeÇ§Ç§": 1294,
      "git": 1295,
      "gay": 1296,
      "ĠkeÄįÄį": 1297,
      "ĠYett": 1298,
      "niÉ£": 1299,
      "Ġasmi": 1300,
      "ĠlÇ§": 1301,
      "Ġyewwi": 1302,
      "Ġwungal": 1303,
      "É£iÉ£": 1304,
      "rum": 1305,
      "rem": 1306,
      "egga": 1307,
      "áºĵer": 1308,
      "Ġ10": 1309,
      "Ġdayen": 1310,
      "Ġneb": 1311,
      "Ġcwi": 1312,
      "yez": 1313,
      "Ġteq": 1314,
      "ĠIhi": 1315,
      "Ġtz": 1316,
      "ĠAma": 1317,
      "edÉ£eÉ£": 1318,
      "ĠAc": 1319,
      "ĠIl": 1320,
      "qbayli": 1321,
      "ĠTim": 1322,
      "wlan": 1323,
      "uc": 1324,
      "Ġtab": 1325,
      "ĠyeÉ£": 1326,
      "Ġ200": 1327,
      "Ġyif": 1328,
      "gt": 1329,
      "nnes": 1330,
      "naw": 1331,
      "á¹Ńuá¸¥": 1332,
      "Ġá¹ļ": 1333,
      "Ġnaf": 1334,
      "ĠYenna": 1335,
      "uá¸į": 1336,
      "ĠAk": 1337,
      "yel": 1338,
      "ĠLa": 1339,
      "cahut": 1340,
      "Ġtad": 1341,
      "ĠMaca": 1342,
      "Ġyed": 1343,
      "Ġtamezwarut": 1344,
      "beÉĽ": 1345,
      "Ġmebla": 1346,
      "Ġunamek": 1347,
      "mert": 1348,
      "Ġanamek": 1349,
      "our": 1350,
      "ĠyebÉ£a": 1351,
      "rac": 1352,
      "Ġtil": 1353,
      "cict": 1354,
      "anen": 1355,
      "Ġmliá¸¥": 1356,
      "Ġwasmi": 1357,
      "hu": 1358,
      "Ġminist": 1359,
      "fir": 1360,
      "ĠyiÉ£": 1361,
      "Ġtiz": 1362,
      "meÉĽ": 1363,
      "mil": 1364,
      "nal": 1365,
      "qi": 1366,
      "tu": 1367,
      "Ġlá¸¥al": 1368,
      "Ġuc": 1369,
      "Ġamkan": 1370,
      "eqqar": 1371,
      "urar": 1372,
      "laÉ£": 1373,
      "ic": 1374,
      "ĠLeq": 1375,
      "ĠMuá¸¥end": 1376,
      "ĠAyen": 1377,
      "Ġyima": 1378,
      "Ġargaz": 1379,
      "Ġtayeá¸į": 1380,
      "Ġtutlayin": 1381,
      "mit": 1382,
      "udam": 1383,
      "Ġgma": 1384,
      "ĠTag": 1385,
      "ĠTaw": 1386,
      "Ġtila": 1387,
      "far": 1388,
      "Ġtaá¸¥": 1389,
      "Ġumata": 1390,
      "É£iá¸į": 1391,
      "Ġusen": 1392,
      "yar": 1393,
      "ani": 1394,
      "ĠFran": 1395,
      "bad": 1396,
      "ĠÇ": 1397,
      "alay": 1398,
      "erd": 1399,
      "sab": 1400,
      "Ġlqa": 1401,
      "Ġalmi": 1402,
      "á¸įi": 1403,
      "Ġlw": 1404,
      "kel": 1405,
      "Ġtg": 1406,
      "nam": 1407,
      "Ġani": 1408,
      "ebd": 1409,
      "ĠSidi": 1410,
      "enf": 1411,
      "Ġtak": 1412,
      "rus": 1413,
      "Ġleh": 1414,
      "Ġbu": 1415,
      "ukk": 1416,
      "ĠNekk": 1417,
      "Ġyerzan": 1418,
      "eqqa": 1419,
      "qt": 1420,
      "Ġwem": 1421,
      "Ġtamurt": 1422,
      "zer": 1423,
      "ĠAwal": 1424,
      "Ġtent": 1425,
      "ewweá¸į": 1426,
      "awsa": 1427,
      "ebá¸¥it": 1428,
      "waÉ£": 1429,
      "ĠTaz": 1430,
      "wurt": 1431,
      "Ġyexdem": 1432,
      "É£el": 1433,
      "Ġudem": 1434,
      "bir": 1435,
      "Ġtwacult": 1436,
      "nsent": 1437,
      "cix": 1438,
      "Ġahat": 1439,
      "xeddim": 1440,
      "iá¸įen": 1441,
      "Ġcwiá¹Ń": 1442,
      "ÉĻ": 1443,
      "á¸¥t": 1444,
      "á¹£a": 1445,
      "Ġnufa": 1446,
      "Ġamdan": 1447,
      "Ġams": 1448,
      "nas": 1449,
      "ens": 1450,
      "waÇ§": 1451,
      "19": 1452,
      "ebÉĽa": 1453,
      "áºĴ": 1454,
      "Ġiwumi": 1455,
      "Ãª": 1456,
      "áºĵra": 1457,
      "yirt": 1458,
      "Ã¢": 1459,
      "ĠWin": 1460,
      "ĠIsem": 1461,
      "ĠDÉ£a": 1462,
      "Ġtaá¹£": 1463,
      "ĠtÉ£iwant": 1464,
      "Ġleqdic": 1465,
      "dit": 1466,
      "sut": 1467,
      "kayt": 1468,
      "Ġtmedyazt": 1469,
      "wura": 1470,
      "nag": 1471,
      "emres": 1472,
      "Ġtamu": 1473,
      "Ġyelhan": 1474,
      "Ġtuf": 1475,
      "Ġafus": 1476,
      "Ġwad": 1477,
      "Ġaman": 1478,
      "Ġuá¸į": 1479,
      "á¹Ľen": 1480,
      "ĠuÉ£erbaz": 1481,
      "Ġtruá¸¥": 1482,
      "ĠIm": 1483,
      "Ġtx": 1484,
      "Ġyefka": 1485,
      "Ġuga": 1486,
      "Ġyettwas": 1487,
      "nun": 1488,
      "\",": 1489,
      "uft": 1490,
      "reá¸¥": 1491,
      "maziÉ£en": 1492,
      "Ġyimdanen": 1493,
      "ras": 1494,
      "bal": 1495,
      "Ġet": 1496,
      "Ġtec": 1497,
      "Ġtime": 1498,
      "Ġufus": 1499,
      "Ġáºĵ": 1500,
      "Ġleqbayel": 1501,
      "eddem": 1502,
      "lisen": 1503,
      "niwin": 1504,
      "ation": 1505,
      "Ġyidles": 1506,
      "Ġ+": 1507,
      "ezzi": 1508,
      "inu": 1509,
      "Ġwer": 1510,
      "ddit": 1511,
      "gazen": 1512,
      "Ġyakk": 1513,
      "emren": 1514,
      "aá¹Ń": 1515,
      "â´": 1516,
      "Ġsem": 1517,
      "Ġwazal": 1518,
      "ina": 1519,
      "Ġuqbel": 1520,
      "jj": 1521,
      "qran": 1522,
      "ezzu": 1523,
      "cid": 1524,
      "Ġume": 1525,
      "Ġ18": 1526,
      "dec": 1527,
      "Ġagi": 1528,
      "ĠIn": 1529,
      "ÉĽaw": 1530,
      "ire": 1531,
      "tett": 1532,
      "mas": 1533,
      "Ġumawal": 1534,
      "assen": 1535,
      "Ġwag": 1536,
      "á¸įrisen": 1537,
      "effeÉ£": 1538,
      "Ġsdat": 1539,
      "rib": 1540,
      "Ġamzun": 1541,
      "kar": 1542,
      "lalen": 1543,
      "Ġyinelmaden": 1544,
      "Ġimir": 1545,
      "Ġuáºĵ": 1546,
      "Ġnem": 1547,
      "Ġamenzu": 1548,
      "Ġnezmer": 1549,
      "nem": 1550,
      "Ġv": 1551,
      "Ġtemnaá¸įt": 1552,
      "Ġuá¸¥ric": 1553,
      "Ġtaj": 1554,
      "bib": 1555,
      "ĠUn": 1556,
      "eá¹Ńá¹Ńa": 1557,
      "duk": 1558,
      "garaden": 1559,
      "Ġyakan": 1560,
      "ĠO": 1561,
      "Ġuss": 1562,
      "Ġzdat": 1563,
      "20": 1564,
      "Ġtáºĵ": 1565,
      "sin": 1566,
      "Ġkul": 1567,
      "ĠsÉ£ur": 1568,
      "Ġurgaz": 1569,
      "Ġnek": 1570,
      "ĠyuÉ£": 1571,
      "Ġij": 1572,
      "eqda": 1573,
      "alit": 1574,
      "ĠMo": 1575,
      "ĠTaf": 1576,
      "Ġwumi": 1577,
      "ram": 1578,
      "awit": 1579,
      "Ġtmer": 1580,
      "Ġyig": 1581,
      "Ġwiyaá¸į": 1582,
      "ĠFransa": 1583,
      "Ġtekk": 1584,
      "Ġlba": 1585,
      "ĠÆĶer": 1586,
      "Ġïĥ": 1587,
      "Ġkem": 1588,
      "lus": 1589,
      "Ġwam": 1590,
      "hen": 1591,
      "Ġwakud": 1592,
      "las": 1593,
      "Ġicu": 1594,
      "ĠTal": 1595,
      "Ġuá¸¥": 1596,
      "ellid": 1597,
      "ĠÄįÄį": 1598,
      "Ġyemmut": 1599,
      "Ġtimawit": 1600,
      "Ġyeqqim": 1601,
      "ebbu": 1602,
      "ĠLlan": 1603,
      "Ġnut": 1604,
      "Ġmu": 1605,
      "Ġimen": 1606,
      "ĠAq": 1607,
      "Ġiban": 1608,
      "Ġxas": 1609,
      "ĠBen": 1610,
      "Ġsyin": 1611,
      "Ġtc": 1612,
      "her": 1613,
      "Ġ11": 1614,
      "Ġdagi": 1615,
      "uss": 1616,
      "Ġsen": 1617,
      "lil": 1618,
      "Ġtq": 1619,
      "Ġiss": 1620,
      "á¸įu": 1621,
      "ĠTett": 1622,
      "Ġumyag": 1623,
      "Ġmerra": 1624,
      "á¸įal": 1625,
      "Ġ...": 1626,
      "ĠTala": 1627,
      "nect": 1628,
      "asent": 1629,
      "Ġllant": 1630,
      "Ġtaá¹£ebá¸¥it": 1631,
      "ĠSa": 1632,
      "ĠAá¸¥ric": 1633,
      "Ġwallen": 1634,
      "rÃ©": 1635,
      "sas": 1636,
      "ĠYu": 1637,
      "eá¹£": 1638,
      "Ġddaw": 1639,
      "cá¹Ńuá¸¥": 1640,
      "ĠÂ»,": 1641,
      "Ġ15": 1642,
      "Ġawalen": 1643,
      "ĠyeffeÉ£": 1644,
      "yeÇ§Ç§": 1645,
      "eá¹Ľá¹Ľ": 1646,
      "ayri": 1647,
      "ol": 1648,
      "Ġá¸į": 1649,
      "Ġnexdem": 1650,
      "Ġyerra": 1651,
      "iz": 1652,
      "Ġilmend": 1653,
      "yt": 1654,
      "Ġxedmen": 1655,
      "ÉĽu": 1656,
      "ĠYal": 1657,
      "gad": 1658,
      "meÉ£ra": 1659,
      "ĠïĤ·": 1660,
      "gayet": 1661,
      "Ġtej": 1662,
      "erf": 1663,
      "ĠÇ¦": 1664,
      "Ġ12": 1665,
      "eqt": 1666,
      "Ġtemdint": 1667,
      "Ġlf": 1668,
      "Ġtlata": 1669,
      "Ġana": 1670,
      "Ġweá¸¥": 1671,
      "ÉĽid": 1672,
      "Ġih": 1673,
      "Ġwacu": 1674,
      "ser": 1675,
      "walt": 1676,
      "Ġll": 1677,
      "Ġyura": 1678,
      "eá¸įru": 1679,
      "teqsi": 1680,
      "Ġaseggas": 1681,
      "Ġteá¸į": 1682,
      "eddun": 1683,
      "xal": 1684,
      "yef": 1685,
      "ĠÃ": 1686,
      "Ġlawan": 1687,
      "Ġusentel": 1688,
      "Ġwug": 1689,
      "ĠtalÉ£": 1690,
      "ĠYiwen": 1691,
      "eÇ§": 1692,
      "eÉ£t": 1693,
      "Ġsb": 1694,
      "elmi": 1695,
      "eqdec": 1696,
      "eur": 1697,
      "mad": 1698,
      "Ġibedd": 1699,
      "gir": 1700,
      "Ġumi": 1701,
      "ĠlebÉ£i": 1702,
      "Ġtala": 1703,
      "badut": 1704,
      "amen": 1705,
      "Ġtw": 1706,
      "ulen": 1707,
      "eddmen": 1708,
      "gur": 1709,
      "reb": 1710,
      "seÉ£": 1711,
      "let": 1712,
      "rur": 1713,
      "sul": 1714,
      "kem": 1715,
      "Ġdakken": 1716,
      "Ġwe": 1717,
      "run": 1718,
      "yekk": 1719,
      "ĠTin": 1720,
      "Ġ%": 1721,
      "Ġteá¹Ńá¹Ń": 1722,
      "Ġtudd": 1723,
      "ux": 1724,
      "wadem": 1725,
      "irem": 1726,
      "Ġbab": 1727,
      "neÉ£laf": 1728,
      "meáºĵ": 1729,
      "á¸¥u": 1730,
      "ĠImi": 1731,
      "min": 1732,
      "ziz": 1733,
      "Ġttar": 1734,
      "Ġdinna": 1735,
      "ĠSs": 1736,
      "waá¸¥": 1737,
      "Ġumezruy": 1738,
      "kant": 1739,
      "tes": 1740,
      "raá¸¥": 1741,
      "Ġyug": 1742,
      "Ġtuget": 1743,
      "raá¸į": 1744,
      "ÉĽt": 1745,
      "Ġ)": 1746,
      "ĠNett": 1747,
      "az": 1748,
      "ĠUlac": 1749,
      "ne": 1750,
      "Ġaj": 1751,
      "Ġamaru": 1752,
      "ĠBgayet": 1753,
      "Ġyiz": 1754,
      "rew": 1755,
      "siwin": 1756,
      "ĠteÄįÄį": 1757,
      "ĠteÉĽ": 1758,
      "Ġ14": 1759,
      "Ø§": 1760,
      "ĠTaÉ£": 1761,
      "Ã¨re": 1762,
      "Ġmeqqren": 1763,
      "ĠYi": 1764,
      "emmast": 1765,
      "ĠZz": 1766,
      "ah": 1767,
      "Ġab": 1768,
      "ĠAxxam": 1769,
      "Ġ199": 1770,
      "ferdisen": 1771,
      "ulin": 1772,
      "uá¹Ľ": 1773,
      "Ġtefransist": 1774,
      "Ġtams": 1775,
      "Ġá¹£": 1776,
      "ĠlaÉĽ": 1777,
      "ĠassaÉ£": 1778,
      "ejdan": 1779,
      "Ġnutni": 1780,
      "liman": 1781,
      "edmeÉ£": 1782,
      "ĠMar": 1783,
      "ĠMaÄįÄįi": 1784,
      "Ġamaynut": 1785,
      "wet": 1786,
      "emmu": 1787,
      "Ġ13": 1788,
      "ĠAb": 1789,
      "ĠtuÉ£": 1790,
      "Ġccna": 1791,
      "Ġwat": 1792,
      "Ġ198": 1793,
      "wiÉ£": 1794,
      "erna": 1795,
      "ust": 1796,
      "Ġyixef": 1797,
      "Ġanida": 1798,
      "ĠMd": 1799,
      "dim": 1800,
      "Ġá¹¢": 1801,
      "ÉĽad": 1802,
      "Ġini": 1803,
      "Ġyebda": 1804,
      "nulfu": 1805,
      "Ġniá¸įen": 1806,
      "Ġumkan": 1807,
      "Ġpro": 1808,
      "neá¸į": 1809,
      "Ġtat": 1810,
      "Ġtuss": 1811,
      "á¹Ńij": 1812,
      "ĠLeqbayel": 1813,
      "seá¸į": 1814,
      "ĠTura": 1815,
      "ĠTame": 1816,
      "Ġtemnaá¸įin": 1817,
      "fiÉ£": 1818,
      "ĠiÉ£ef": 1819,
      "ĠsÉĽan": 1820,
      "ileÉ£": 1821,
      "Ġiger": 1822,
      "afen": 1823,
      "ĠtaÉ£iwant": 1824,
      "ĠáºĴ": 1825,
      "ĠÆĶas": 1826,
      "Ġwammud": 1827,
      "erb": 1828,
      "Ġiseggasen": 1829,
      "Ġalamma": 1830,
      "ÉĽed": 1831,
      "Ġyeá¹Ńá¹Ńef": 1832,
      "raÉ£": 1833,
      "ĠYes": 1834,
      "eá¹£á¹£": 1835,
      "lent": 1836,
      "ine": 1837,
      "á¹Ńá¹Ńan": 1838,
      "nil": 1839,
      "Ġusefru": 1840,
      "Ġwarraw": 1841,
      "ĠIlaq": 1842,
      "ĠiÉĽeddan": 1843,
      "Ġrr": 1844,
      "ĠAÉ£": 1845,
      "ĠÆĲli": 1846,
      "ĠuneÉ£laf": 1847,
      "Ġtikli": 1848,
      "yant": 1849,
      "Ġaáºĵ": 1850,
      "ellu": 1851,
      "berdan": 1852,
      "rimen": 1853,
      "emmur": 1854,
      "Ġlweqt": 1855,
      "aq": 1856,
      "uÉ£en": 1857,
      "uqilt": 1858,
      "uh": 1859,
      "Ġimu": 1860,
      "ĠLá¸¥": 1861,
      "meÉ£ri": 1862,
      "zÉ£a": 1863,
      "iwelt": 1864,
      "ĠTama": 1865,
      "ĠlliÉ£": 1866,
      "ĠII": 1867,
      "Ġtafat": 1868,
      "asi": 1869,
      "ĠBel": 1870,
      "ĠtebÉ£iá¸į": 1871,
      "met": 1872,
      "ĠTu": 1873,
      "ĠTamaziÉ£t": 1874,
      "ĠtmuÉ£li": 1875,
      "Ġyex": 1876,
      "maten": 1877,
      "áºĵriÉ£": 1878,
      "list": 1879,
      "á¹Ľan": 1880,
      "ekcem": 1881,
      "allen": 1882,
      "ĠbÉ£iÉ£": 1883,
      "Ġcon": 1884,
      "cuha": 1885,
      "kt": 1886,
      "á¸įiq": 1887,
      "Ġaá¸¥ric": 1888,
      "Ġá¹Ľá¹Ľ": 1889,
      "ugen": 1890,
      "iweá¸į": 1891,
      "nteÉ£": 1892,
      "sb": 1893,
      "Ġudlis": 1894,
      "Ġwexxam": 1895,
      "):": 1896,
      "day": 1897,
      "iniÉ£": 1898,
      "ecmen": 1899,
      "Ġtic": 1900,
      "dukk": 1901,
      "Ġussan": 1902,
      "Ġty": 1903,
      "É£art": 1904,
      "rant": 1905,
      "Ġyekka": 1906,
      "Ġtj": 1907,
      "de": 1908,
      "Ġ<": 1909,
      "á¸¥ricen": 1910,
      "Ġumen": 1911,
      "Ġamez": 1912,
      "Â».": 1913,
      "ix": 1914,
      "mat": 1915,
      "ĠAÉĽ": 1916,
      "gin": 1917,
      "ĠUs": 1918,
      "baÉĽt": 1919,
      "Ġyime": 1920,
      "ellal": 1921,
      "say": 1922,
      "seb": 1923,
      "raf": 1924,
      "oo": 1925,
      "ufan": 1926,
      "Ġteáºĵ": 1927,
      "Ġteáºĵri": 1928,
      "ĠTaÉĽ": 1929,
      "ĠAf": 1930,
      "Ġlew": 1931,
      "Ġilelli": 1932,
      "lif": 1933,
      "Ġtlawin": 1934,
      "Ġwassa": 1935,
      "fÉ£en": 1936,
      "rek": 1937,
      "Ġtikwal": 1938,
      "Ġwagi": 1939,
      "essa": 1940,
      "milt": 1941,
      "eá¹Ń": 1942,
      "Ġtewwi": 1943,
      "Ġwur": 1944,
      "arut": 1945,
      "rirt": 1946,
      "garad": 1947,
      "Ġtex": 1948,
      "Ġmgal": 1949,
      "á¸įeÉ£": 1950,
      "Ġums": 1951,
      "Ġtasleá¸įt": 1952,
      "Ġ16": 1953,
      "uj": 1954,
      "ĠnneÉ£": 1955,
      "Ġtesleá¸įt": 1956,
      "tent": 1957,
      "mezwura": 1958,
      "Ġtant": 1959,
      "rt": 1960,
      "hel": 1961,
      "ĠyiÉ£er": 1962,
      "Ġaá¸įris": 1963,
      "ulud": 1964,
      "Ġismawen": 1965,
      "egzawal": 1966,
      "aá¸¥": 1967,
      "Ġá¹ļebbi": 1968,
      "lilit": 1969,
      "Ġtugna": 1970,
      "ĠnniÉ£": 1971,
      "eá¹Ńá¹Ńef": 1972,
      "ĠTar": 1973,
      "Ġadeg": 1974,
      "irin": 1975,
      "zzu": 1976,
      "iwel": 1977,
      "ĠtesÉĽ": 1978,
      "Ġlxir": 1979,
      "Ġberra": 1980,
      "ĠIÉ£il": 1981,
      "satin": 1982,
      "ĠuÉ£alen": 1983,
      "ĠAnamek": 1984,
      "iren": 1985,
      "rez": 1986,
      "Ġlmut": 1987,
      "ĠYewweá¸į": 1988,
      "Ġci": 1989,
      "ertit": 1990,
      "nwen": 1991,
      "Ġtelli": 1992,
      "Ġamedya": 1993,
      "ĠTasleá¸įt": 1994,
      "Ġtigawt": 1995,
      "yeá¸į": 1996,
      "layt": 1997,
      "Ġwadeg": 1998,
      "Ġministre": 1999,
      "ness": 2000,
      "á¹Ńan": 2001,
      "xxamt": 2002,
      "Ġyezmir": 2003,
      "Ġtmura": 2004,
      "ĠáºĵriÉ£": 2005,
      "mid": 2006,
      "Ġnnig": 2007,
      "berkan": 2008,
      "Ġyeá¸įran": 2009,
      "Ġaáºĵar": 2010,
      "anin": 2011,
      "Ġunadi": 2012,
      "mekti": 2013,
      "fali": 2014,
      "Ġwakal": 2015,
      "Ç§u": 2016,
      "ĠtamuÉ£li": 2017,
      "enni": 2018,
      "Ġimdanen": 2019,
      "efren": 2020,
      "ĠMass": 2021,
      "uqel": 2022,
      "meÉĽna": 2023,
      "Ġtergal": 2024,
      "uter": 2025,
      "Ġtagnit": 2026,
      "genni": 2027,
      "Ġweá¸¥d": 2028,
      "ÉĽer": 2029,
      "ĠAá¸¥": 2030,
      "Ġkemm": 2031,
      "Ġssuq": 2032,
      "ÉĽin": 2033,
      "ĠleÉĽmer": 2034,
      "bed": 2035,
      "Ġumaá¸įal": 2036,
      "''": 2037,
      "cum": 2038,
      "qay": 2039,
      "sif": 2040,
      "Ġyufa": 2041,
      "Ġttem": 2042,
      "Ġtib": 2043,
      "hal": 2044,
      "Ç§in": 2045,
      "ĠKra": 2046,
      "Ġlk": 2047,
      "Ġtiw": 2048,
      "Ġïĥĺ": 2049,
      "Ġnsen": 2050,
      "Ġub": 2051,
      "Ġuáºĵar": 2052,
      "latin": 2053,
      "awsiwin": 2054,
      "ufeÉ£": 2055,
      "lant": 2056,
      "sum": 2057,
      "Ġen": 2058,
      "Ġyekcem": 2059,
      "ama": 2060,
      "damen": 2061,
      "ĠCcix": 2062,
      "ima": 2063,
      "ER": 2064,
      "Ġtac": 2065,
      "ĠTes": 2066,
      "É£unt": 2067,
      "meá¸¥": 2068,
      "eáºĵáºĵ": 2069,
      "yefk": 2070,
      "nawen": 2071,
      "sental": 2072,
      "Ġyiwudam": 2073,
      "....": 2074,
      "ĠimezdaÉ£": 2075,
      "ĠzedÉ£eÉ£": 2076,
      "Ġ17": 2077,
      "Ġá¸¤med": 2078,
      "zt": 2079,
      "ĠneÉĽ": 2080,
      "ĠSaÉĽ": 2081,
      "Ġtamen": 2082,
      "baá¸¥": 2083,
      "akin": 2084,
      "Ġyemgaraden": 2085,
      "Ġasentel": 2086,
      "ÆĶ": 2087,
      "yem": 2088,
      "alu": 2089,
      "ĠtÉ£a": 2090,
      "Ġunti": 2091,
      "ĠV": 2092,
      "raren": 2093,
      "beÉ£": 2094,
      "Ġudd": 2095,
      "ririt": 2096,
      "xeddem": 2097,
      "sayen": 2098,
      "kit": 2099,
      "Ġanwa": 2100,
      "Ġicudden": 2101,
      "rut": 2102,
      "riqt": 2103,
      "lat": 2104,
      "Ġtarrayt": 2105,
      "se": 2106,
      "rud": 2107,
      "ĠyeÉĽnan": 2108,
      "Ġamalay": 2109,
      "Ġayagi": 2110,
      "Ġtmes": 2111,
      "nerni": 2112,
      "neb": 2113,
      "ĠAcu": 2114,
      "bes": 2115,
      "ĠYess": 2116,
      "xxamen": 2117,
      "ĠSliman": 2118,
      "Ĺı": 2119,
      "Ġyeqqar": 2120,
      "del": 2121,
      "Ġaqbayli": 2122,
      "Ġtefyirt": 2123,
      "ĠDda": 2124,
      "á¹£er": 2125,
      "Ġyezga": 2126,
      "ĠTiÉ£": 2127,
      "Ġyewweá¸į": 2128,
      "edÉ£en": 2129,
      "kul": 2130,
      "ĠSal": 2131,
      "á¹£el": 2132,
      "uÉ£alen": 2133,
      "wes": 2134,
      "Ġ$": 2135,
      "á¹Ńel": 2136,
      "eqqim": 2137,
      "Ġyettw": 2138,
      "Ġimawlan": 2139,
      "hed": 2140,
      "nini": 2141,
      "Ġtilawt": 2142,
      "yul": 2143,
      "eld": 2144,
      "Ġlu": 2145,
      "dawit": 2146,
      "qed": 2147,
      "emmat": 2148,
      "bin": 2149,
      "hwa": 2150,
      "ezmer": 2151,
      "rart": 2152,
      "sis": 2153,
      "ement": 2154,
      "Ġuselmed": 2155,
      "Ġwaddad": 2156,
      "tess": 2157,
      "Ġallen": 2158,
      "lah": 2159,
      "meslayt": 2160,
      "aÉ£t": 2161,
      "Ġtawsit": 2162,
      "Ġteqqim": 2163,
      "zemreá¸į": 2164,
      "bur": 2165,
      "eá¹Ńá¹Ńal": 2166,
      "emmer": 2167,
      "iá¹Ľ": 2168,
      "Ġyimu": 2169,
      "Ġyisefra": 2170,
      "eá¸įruyen": 2171,
      "Ġakkin": 2172,
      "ĠnesÉĽi": 2173,
      "aleÉ£": 2174,
      "Ġtimu": 2175,
      "Ġtwal": 2176,
      "ĠamaziÉ£": 2177,
      "ecc": 2178,
      "nek": 2179,
      "Ġumaru": 2180,
      "Ġca": 2181,
      "á¸¥er": 2182,
      "uddem": 2183,
      "feá¸į": 2184,
      "eggaru": 2185,
      "ĠteÉ£zi": 2186,
      "dak": 2187,
      "ction": 2188,
      "eyy": 2189,
      "Ġtmacahut": 2190,
      "Ġyemdanen": 2191,
      "Ġyettidir": 2192,
      "Ġyet": 2193,
      "OU": 2194,
      "Ġtezrawt": 2195,
      "Ġtikelt": 2196,
      "egzi": 2197,
      "imt": 2198,
      "ĠAkli": 2199,
      "É£aren": 2200,
      "ĠZzedÉ£eÉ£": 2201,
      "AL": 2202,
      "qamu": 2203,
      "Ġyimi": 2204,
      "net": 2205,
      "Ġufella": 2206,
      "Ġtegnit": 2207,
      "Ġtun": 2208,
      "Ġtullist": 2209,
      "Ġasuf": 2210,
      "Ġlek": 2211,
      "awá¸įen": 2212,
      "Ġtur": 2213,
      "Ġwarrac": 2214,
      "iÉĽ": 2215,
      "rent": 2216,
      "au": 2217,
      "Ġumezgun": 2218,
      "laya": 2219,
      "Ġyessen": 2220,
      "Ġyeq": 2221,
      "eqs": 2222,
      "Ġtsedd": 2223,
      "ĠTis": 2224,
      "Ġtus": 2225,
      "Ġixeddem": 2226,
      "ĠQq": 2227,
      "Ġuqerru": 2228,
      "zin": 2229,
      "Ġtezga": 2230,
      "Ġines": 2231,
      "medyaten": 2232,
      "Ç§Ç§a": 2233,
      "ĠyimezdaÉ£": 2234,
      "qqrant": 2235,
      "emmed": 2236,
      "Ġugafa": 2237,
      "eqdac": 2238,
      "Â«": 2239,
      "sulÉ£a": 2240,
      "yagen": 2241,
      "tta": 2242,
      "aá¹Ńer": 2243,
      "EN": 2244,
      "á¸Į": 2245,
      "ĠAkka": 2246,
      "ebdu": 2247,
      "Ã®": 2248,
      "Ġlá¸¥if": 2249,
      "yini": 2250,
      "rawla": 2251,
      "Ġteá¸¥kayt": 2252,
      "Ġnnan": 2253,
      "mirt": 2254,
      "Ġlexla": 2255,
      "ĠYidir": 2256,
      "Ġagejdan": 2257,
      "Ġukk": 2258,
      "á¹Ľuá¸¥": 2259,
      "Ç§Ç§an": 2260,
      "ader": 2261,
      "nawt": 2262,
      "op": 2263,
      "á¸¥i": 2264,
      "zit": 2265,
      "fed": 2266,
      "rak": 2267,
      "falit": 2268,
      "hegg": 2269,
      "sef": 2270,
      "ĠMary": 2271,
      "áºĵul": 2272,
      "emmleÉ£": 2273,
      "lec": 2274,
      "raq": 2275,
      "Ġner": 2276,
      "Ġazekka": 2277,
      "Ġaqerru": 2278,
      "yellan": 2279,
      "Ġiáºĵ": 2280,
      "Ġáºĵáºĵ": 2281,
      "ĠAsmi": 2282,
      "awan": 2283,
      "Ġtims": 2284,
      "naÉ£": 2285,
      "Ġannect": 2286,
      "Ġruá¸¥eÉ£": 2287,
      "Ġlma": 2288,
      "Ġyezrin": 2289,
      "Ġtagara": 2290,
      "Ġtewwurt": 2291,
      "ĨĴ": 2292,
      "Ġumu": 2293,
      "Ġsur": 2294,
      "dduk": 2295,
      "As": 2296,
      "yew": 2297,
      "Ġtwi": 2298,
      "Ġtmen": 2299,
      "iwt": 2300,
      "Ġnt": 2301,
      "ebtar": 2302,
      "kin": 2303,
      "ale": 2304,
      "ĠÆĲebd": 2305,
      "Ta": 2306,
      "ufi": 2307,
      "Ġnekkni": 2308,
      "nÃ©": 2309,
      "Ġne": 2310,
      "amul": 2311,
      "Ġtlemmast": 2312,
      "ferá¸¥": 2313,
      "wer": 2314,
      "erá¸¥": 2315,
      "Ġyetta": 2316,
      "ĠxedmeÉ£": 2317,
      "Ġ{": 2318,
      "Ġtettili": 2319,
      "yefkan": 2320,
      "Ġlec": 2321,
      "ÉĽedda": 2322,
      "Ġssa": 2323,
      "Ġadlis": 2324,
      "ĠTef": 2325,
      "Ġtameqqrant": 2326,
      "yit": 2327,
      "Ġuj": 2328,
      "ĠTmaziÉ£t": 2329,
      "Ġlwi": 2330,
      "Ġtm": 2331,
      "ulfan": 2332,
      "Ġttwa": 2333,
      "ĠlqaÉĽa": 2334,
      "uffeÉ£": 2335,
      "rawen": 2336,
      "dammen": 2337,
      "MA": 2338,
      "naá¸įt": 2339,
      "ĠtebÉ£a": 2340,
      "ÙĦ": 2341,
      "ĠuÉ£lif": 2342,
      "elá¸¥": 2343,
      "baá¸¥a": 2344,
      "lib": 2345,
      "Ġttwal": 2346,
      "emmas": 2347,
      "awa": 2348,
      "mekt": 2349,
      "ĠâĹı": 2350,
      "Ġisefra": 2351,
      "ĠmeÉĽna": 2352,
      "Ġyernu": 2353,
      "ĠlÉ£a": 2354,
      "Ġzzit": 2355,
      "lel": 2356,
      "Ġha": 2357,
      "Ġneg": 2358,
      "Ġtiá¹Ń": 2359,
      "Ġinelmaden": 2360,
      "Ġfella": 2361,
      "Ġakud": 2362,
      "Ġá¹£á¹£enf": 2363,
      "RA": 2364,
      "Ġaá¸į": 2365,
      "rag": 2366,
      "wat": 2367,
      "yya": 2368,
      "gired": 2369,
      "Ġatt": 2370,
      "Ġlá¸¥a": 2371,
      "eyya": 2372,
      "rawin": 2373,
      "arin": 2374,
      "edma": 2375,
      "Ġbedd": 2376,
      "Ġyennayer": 2377,
      "muq": 2378,
      "ĠAcá¸¥al": 2379,
      "lul": 2380,
      "ĠÃ©": 2381,
      "nnig": 2382,
      "Ġxeddmen": 2383,
      "Ġtamedyazt": 2384,
      "Ġyiá¸įrisen": 2385,
      "xedmen": 2386,
      "raz": 2387,
      "á¹£ib": 2388,
      "Ġubeddel": 2389,
      "ssa": 2390,
      "iban": 2391,
      "Ġsek": 2392,
      "Ġtewsatin": 2393,
      "Ġuxeddim": 2394,
      "unin": 2395,
      "ĠyebÉ£an": 2396,
      "qer": 2397,
      "arren": 2398,
      "Ġ''": 2399,
      "Ġtmerna": 2400,
      "sem": 2401,
      "yeg": 2402,
      "isa": 2403,
      "eá¹Ńá¹Ńalen": 2404,
      "Ġmelmi": 2405,
      "10": 2406,
      "Ġtudrin": 2407,
      "ĠteÉ£ri": 2408,
      "remt": 2409,
      "á¹Ńu": 2410,
      "Ġyimawlan": 2411,
      "wiÉĽt": 2412,
      "ekker": 2413,
      "Ġilem": 2414,
      "Ġtefsut": 2415,
      "inek": 2416,
      "Ġmeáºĵáºĵ": 2417,
      "ji": 2418,
      "ĠTili": 2419,
      "tut": 2420,
      "yewwi": 2421,
      "Ġwen": 2422,
      "Ġttaw": 2423,
      "ĠØ": 2424,
      "Ġamyag": 2425,
      "utlayt": 2426,
      "ĠtÉ£awsa": 2427,
      "ferdis": 2428,
      "yus": 2429,
      "Ġrnu": 2430,
      "aken": 2431,
      "ĠleÉĽqel": 2432,
      "ĠBa": 2433,
      "ret": 2434,
      "á¹Ńeq": 2435,
      "che": 2436,
      "Ġtfekka": 2437,
      "Ġiswi": 2438,
      "gel": 2439,
      "ĠTub": 2440,
      "ekkes": 2441,
      "req": 2442,
      "Ġuna": 2443,
      "Ġakin": 2444,
      "uz": 2445,
      "rest": 2446,
      "Ġakal": 2447,
      "emmad": 2448,
      "uct": 2449,
      "yal": 2450,
      "Ġth": 2451,
      "Ġweb": 2452,
      "tas": 2453,
      "Ġruá¸¥en": 2454,
      "bas": 2455,
      "beá¸į": 2456,
      "eÉ£li": 2457,
      "Ġ25": 2458,
      "aneÉ£": 2459,
      "Ġmaá¸įi": 2460,
      "Ġyuran": 2461,
      "ĠAáºĵar": 2462,
      "galen": 2463,
      "Ġlmu": 2464,
      "ĠTeb": 2465,
      "Ġilin": 2466,
      "zizen": 2467,
      "har": 2468,
      "ĠTug": 2469,
      "ĠMas": 2470,
      "eggarut": 2471,
      "fun": 2472,
      "ĠMen": 2473,
      "Ġtemsalt": 2474,
      "Ġamur": 2475,
      "Ġtta": 2476,
      "ĠWezzu": 2477,
      "Ġifa": 2478,
      "ĠAmedya": 2479,
      "ĠGar": 2480,
      "yeÇ§Ç§an": 2481,
      "Ġimes": 2482,
      "Ġifer": 2483,
      "eggaÉ£": 2484,
      "natin": 2485,
      "dabu": 2486,
      "ĠIsmawen": 2487,
      "ev": 2488,
      "nayen": 2489,
      "ĠministÃ¨re": 2490,
      "meáºĵyen": 2491,
      "Ad": 2492,
      "eft": 2493,
      "aten": 2494,
      "ĠyeÇ§Ç§a": 2495,
      "ĠyeÉ£li": 2496,
      "ĠNniÉ£": 2497,
      "Ġsrid": 2498,
      "Ġatan": 2499,
      "rim": 2500,
      "Ġamatu": 2501,
      "mireÉ£": 2502,
      "iden": 2503,
      "Ġasel": 2504,
      "Ġaneggaru": 2505,
      "laá¸¥": 2506,
      "ĠyettuÉ£al": 2507,
      "uddes": 2508,
      "sub": 2509,
      "uÉ£er": 2510,
      "elle": 2511,
      "Ġrray": 2512,
      "Ġtalwit": 2513,
      "iá¸¥ala": 2514,
      "siwen": 2515,
      "Ġiá¸¥emmel": 2516,
      "allet": 2517,
      "Ġtexxamt": 2518,
      "Ġtikti": 2519,
      "Ġe": 2520,
      "Ġtami": 2521,
      "Ġ195": 2522,
      "ĠMÉĽ": 2523,
      "ĠdiÉ£en": 2524,
      "ĠSyin": 2525,
      "leb": 2526,
      "ĠTella": 2527,
      "yeqq": 2528,
      "Ġaxeddim": 2529,
      "Ġyak": 2530,
      "erri": 2531,
      "neg": 2532,
      "nett": 2533,
      "nus": 2534,
      "ĠTid": 2535,
      "Ġpar": 2536,
      "ĠtaÉ£ult": 2537,
      "Ġifassen": 2538,
      "ort": 2539,
      "Ġ}": 2540,
      "emmlen": 2541,
      "assin": 2542,
      "ĠwallaÉ£": 2543,
      "Ġtewsit": 2544,
      "ĠtalÉ£iwin": 2545,
      "200": 2546,
      "ental": 2547,
      "Ġyessefk": 2548,
      "niá¸į": 2549,
      "ĠId": 2550,
      "Ġlebni": 2551,
      "Ġinu": 2552,
      "lemt": 2553,
      "Ġns": 2554,
      "á¹Ńar": 2555,
      "Ġameqran": 2556,
      "Ġ196": 2557,
      "Ġ=": 2558,
      "emreÉ£": 2559,
      "Ġtameddit": 2560,
      "Ġweg": 2561,
      "ynuten": 2562,
      "yura": 2563,
      "etma": 2564,
      "sant": 2565,
      "tiwin": 2566,
      "yun": 2567,
      "Ġwala": 2568,
      "ĠIf": 2569,
      "uv": 2570,
      "ĠtaÉ£awsa": 2571,
      "Ġsegmi": 2572,
      "tiniá¸į": 2573,
      "ham": 2574,
      "him": 2575,
      "Ġtesdawit": 2576,
      "ĠufiÉ£": 2577,
      "Ġteá¹Ńá¹Ńef": 2578,
      "Ġlwilaya": 2579,
      "Ġaru": 2580,
      "wint": 2581,
      "ĠNna": 2582,
      "ĠHa": 2583,
      "liwin": 2584,
      "Ġtum": 2585,
      "tsen": 2586,
      "Ġïģ": 2587,
      "atg": 2588,
      "Ġiwata": 2589,
      "Ġtawwurt": 2590,
      "oun": 2591,
      "erfan": 2592,
      "Ġtr": 2593,
      "Ġleá¹£": 2594,
      "ruf": 2595,
      "Ġâµ": 2596,
      "zut": 2597,
      "</": 2598,
      "Ġina": 2599,
      "isem": 2600,
      "ĠAla": 2601,
      "edmeá¸į": 2602,
      "Ġteqcict": 2603,
      "Ġtettwa": 2604,
      "Ġtaqcict": 2605,
      "ugan": 2606,
      "ĠtÉ£awsiwin": 2607,
      "Ġtmez": 2608,
      "ellaá¸¥t": 2609,
      "yawi": 2610,
      "efhem": 2611,
      "ĠYeb": 2612,
      "Ġzemren": 2613,
      "ela": 2614,
      "ĠteffeÉ£": 2615,
      "Ġimaynuten": 2616,
      "Ġtatrart": 2617,
      "Ġtsen": 2618,
      "Ġtiq": 2619,
      "bat": 2620,
      "ddurt": 2621,
      "mest": 2622,
      "Ġsakin": 2623,
      "Ġneqqar": 2624,
      "Ġtsiwelt": 2625,
      "ĠÆĲin": 2626,
      "Ġyebna": 2627,
      "Ġiwala": 2628,
      "iteddun": 2629,
      "ilif": 2630,
      "pp": 2631,
      "Ġah": 2632,
      "eggura": 2633,
      "ĠtÉ£uri": 2634,
      "á¸¥aÇ§": 2635,
      "Ġlwel": 2636,
      "Ġyelha": 2637,
      "Ġtagi": 2638,
      "usem": 2639,
      "ĠteÉ£ra": 2640,
      "mara": 2641,
      "ĠAhat": 2642,
      "Ġcom": 2643,
      "yur": 2644,
      "Ġsa": 2645,
      "Ġyecban": 2646,
      "beÉĽd": 2647,
      "muzÉ£a": 2648,
      "Ġlej": 2649,
      "ĠTig": 2650,
      "Ġlmal": 2651,
      "erma": 2652,
      "uru": 2653,
      "Ġtebda": 2654,
      "12": 2655,
      "diÉ£": 2656,
      "Ġliá¸¥ala": 2657,
      "Ġken": 2658,
      "Ġasek": 2659,
      "ĠleÉ£": 2660,
      "ĠTik": 2661,
      "ĠCc": 2662,
      "Ġtezmer": 2663,
      "ih": 2664,
      "mun": 2665,
      "Ġwuguren": 2666,
      "wu": 2667,
      "ddukk": 2668,
      "ĠSaÉĽid": 2669,
      "raya": 2670,
      "yewwin": 2671,
      "nej": 2672,
      "Ġ197": 2673,
      "Ġyekker": 2674,
      "ĠsÉĽiÉ£": 2675,
      "Ġamaruz": 2676,
      "ĠlÉ£aci": 2677,
      "ĠSb": 2678,
      "Ġumahil": 2679,
      "000": 2680,
      "18": 2681,
      "daÉ£en": 2682,
      "iyin": 2683,
      "yeb": 2684,
      "Ġallal": 2685,
      "Ġuselway": 2686,
      "qim": 2687,
      "Ġddin": 2688,
      "Ġtussna": 2689,
      "nebder": 2690,
      "imi": 2691,
      "Ġlferá¸¥": 2692,
      "Ġ30": 2693,
      "errumt": 2694,
      "Ġwanda": 2695,
      "ĠtmeÉ£ra": 2696,
      "uff": 2697,
      "teqsiyen": 2698,
      "Ġww": 2699,
      "Ġterra": 2700,
      "awel": 2701,
      "Ġalemmas": 2702,
      "Ġuá¸įar": 2703,
      "Ġyettwar": 2704,
      "Ġtugniwin": 2705,
      "á¹Ńaá¸¥": 2706,
      "ĠYiÉ£": 2707,
      "nant": 2708,
      "nawi": 2709,
      "Ġtebna": 2710,
      "uÉ£t": 2711,
      "ĠTiz": 2712,
      "yuÉ£al": 2713,
      "rasen": 2714,
      "Ġwes": 2715,
      "á¸¥end": 2716,
      "Ġtaáºĵ": 2717,
      "ĠyiÉĽ": 2718,
      "ral": 2719,
      "raben": 2720,
      "Ġamecá¹Ńuá¸¥": 2721,
      "Ġtekcem": 2722,
      "Ġumes": 2723,
      "alaÉ£": 2724,
      "Î¸": 2725,
      "ĠTez": 2726,
      "yaf": 2727,
      "Ġyiselmaden": 2728,
      "ĠyesÉĽi": 2729,
      "ĠAh": 2730,
      "emmaá¸į": 2731,
      "Ġyekkes": 2732,
      "ĠLwen": 2733,
      "ĠzmireÉ£": 2734,
      "oud": 2735,
      "umer": 2736,
      "vi": 2737,
      "Ġames": 2738,
      "ĠAw": 2739,
      "adi": 2740,
      "Ġlwelha": 2741,
      "ĠnuÉ£al": 2742,
      "ayin": 2743,
      "demt": 2744,
      "Ġunebdu": 2745,
      "Ġux": 2746,
      "Ġyisental": 2747,
      "Ġkullec": 2748,
      "Ġimezwura": 2749,
      "zayri": 2750,
      "Ġanect": 2751,
      "Ġlá¸¥eb": 2752,
      "unefk": 2753,
      "iret": 2754,
      "ĠTaqbaylit": 2755,
      "Ġtezmir": 2756,
      "Ġtifrat": 2757,
      "mam": 2758,
      "á¸¥an": 2759,
      "ÉĽedd": 2760,
      "ula": 2761,
      "Ġsm": 2762,
      "áºĵur": 2763,
      "ĠUzzu": 2764,
      "yeff": 2765,
      "Ġo": 2766,
      "Ġbac": 2767,
      "Ġudrar": 2768,
      "Ġtasa": 2769,
      "Ġlef": 2770,
      "Ġuw": 2771,
      "ĠIg": 2772,
      "mum": 2773,
      "Ġwed": 2774,
      "yaÉ£": 2775,
      "ĠAql": 2776,
      "Ġyiá¹Ńij": 2777,
      "Ġtaman": 2778,
      "Ġidrimen": 2779,
      "ĠIlul": 2780,
      "Ġixef": 2781,
      "uáºĵ": 2782,
      "Ġed": 2783,
      "Ġisen": 2784,
      "yemm": 2785,
      "Ġfa": 2786,
      "gra": 2787,
      "ebter": 2788,
      "ĠyeÇ§Ç§an": 2789,
      "eggen": 2790,
      "Ġarraw": 2791,
      "tab": 2792,
      "á¸įeb": 2793,
      "Ġmeurt": 2794,
      "ttant": 2795,
      "lim": 2796,
      "exdamen": 2797,
      "emmirt": 2798,
      "ĠdiÉ£": 2799,
      "meá¹Ľ": 2800,
      "Ġyiferdisen": 2801,
      "Ġlaman": 2802,
      "ĠEl": 2803,
      "nilest": 2804,
      "Ġtwilayt": 2805,
      "ĠlecÉ£al": 2806,
      "ĠMazal": 2807,
      "Ġfkan": 2808,
      "Ġtaneggarut": 2809,
      "Ġtawacult": 2810,
      "liyin": 2811,
      "Ġuswir": 2812,
      "Ġuzemmur": 2813,
      "erwes": 2814,
      "ĠneÉĽreá¸į": 2815,
      "sayt": 2816,
      "ĠMari": 2817,
      "Ġyidlisen": 2818,
      "Ġyettban": 2819,
      "Ġaqcic": 2820,
      "Ġ24": 2821,
      "berran": 2822,
      "ĠAnda": 2823,
      "ĠXas": 2824,
      "erá¸į": 2825,
      "Ġyix": 2826,
      "erq": 2827,
      "ĠumennuÉ£": 2828,
      "Ġazamul": 2829,
      "ĠLwennas": 2830,
      "ot": 2831,
      "áºĵa": 2832,
      "usin": 2833,
      "Ġimeá¹Ńá¹Ń": 2834,
      "Ma": 2835,
      "udert": 2836,
      "Ġtazrawt": 2837,
      "Ġunnar": 2838,
      "fk": 2839,
      "erfi": 2840,
      "ĠÙ": 2841,
      "Ġugur": 2842,
      "oc": 2843,
      "Ġibeddel": 2844,
      "Ġsya": 2845,
      "assassin": 2846,
      "Ġnekkini": 2847,
      "É£est": 2848,
      ".\"": 2849,
      "arra": 2850,
      "Ġdrus": 2851,
      "Ġawadem": 2852,
      "elwit": 2853,
      "Ġnnu": 2854,
      "garen": 2855,
      "yeá¸¥": 2856,
      "Ġrebbi": 2857,
      "Ġimensi": 2858,
      "á¹Ľu": 2859,
      "ĠTaÉĽrabt": 2860,
      "11": 2861,
      "estant": 2862,
      "ĠlÉ£": 2863,
      "ĠbÉ£an": 2864,
      "medda": 2865,
      "Ġqrib": 2866,
      "Ġamedyaz": 2867,
      "ĠAsif": 2868,
      "ĠÉ£ezzi": 2869,
      "udan": 2870,
      "yezgan": 2871,
      "Ġtexdem": 2872,
      "ĠaÉ£el": 2873,
      "Ġtasekla": 2874,
      "Ġugellid": 2875,
      "Ġtuff": 2876,
      "tan": 2877,
      "Ã´": 2878,
      "Ġyemxal": 2879,
      "eáºĵra": 2880,
      "Ġtasnal": 2881,
      "uqq": 2882,
      "ssni": 2883,
      "eqsa": 2884,
      "Ġtezlit": 2885,
      "Ġtb": 2886,
      "Ġunelmad": 2887,
      "ĠAya": 2888,
      "grad": 2889,
      "Ġansi": 2890,
      "Ġtazz": 2891,
      "Ġlqahwa": 2892,
      "ÉĽac": 2893,
      "Ġiá¹£": 2894,
      "ĠTenna": 2895,
      "Ġlxedma": 2896,
      "seg": 2897,
      "mant": 2898,
      "ĠUg": 2899,
      "edder": 2900,
      "Ġtaluft": 2901,
      "Ġ194": 2902,
      "eqdacen": 2903,
      "Ġumedya": 2904,
      "Ġtizi": 2905,
      "Ġizemren": 2906,
      "Ġqqimen": 2907,
      "emmar": 2908,
      "Ġtmucuha": 2909,
      "Ġnessaweá¸į": 2910,
      "ĠTawrirt": 2911,
      "riq": 2912,
      "ĠIÉĽ": 2913,
      "issen": 2914,
      "Ġtergalin": 2915,
      "erk": 2916,
      "lawen": 2917,
      "eá¹Ľá¹Ľa": 2918,
      "ĠIb": 2919,
      "Ġtall": 2920,
      "Ġseksu": 2921,
      "Ġyettawi": 2922,
      "Ã©nÃ©": 2923,
      "Ġmaci": 2924,
      "á¹Ľá¹Ľa": 2925,
      "Ġyedda": 2926,
      "Ġyilem": 2927,
      "riá¸į": 2928,
      "selÉ£u": 2929,
      "Ġwemdan": 2930,
      "ïģ": 2931,
      "ana": 2932,
      "á¸įiwin": 2933,
      "ÉĽun": 2934,
      "ĠAme": 2935,
      "kim": 2936,
      "ebá¸¥en": 2937,
      "Ġamawal": 2938,
      "Ġyiá¸¥ricen": 2939,
      "Ġyettak": 2940,
      "yanin": 2941,
      "waculin": 2942,
      "neÉĽ": 2943,
      "á¹Ńá¹Ńun": 2944,
      "Ã©c": 2945,
      "baÉĽd": 2946,
      "ĠtuÉ£alin": 2947,
      "Ġst": 2948,
      "qqaren": 2949,
      "beddil": 2950,
      "ĠNetta": 2951,
      "Ġusegzawal": 2952,
      "usmi": 2953,
      "ĠTem": 2954,
      "Ġccix": 2955,
      "Ġyemmal": 2956,
      "Ġtmi": 2957,
      "iwenni": 2958,
      "ĠBÉ£iÉ£": 2959,
      "Ġxem": 2960,
      "ĠiÉĽedda": 2961,
      "ĠTimmuzÉ£a": 2962,
      "ehmeÉ£": 2963,
      "ĠyeÄįÄįur": 2964,
      "ĠUsqamu": 2965,
      "jun": 2966,
      "Ġaddad": 2967,
      "Ġ23": 2968,
      "Ġyimes": 2969,
      "Ġleá¸¥sab": 2970,
      "ĠQqaren": 2971,
      "Ġlehna": 2972,
      "ĠiÉ£er": 2973,
      "misin": 2974,
      "ersiw": 2975,
      "nagraw": 2976,
      "Ġiga": 2977,
      "ĠUnnig": 2978,
      "ila": 2979,
      "ĠMD": 2980,
      "Ġtemáºĵi": 2981,
      "Ġyifassen": 2982,
      "ĠTubiret": 2983,
      "ebban": 2984,
      "Ġwinna": 2985,
      "AM": 2986,
      "ĠTil": 2987,
      "kabar": 2988,
      "Ġlb": 2989,
      "nation": 2990,
      "Ġtax": 2991,
      "Ġer": 2992,
      "Ġyul": 2993,
      "areÉ£": 2994,
      "baá¸į": 2995,
      "leÉĽ": 2996,
      "ĠYerna": 2997,
      "Ġtemsal": 2998,
      "qbayliyen": 2999,
      "kud": 3000,
      "enq": 3001,
      "ĠIz": 3002,
      "Ġtmus": 3003,
      "Ġqu": 3004,
      "Ġtru": 3005,
      "Ġtucc": 3006,
      "Ġtefka": 3007,
      "Ġtaá¸¥kayt": 3008,
      "Ġlá¸¥ebs": 3009,
      "erc": 3010,
      "mawan": 3011,
      "usef": 3012,
      "Ġwatmaten": 3013,
      "tenna": 3014,
      "ranin": 3015,
      "ĠWer": 3016,
      "umt": 3017,
      "eÇ§Ç§i": 3018,
      "medyazen": 3019,
      "ĠccÉ£el": 3020,
      "ÉĽeddi": 3021,
      "ĠWi": 3022,
      "Ġnnif": 3023,
      "Ġtegrawla": 3024,
      "ĠMulud": 3025,
      "Ġtesna": 3026,
      "Ġilaqen": 3027,
      "Ġamsawal": 3028,
      "ĠUl": 3029,
      "ĠDa": 3030,
      "Ġmass": 3031,
      "Ġtafransist": 3032,
      "ĠMuá¸¥emmed": 3033,
      "ĠIh": 3034,
      "uni": 3035,
      "Ġyeáºĵra": 3036,
      "uten": 3037,
      "eggag": 3038,
      "did": 3039,
      "Ġasefru": 3040,
      "ĠArgaz": 3041,
      "ekcum": 3042,
      "Ġuguren": 3043,
      "Ġsett": 3044,
      "dun": 3045,
      "elsan": 3046,
      "hin": 3047,
      "ĠWar": 3048,
      "mezdaÉ£en": 3049,
      "nefk": 3050,
      "tem": 3051,
      "ĠgÃ©nÃ©": 3052,
      "emmem": 3053,
      "ĠâĨĴ": 3054,
      "Ġtamsalt": 3055,
      "Ġ_": 3056,
      "ern": 3057,
      "duda": 3058,
      "ĠTasÉ£unt": 3059,
      "Ġleá¹£naf": 3060,
      "leq": 3061,
      "Ġumedyaz": 3062,
      "Ġli": 3063,
      "ulfu": 3064,
      "Ġyirgazen": 3065,
      "va": 3066,
      "É£un": 3067,
      "ĠyimsulÉ£a": 3068,
      "yeh": 3069,
      "maren": 3070,
      "Ġ22": 3071,
      "umma": 3072,
      "Ġtlelli": 3073,
      "ĠÆĶur": 3074,
      "Ġtmeslayt": 3075,
      "eggalen": 3076,
      "Ġyebrir": 3077,
      "ĠBou": 3078,
      "ĠwalaÉ£": 3079,
      "Ġtaru": 3080,
      "wayed": 3081,
      "ĠtiÉ£ri": 3082,
      "Ġyiberdan": 3083,
      "Ġulamma": 3084,
      "ĠTefriqt": 3085,
      "Ġawen": 3086,
      "ccen": 3087,
      "lo": 3088,
      "yat": 3089,
      "ĠRac": 3090,
      "ekki": 3091,
      "zeÉ£t": 3092,
      "zel": 3093,
      "ĠlÉ£er": 3094,
      "Ġyusa": 3095,
      "Ġwaggur": 3096,
      "reg": 3097,
      "yefka": 3098,
      "badu": 3099,
      "Ġssin": 3100,
      "anib": 3101,
      "Ġumsawal": 3102,
      "Ġiwudam": 3103,
      "Ġisemma": 3104,
      "ĠTameá¹Ńá¹Ńut": 3105,
      "ĠdaÉ£": 3106,
      "siyen": 3107,
      "ĠYusa": 3108,
      "ĠSuq": 3109,
      "afaren": 3110,
      "Ġnella": 3111,
      "aris": 3112,
      "],": 3113,
      "Ġtegg": 3114,
      "ĠTun": 3115,
      "Ġtamdint": 3116,
      "ĠwassaÉ£": 3117,
      "Ġyej": 3118,
      "inin": 3119,
      "ebgen": 3120,
      "rand": 3121,
      "Ġ21": 3122,
      "zul": 3123,
      "ĠAyt": 3124,
      "sid": 3125,
      "Ġami": 3126,
      "Ġff": 3127,
      "Ġtezmert": 3128,
      "Ġuku": 3129,
      "á¸įawit": 3130,
      "áºĵen": 3131,
      "Ġtsuqilt": 3132,
      "uá¸¥te": 3133,
      "Ġtamacahut": 3134,
      "Ġleqraya": 3135,
      "Ġ40": 3136,
      "alas": 3137,
      "Ġwwin": 3138,
      "aá¸įma": 3139,
      "Ġteqqar": 3140,
      "ĠyiÉ£ersiwen": 3141,
      "ĠsebÉĽa": 3142,
      "ĠWa": 3143,
      "Ġnewwi": 3144,
      "ewt": 3145,
      "Ġayla": 3146,
      "á¹£aá¹£": 3147,
      "Ġwakka": 3148,
      "Ġcci": 3149,
      "ĠÃł": 3150,
      "Ġiy": 3151,
      "ĠBur": 3152,
      "Ġamá¸įiq": 3153,
      "ven": 3154,
      "ĠIá¸¥": 3155,
      "ĠMeÉĽ": 3156,
      "Ġrran": 3157,
      "itent": 3158,
      "lad": 3159,
      "ĠTutlayt": 3160,
      "aylu": 3161,
      "uta": 3162,
      "Ġ27": 3163,
      "alin": 3164,
      "ĠTif": 3165,
      "ema": 3166,
      "ezdu": 3167,
      "Ġwigi": 3168,
      "Ġyar": 3169,
      "Ġyiger": 3170,
      "ĠaÉ£elnaw": 3171,
      "ellah": 3172,
      "Ġaberkan": 3173,
      "Ġuwadem": 3174,
      "Ġyettilin": 3175,
      "ĠTaq": 3176,
      "Ġ28": 3177,
      "Ġyebá¸įa": 3178,
      "Í¡": 3179,
      "Ġdima": 3180,
      "ĠtaÉ£ect": 3181,
      "EL": 3182,
      "ij": 3183,
      "Ass": 3184,
      "Ġlmen": 3185,
      "Ġteh": 3186,
      "eblan": 3187,
      "cwar": 3188,
      "ĠAá¸įris": 3189,
      "Ġyidis": 3190,
      "ĠIwa": 3191,
      "uden": 3192,
      "aliyin": 3193,
      "Ġ26": 3194,
      "â´°": 3195,
      "rayin": 3196,
      "á¸įebb": 3197,
      "Ġtimes": 3198,
      "Ġtsertit": 3199,
      "Ġtezlatin": 3200,
      "Ġá¹¬á¹Ń": 3201,
      "Ġnekni": 3202,
      "beá¹Ľ": 3203,
      "Ġtbedd": 3204,
      "Ġá¹£á¹£ut": 3205,
      "Ġtemlilit": 3206,
      "Ġsser": 3207,
      "Ġá¸¥edd": 3208,
      "ĠterbaÉĽt": 3209,
      "red": 3210,
      "Ġut": 3211,
      "Ġumeslay": 3212,
      "á¸¥sub": 3213,
      "ejj": 3214,
      "Ġá¹Ńá¹Ńfen": 3215,
      "ĠnesÉĽa": 3216,
      "Ġigenni": 3217,
      "Ġssi": 3218,
      "elq": 3219,
      "ĠTiw": 3220,
      "yekkan": 3221,
      "'.": 3222,
      "nniÉ£": 3223,
      "Ġareá¹Ńá¹Ńal": 3224,
      "Ġirgazen": 3225,
      "Ġwaá¹Ńá¹Ńan": 3226,
      "ap": 3227,
      "Ġddeqs": 3228,
      "out": 3229,
      "Ġimiren": 3230,
      "ĠÉĽzizen": 3231,
      "ĠYiÉ£il": 3232,
      "fif": 3233,
      "Ġtfer": 3234,
      "Ġtajmilt": 3235,
      "Ġdda": 3236,
      "waÉ£it": 3237,
      "qan": 3238,
      "Ġkif": 3239,
      "ĠtesÉĽi": 3240,
      "durar": 3241,
      "dal": 3242,
      "É£ent": 3243,
      "ssu": 3244,
      "Ġtigawin": 3245,
      "Ġwergaz": 3246,
      "Ġmeáºĵáºĵi": 3247,
      "mett": 3248,
      "Ġmen": 3249,
      "elnawt": 3250,
      "zil": 3251,
      "ewwa": 3252,
      "bula": 3253,
      "Ġnefka": 3254,
      "Ġdiri": 3255,
      "Ġyettem": 3256,
      "Ġwadda": 3257,
      "Ġuddis": 3258,
      "Ġisel": 3259,
      "xemmi": 3260,
      "Ġudabu": 3261,
      "Ġssebba": 3262,
      "ezzin": 3263,
      "aby": 3264,
      "AD": 3265,
      "dar": 3266,
      "á¹£en": 3267,
      "Ġmm": 3268,
      "Ġtamaynut": 3269,
      "Ġmes": 3270,
      "É£ef": 3271,
      "ekkilen": 3272,
      "Ġteá¸įra": 3273,
      "ĠTmurt": 3274,
      "iti": 3275,
      "Ã©p": 3276,
      "Ã©ri": 3277,
      "ehh": 3278,
      "fuk": 3279,
      "teb": 3280,
      "Ġimer": 3281,
      "Ġttna": 3282,
      "Ġttawin": 3283,
      "Ġlbaá¹Ńel": 3284,
      "Ġneá¸¥": 3285,
      "Ġawez": 3286,
      "Am": 3287,
      "ĠyaÉĽ": 3288,
      "eggem": 3289,
      "Ġims": 3290,
      "Ġmeá¹Ľá¹Ľa": 3291,
      "Ġwez": 3292,
      "ĠAáºĵ": 3293,
      "ĠYug": 3294,
      "á¸įeá¸į": 3295,
      "amal": 3296,
      "Ġnezmir": 3297,
      "Ġtelliá¸į": 3298,
      "nef": 3299,
      "Ġasget": 3300,
      "Ġudmawan": 3301,
      "erdasen": 3302,
      "Ġtimetti": 3303,
      "â´»": 3304,
      "ruc": 3305,
      "dur": 3306,
      "ĠMu": 3307,
      "Ġyini": 3308,
      "Ġatg": 3309,
      "Ġttawil": 3310,
      "ĠLe": 3311,
      "ĠleÇ§": 3312,
      "ĠimÉ£i": 3313,
      "Ġtarwa": 3314,
      "cit": 3315,
      "kent": 3316,
      "xil": 3317,
      "Ġsway": 3318,
      "ĠTeg": 3319,
      "atin": 3320,
      "ÄĮ": 3321,
      "Ġaselmad": 3322,
      "egger": 3323,
      "ersiwen": 3324,
      "dukli": 3325,
      "ejdanen": 3326,
      "ox": 3327,
      "ĠAli": 3328,
      "Ġyessaweá¸į": 3329,
      "Ġineá¸įruyen": 3330,
      "ÙĬ": 3331,
      "Ġyettwali": 3332,
      "Ġ29": 3333,
      "ÉĽeÉ£": 3334,
      "ĠIr": 3335,
      "ĠtemÉ£art": 3336,
      "Ġtefyar": 3337,
      "maÉĽt": 3338,
      "ĠtesÉĽiá¸į": 3339,
      "Ġumalu": 3340,
      "nement": 3341,
      "yaru": 3342,
      "âĭ": 3343,
      "ĠïĤ§": 3344,
      "âĭħ": 3345,
      "Ġisa": 3346,
      "bab": 3347,
      "Ġch": 3348,
      "Ġrrif": 3349,
      "Ġuqcic": 3350,
      "ddukal": 3351,
      "Ġaferdis": 3352,
      "zirt": 3353,
      "ĠLá¸¥aÇ§": 3354,
      "yemmalen": 3355,
      "cá¹Ńaá¸¥": 3356,
      "Ġnu": 3357,
      "Ġtna": 3358,
      "Ġiberdan": 3359,
      "Ġisental": 3360,
      "kkan": 3361,
      "lifa": 3362,
      "Ġlaá¹£el": 3363,
      "Ġugraw": 3364,
      "ĠZik": 3365,
      "13": 3366,
      "15": 3367,
      "eltma": 3368,
      "Ġixedmen": 3369,
      "Ġtiririt": 3370,
      "Ġbdan": 3371,
      "jen": 3372,
      "ĠtÉĽedda": 3373,
      "nis": 3374,
      "riá¸¥": 3375,
      "ddu": 3376,
      "Ġwasif": 3377,
      "name": 3378,
      "Ġwurmir": 3379,
      "inna": 3380,
      "lak": 3381,
      "ĠYeá¹Ńá¹Ńef": 3382,
      "Ġtamawt": 3383,
      "Ġaql": 3384,
      "Ġyettu": 3385,
      "Ġtamatut": 3386,
      "Ġiá¸įelli": 3387,
      "Ġtaá¸į": 3388,
      "ĠTaj": 3389,
      "Ġwallalen": 3390,
      "Ġtikkal": 3391,
      "yir": 3392,
      "Ġaá¸¥erfi": 3393,
      "Ġtantala": 3394,
      "Ġuselmad": 3395,
      "Ġagraw": 3396,
      "ĠteÉ£li": 3397,
      "Ġtegnatin": 3398,
      "Ġjug": 3399,
      "yerr": 3400,
      "Ġttidir": 3401,
      "ubli": 3402,
      "17": 3403,
      "iwanin": 3404,
      "ĠTak": 3405,
      "qqranen": 3406,
      "Ġá¸¥emmleÉ£": 3407,
      "Ġtimmad": 3408,
      "Ġaxaá¹Ńer": 3409,
      "ĠAmawal": 3410,
      "Ġnruá¸¥": 3411,
      "ĠAnwa": 3412,
      "Ġamezruy": 3413,
      "Ġtesnilest": 3414,
      "ĠzemreÉ£": 3415,
      "ĠAms": 3416,
      "ennay": 3417,
      "Ġyessem": 3418,
      "eá¹Ńá¹Ńu": 3419,
      "Ġtilawin": 3420,
      "ĠAmez": 3421,
      "ĠaÉ£ilif": 3422,
      "ĠnebÉ£a": 3423,
      "namka": 3424,
      "Ġá¸Į": 3425,
      "ĠLeá¸¥": 3426,
      "Ġfer": 3427,
      "Ġtzemreá¸į": 3428,
      "Ġamer": 3429,
      "Ġtebá¸¥": 3430,
      "lisin": 3431,
      "Ġigejdanen": 3432,
      "ĠBaba": 3433,
      "ff": 3434,
      "áºĵab": 3435,
      "Ġnettaf": 3436,
      "ĠgÃ©nÃ©ral": 3437,
      "Ġtxedmeá¸į": 3438,
      "ĠAit": 3439,
      "cimi": 3440,
      "yita": 3441,
      "ĠUga": 3442,
      "Ġnezz": 3443,
      "lawin": 3444,
      "lisa": 3445,
      "ammer": 3446,
      "galt": 3447,
      "ÉĽet": 3448,
      "ĠLeÉĽ": 3449,
      "eÇ§Ç§a": 3450,
      "á¸įer": 3451,
      "Ġanelmad": 3452,
      "Ġkecmen": 3453,
      "Ġwadd": 3454,
      "ida": 3455,
      "ĠSmaÉĽ": 3456,
      "radyu": 3457,
      "Ġyiá¸¥": 3458,
      "ĠIni": 3459,
      "ĠFaá¸įma": 3460,
      "ier": 3461,
      "reá¸įt": 3462,
      ".,": 3463,
      "Ġyiri": 3464,
      "Ġyeáºĵ": 3465,
      "Ġusek": 3466,
      "Ġusnulfu": 3467,
      "Ġwannar": 3468,
      "raÇ§": 3469,
      "Ġdacu": 3470,
      "ĠYuba": 3471,
      "bit": 3472,
      "Ġtadd": 3473,
      "Ġidlisen": 3474,
      "Ġá¸¥ala": 3475,
      "ĠprÃ©": 3476,
      "ĠMal": 3477,
      "amel": 3478,
      "ĠBo": 3479,
      "Ġtulmisin": 3480,
      "yeÉ£": 3481,
      "Ġco": 3482,
      "Ġtargit": 3483,
      "Ġsemman": 3484,
      "ĠweÉ£": 3485,
      "Â°": 3486,
      "eá¸¥á¸¥u": 3487,
      "Ġpo": 3488,
      "ĠJe": 3489,
      "IS": 3490,
      "Ç§er": 3491,
      "Ġusirem": 3492,
      "ju": 3493,
      "Ġugdud": 3494,
      "emÉĽa": 3495,
      "ĠIlmend": 3496,
      "Ã©e": 3497,
      "Ġtuz": 3498,
      "Ġtuqq": 3499,
      "ĠtaÉ£elnawt": 3500,
      "heggi": 3501,
      "ĠÇ§Ç§": 3502,
      "bazen": 3503,
      "Ġineggura": 3504,
      "ĠQasi": 3505,
      "umata": 3506,
      "rist": 3507,
      "Ġsend": 3508,
      "umak": 3509,
      "emá¸įan": 3510,
      "ebgan": 3511,
      "ĠRa": 3512,
      "Ġtewweá¸į": 3513,
      "ĠTalÉ£a": 3514,
      "Ġaá¹Ńá¹Ńan": 3515,
      "ĠuÉ£aleÉ£": 3516,
      "bub": 3517,
      "Ġtuddar": 3518,
      "yeffÉ£en": 3519,
      "ĠYuÉ£al": 3520,
      "ĠRnu": 3521,
      "AN": 3522,
      "rahim": 3523,
      "Ġsgt": 3524,
      "eá¸¥bi": 3525,
      "ĠiÉ£ersiwen": 3526,
      "Tas": 3527,
      "Ġsyen": 3528,
      "ĠtarbaÉĽt": 3529,
      "IN": 3530,
      "ĠyimÉ£an": 3531,
      "kkes": 3532,
      "walen": 3533,
      "eddad": 3534,
      "Ġireá¹Ńá¹Ńalen": 3535,
      "yusan": 3536,
      "ts": 3537,
      "Ġtban": 3538,
      "exx": 3539,
      "erreá¸¥": 3540,
      "eÇ§Ç§ig": 3541,
      "24": 3542,
      "Ur": 3543,
      "yeffeÉ£": 3544,
      "Ġidammen": 3545,
      "ÉĽel": 3546,
      "Ġttilin": 3547,
      "Ġyinzan": 3548,
      "yella": 3549,
      "aá¹Ńi": 3550,
      "qam": 3551,
      "Ļ¦": 3552,
      "Ġtuk": 3553,
      "faliyin": 3554,
      "gayt": 3555,
      "guren": 3556,
      "tal": 3557,
      "Ġyuf": 3558,
      "Ġtawi": 3559,
      "zzel": 3560,
      "Ġjugement": 3561,
      "imeÉ£": 3562,
      "nasen": 3563,
      "ans": 3564,
      "Ġweltma": 3565,
      "unyu": 3566,
      "iwet": 3567,
      "Ġasirem": 3568,
      "Ġusrid": 3569,
      "ĠyebÉ£u": 3570,
      "Ġtamenzut": 3571,
      "mak": 3572,
      "ĠDd": 3573,
      "Ġammud": 3574,
      "Ġtezrawin": 3575,
      "ĠlÉĽes": 3576,
      "Ġussnan": 3577,
      "elluy": 3578,
      "ĠWid": 3579,
      "ifa": 3580,
      "Ġ|": 3581,
      "Ġacemma": 3582,
      "ĠIswi": 3583,
      "Ġnwala": 3584,
      "Ġyaya": 3585,
      "esteqsa": 3586,
      "Ġwidak": 3587,
      "Ġussid": 3588,
      "deá¸į": 3589,
      "ĠYeá¸¥": 3590,
      "rennu": 3591,
      "Ġwayes": 3592,
      "damnation": 3593,
      "ĠyeÄįÄįa": 3594,
      "ve": 3595,
      "á¸įel": 3596,
      "Ġidles": 3597,
      "Ġdder": 3598,
      "Ġ//": 3599,
      "ge": 3600,
      "ĠÄĮ": 3601,
      "rux": 3602,
      "Ġsemmus": 3603,
      "ĠawezÉ£i": 3604,
      "up": 3605,
      "yet": 3606,
      "raá¹Ń": 3607,
      "Ġsim": 3608,
      "Ġyimen": 3609,
      "rimt": 3610,
      "ezqi": 3611,
      "ĠrebÉĽa": 3612,
      "hamen": 3613,
      "Ġlebda": 3614,
      "Ġtmagit": 3615,
      "Ġwebrid": 3616,
      "kec": 3617,
      "ķĳ": 3618,
      "ĠimaziÉ£en": 3619,
      "adyu": 3620,
      "Ġ50": 3621,
      "ned": 3622,
      "ĠteswiÉĽt": 3623,
      "ĠTazrawt": 3624,
      "Ġyemmuten": 3625,
      "Ġtix": 3626,
      "áºĵin": 3627,
      "etwa": 3628,
      "enti": 3629,
      "ĠRuá¸¥": 3630,
      "uli": 3631,
      "Ġimek": 3632,
      "rier": 3633,
      "essi": 3634,
      "ĠBuÉĽ": 3635,
      "balu": 3636,
      "14": 3637,
      "nnan": 3638,
      "yec": 3639,
      "eá¸įra": 3640,
      "ĠCh": 3641,
      "nulfa": 3642,
      "uá¹£á¹£": 3643,
      "Ġlan": 3644,
      "ĠAcimi": 3645,
      "ehmen": 3646,
      ")-": 3647,
      "Ġso": 3648,
      "duction": 3649,
      "ĠAmmud": 3650,
      "Ġlemmer": 3651,
      "musnawen": 3652,
      "Ġtilelli": 3653,
      "Ġawi": 3654,
      "awed": 3655,
      "Ġasawen": 3656,
      "ĠlÉ£erba": 3657,
      "ĠAbrid": 3658,
      "ĠyesÉĽu": 3659,
      "ĠNeÉ£": 3660,
      "Ġtissit": 3661,
      "abá¸¥a": 3662,
      "Ġtaqb": 3663,
      "Ġlwa": 3664,
      "Ġleá¸¥zen": 3665,
      "ĠâĻ¦": 3666,
      ".Â»": 3667,
      "aá¹Ľ": 3668,
      "mulud": 3669,
      "Ġzzman": 3670,
      "ĠlÉĽali": 3671,
      "etnayen": 3672,
      "Ġsuf": 3673,
      "efox": 3674,
      "Ġttmeslayen": 3675,
      "ĠTira": 3676,
      "Ġyebnan": 3677,
      "nulfan": 3678,
      ".)": 3679,
      "Ġlsas": 3680,
      "eÉ£ru": 3681,
      "áºĵyan": 3682,
      "ĠLex": 3683,
      "ĠÆĲmer": 3684,
      "Ġlqern": 3685,
      "qeÉ£": 3686,
      "emhal": 3687,
      "Ġtey": 3688,
      "ruk": 3689,
      "Ġimal": 3690,
      "Ġalama": 3691,
      "ĠtÉ£ara": 3692,
      "zeÉ£": 3693,
      "rayen": 3694,
      "ĠDallet": 3695,
      "Ouv": 3696,
      "kelli": 3697,
      "ales": 3698,
      "Ġyic": 3699,
      "ĠLliÉ£": 3700,
      "uhad": 3701,
      "30": 3702,
      "dya": 3703,
      "dant": 3704,
      "ĠziÉ£": 3705,
      "mayen": 3706,
      "but": 3707,
      "itÃ©": 3708,
      "ekku": 3709,
      "Ġyugi": 3710,
      "emmiá¸į": 3711,
      "Ġyuk": 3712,
      "Ġwaá¸įu": 3713,
      "Ġyettar": 3714,
      "Ġannar": 3715,
      "Ġyeá¹Ńá¹Ńfen": 3716,
      "**": 3717,
      "tefk": 3718,
      "ĠzedÉ£en": 3719,
      "ĠAddad": 3720,
      "Ġaken": 3721,
      "Ġlukan": 3722,
      "Al": 3723,
      "Ġsebba": 3724,
      "meh": 3725,
      "á¸įent": 3726,
      "ĠIc": 3727,
      "Ġtayemmat": 3728,
      "ĠlÇ§a": 3729,
      "Ġnnuba": 3730,
      "mem": 3731,
      "Ġyaweá¸į": 3732,
      "ĠyimaziÉ£en": 3733,
      "ĠaÉ£rum": 3734,
      "Ġml": 3735,
      "banen": 3736,
      "bre": 3737,
      "ard": 3738,
      "Ġkun": 3739,
      "tique": 3740,
      "yuf": 3741,
      "É£eá¸į": 3742,
      "Ġkec": 3743,
      "Ġwahil": 3744,
      "Ġmeá¸¥sub": 3745,
      "Ġikemmel": 3746,
      "akken": 3747,
      "ep": 3748,
      "ked": 3749,
      "Ġiferdisen": 3750,
      "bac": 3751,
      "Ġiá¸¥ulfan": 3752,
      "Ġzzin": 3753,
      "adda": 3754,
      "AR": 3755,
      "ĠTudert": 3756,
      "eggan": 3757,
      "ĠuÉ£ur": 3758,
      "199": 3759,
      "Ġswayes": 3760,
      "á¸¥el": 3761,
      "ĠtaÉ£a": 3762,
      "ĠSsi": 3763,
      "Ġtruá¸¥eá¸į": 3764,
      "Ġlejdud": 3765,
      "Ġtbeddel": 3766,
      "aska": 3767,
      "ĠteÇ§Ç§": 3768,
      "ĠTzemreá¸į": 3769,
      "ĠÉĽemmi": 3770,
      "Ġiteddu": 3771,
      "ique": 3772,
      "Ġwaf": 3773,
      "jjay": 3774,
      "Ġtekker": 3775,
      "ĠamÉ£ar": 3776,
      "Ġyettawin": 3777,
      "Ġyiswi": 3778,
      "bert": 3779,
      "Ġtullisin": 3780,
      "Ġtergalt": 3781,
      "Ti": 3782,
      "Ġtwaculin": 3783,
      "ĠusileÉ£": 3784,
      "Ġyuli": 3785,
      "firen": 3786,
      "ebbuá¸į": 3787,
      "enquá¸¥te": 3788,
      "ĠTess": 3789,
      "Ġtettwas": 3790,
      "zzal": 3791,
      "Ġtabadut": 3792,
      "Ġteff": 3793,
      "Ġccbaá¸¥a": 3794,
      "ĠTamurt": 3795,
      "wart": 3796,
      "ĠIá¸į": 3797,
      "Ġyettá¸¥": 3798,
      "Ġyeff": 3799,
      "zar": 3800,
      "taf": 3801,
      "Ġagellid": 3802,
      "ĠSem": 3803,
      "walin": 3804,
      "Ġarrac": 3805,
      "Ġazzayri": 3806,
      "Ġá¹¢á¹£": 3807,
      "lef": 3808,
      "yasen": 3809,
      "ĠYemma": 3810,
      "Ġyettmeslay": 3811,
      "Ġtezri": 3812,
      "Ġtislit": 3813,
      "gunt": 3814,
      "elha": 3815,
      "iss": 3816,
      "ĠTul": 3817,
      "ĠUm": 3818,
      "ĠaÉ£erbaz": 3819,
      "Ġyezzi": 3820,
      "16": 3821,
      "cal": 3822,
      "Ġná¸¥": 3823,
      "raÉĽ": 3824,
      "Ġweq": 3825,
      "ares": 3826,
      "ĠTaddart": 3827,
      "yili": 3828,
      "he": 3829,
      "Ġteslit": 3830,
      "errun": 3831,
      "Ġwuccen": 3832,
      "lizit": 3833,
      "ĠMá¸¥end": 3834,
      "Ġtáºĵirt": 3835,
      "Ġcondamnation": 3836,
      "Ġciá¹Ń": 3837,
      "Ġïģ¶": 3838,
      "xir": 3839,
      "Ġufan": 3840,
      "Ġtuddsa": 3841,
      "Ø±": 3842,
      "ĠnaÉ£": 3843,
      "Ġaqdim": 3844,
      "âµī": 3845,
      "ie": 3846,
      "Ġnwali": 3847,
      "ĠMez": 3848,
      "rakalt": 3849,
      "lun": 3850,
      "á¸¥em": 3851,
      "eá¸įlib": 3852,
      "beá¸¥ri": 3853,
      "deb": 3854,
      "Ġday": 3855,
      "ĠyimezdaÉ£en": 3856,
      "senf": 3857,
      "wab": 3858,
      "Ġyettus": 3859,
      "Ġixeddmen": 3860,
      "wiren": 3861,
      "jer": 3862,
      "Ġimeslayen": 3863,
      "ĠYez": 3864,
      "ĠWaÉĽ": 3865,
      "Ġyessemres": 3866,
      "Ġtmeddit": 3867,
      "ĠÉĽec": 3868,
      "Ġafud": 3869,
      "Ġtbadut": 3870,
      "sp": 3871,
      "Ġtwen": 3872,
      "ĠIw": 3873,
      "Ġidurar": 3874,
      "exdam": 3875,
      "Sb": 3876,
      "Ã¯": 3877,
      "ellalt": 3878,
      "qbur": 3879,
      "Ġunáºĵul": 3880,
      "juhad": 3881,
      "yuÉ£en": 3882,
      "Ġtxeddem": 3883,
      "asin": 3884,
      "Ġbeá¹Ľá¹Ľa": 3885,
      "ĠwerÇ§in": 3886,
      "Ġlfeá¹Ńá¹Ńa": 3887,
      "Ġizen": 3888,
      "Ç§en": 3889,
      "ĠLemmer": 3890,
      "Ġyinumak": 3891,
      "Ġtarrayin": 3892,
      "dayt": 3893,
      "á¸¥eq": 3894,
      "efrek": 3895,
      "Ġrruá¸¥": 3896,
      "Ġtfelwit": 3897,
      "Ġyeddem": 3898,
      "Ġnemmeslay": 3899,
      "ĠUngal": 3900,
      "ellalin": 3901,
      "ĠwassaÉ£en": 3902,
      "=\"": 3903,
      "lac": 3904,
      "elda": 3905,
      "Ġyigenni": 3906,
      "rug": 3907,
      "ĠYezmer": 3908,
      "ĠYusef": 3909,
      "Ġtawuri": 3910,
      "kiÉ£": 3911,
      "Ġtukk": 3912,
      "afar": 3913,
      "Ġyewwet": 3914,
      "ĠyeÄįÄįuren": 3915,
      "qayed": 3916,
      "reÉĽ": 3917,
      "saÉĽ": 3918,
      "ĠuÉ£anib": 3919,
      "Ġilul": 3920,
      "Ġnezzeh": 3921,
      "//": 3922,
      "Ar": 3923,
      "ron": 3924,
      "ĠNnan": 3925,
      "Ġtenfalit": 3926,
      "ĠAzekka": 3927,
      "ĠBelÉĽid": 3928,
      "taw": 3929,
      "Ġef": 3930,
      "assnen": 3931,
      "cá¹Ńuá¸¥t": 3932,
      "Ġteáºĵgi": 3933,
      "liyen": 3934,
      "ĠDayen": 3935,
      "ĠNa": 3936,
      "Ġtra": 3937,
      "ĠTir": 3938,
      "amer": 3939,
      "Ġuglam": 3940,
      "Ġazwel": 3941,
      "Ġtiktiwin": 3942,
      "Ġwudmawen": 3943,
      "Ġyeáºĵáºĵ": 3944,
      "egwa": 3945,
      "ĠtameÉ£ra": 3946,
      "Ġtufa": 3947,
      "ruá¸¥u": 3948,
      "ĠumÉ£ar": 3949,
      "Ġtfar": 3950,
      "teÉĽ": 3951,
      "yeÉĽ": 3952,
      "Ġtsedda": 3953,
      "EM": 3954,
      "ois": 3955,
      "á¸įil": 3956,
      "Ġyik": 3957,
      "Ġddwa": 3958,
      "Ġimeqqranen": 3959,
      "and": 3960,
      "dinin": 3961,
      "usru": 3962,
      "Ġtmara": 3963,
      "Ġnebder": 3964,
      "Ġtmusni": 3965,
      "iya": 3966,
      "nak": 3967,
      "ĠLqayed": 3968,
      "Ġtamnaá¸įt": 3969,
      "Ġusenfar": 3970,
      "á¹Ľumi": 3971,
      "ĠParis": 3972,
      "Ġtyemmat": 3973,
      "At": 3974,
      "Ġiá¸įrisen": 3975,
      "Ġyiq": 3976,
      "Ġyiáºĵ": 3977,
      "Ġtemmut": 3978,
      "Ġyekkat": 3979,
      "!...": 3980,
      "ET": 3981,
      "qes": 3982,
      "Ġap": 3983,
      "Ġsbi": 3984,
      "riwen": 3985,
      "awat": 3986,
      "ĠWissen": 3987,
      "Ġterna": 3988,
      "Ġwansayen": 3989,
      "ml": 3990,
      "mul": 3991,
      "ĠneÄįÄį": 3992,
      "Ġyilin": 3993,
      "á¸įebbren": 3994,
      "nufa": 3995,
      "yezzin": 3996,
      "Ġtet": 3997,
      "ĠLal": 3998,
      "Ġmraw": 3999,
      "Ġtzeqqa": 4000,
      "dil": 4001,
      "Ġukabar": 4002,
      "elmed": 4003,
      "age": 4004,
      "Ġtirga": 4005,
      "ukkeÉ£": 4006,
      "--": 4007,
      "Ġila": 4008,
      "ĠiniÉ£": 4009,
      "Ġadrar": 4010,
      "Ġwamud": 4011,
      "Ġyilel": 4012,
      "ver": 4013,
      "Ã§": 4014,
      "ĠCabá¸¥a": 4015,
      "ĠFer": 4016,
      "ĠTawsit": 4017,
      "co": 4018,
      "Ġwac": 4019,
      "Ġttag": 4020,
      "umm": 4021,
      "Ġjeddi": 4022,
      "Ġsidi": 4023,
      "ĠLem": 4024,
      "aÉ£eá¸į": 4025,
      "Ġtasnam": 4026,
      "Ġyilmeáºĵyen": 4027,
      "Deg": 4028,
      "Ġanadi": 4029,
      "Ġser": 4030,
      "Ġiwul": 4031,
      "lilt": 4032,
      "neq": 4033,
      "Ġyaf": 4034,
      "á¹Ľt": 4035,
      "Ġkrad": 4036,
      "zzayri": 4037,
      "yennan": 4038,
      "eáºĵyan": 4039,
      "eqqamu": 4040,
      "mala": 4041,
      "tewwi": 4042,
      "ennayen": 4043,
      "tif": 4044,
      "Ġagdud": 4045,
      "eddamen": 4046,
      "cint": 4047,
      "Ġtker": 4048,
      "Ġsf": 4049,
      "Ġsumata": 4050,
      "Ġá¸¤a": 4051,
      "Ġtessuq": 4052,
      "Ġitett": 4053,
      "Ġtallelt": 4054,
      "elÉ£a": 4055,
      "nayt": 4056,
      "waá¸į": 4057,
      "á¹Ńá¹Ńaf": 4058,
      "Ġddurt": 4059,
      "Ġá¹Ńá¹Ńlam": 4060,
      "Ġ60": 4061,
      "Ġtabraá¹Ń": 4062,
      "Ġtáºĵuri": 4063,
      "Ġyiles": 4064,
      "Ġtiyita": 4065,
      "awiÉ£": 4066,
      "Ġxedd": 4067,
      "22": 4068,
      "akk": 4069,
      "miren": 4070,
      "Ġtmettant": 4071,
      "Ġtseddart": 4072,
      "aá¸įuf": 4073,
      "agen": 4074,
      "Ġttawi": 4075,
      "Ġyeá¹Ńá¹Ńafaren": 4076,
      "Ġanagar": 4077,
      "iha": 4078,
      "lafen": 4079,
      "elba": 4080,
      "metti": 4081,
      "Ġyixxamen": 4082,
      "ures": 4083,
      "Ġtfellaá¸¥t": 4084,
      "Ġiten": 4085,
      "Ġyimedyaten": 4086,
      "ĠSin": 4087,
      "ĠNezmer": 4088,
      "Ġá¸¥a": 4089,
      "Ġtaber": 4090,
      "ĠLmulud": 4091,
      "tik": 4092,
      "ĠMes": 4093,
      "ulfa": 4094,
      "Ġssut": 4095
    },
    "merges": [
      [
        "Ġ",
        "t"
      ],
      [
        "Ġ",
        "a"
      ],
      [
        "e",
        "n"
      ],
      [
        "É",
        "£"
      ],
      [
        "Ġ",
        "d"
      ],
      [
        "Ġ",
        "n"
      ],
      [
        "Ġ",
        "y"
      ],
      [
        "Ġ",
        "i"
      ],
      [
        "á",
        "¸"
      ],
      [
        "a",
        "n"
      ],
      [
        "Ġ",
        "u"
      ],
      [
        "e",
        "r"
      ],
      [
        "r",
        "a"
      ],
      [
        "a",
        "l"
      ],
      [
        "Ġy",
        "e"
      ],
      [
        "i",
        "n"
      ],
      [
        "e",
        "g"
      ],
      [
        "á",
        "¹"
      ],
      [
        "m",
        "a"
      ],
      [
        "Ġ",
        "s"
      ],
      [
        "á¸",
        "į"
      ],
      [
        "Ġ",
        "w"
      ],
      [
        "l",
        "a"
      ],
      [
        "e",
        "l"
      ],
      [
        "e",
        "m"
      ],
      [
        "á¸",
        "¥"
      ],
      [
        "m",
        "e"
      ],
      [
        "Ġa",
        "d"
      ],
      [
        "É",
        "Ľ"
      ],
      [
        "Ġt",
        "a"
      ],
      [
        "i",
        "s"
      ],
      [
        "Ġ",
        "A"
      ],
      [
        "k",
        "k"
      ],
      [
        "a",
        "r"
      ],
      [
        "Ġ",
        "É£"
      ],
      [
        "a",
        "s"
      ],
      [
        "Ġ",
        "l"
      ],
      [
        "Ġt",
        "e"
      ],
      [
        "t",
        "t"
      ],
      [
        "á¹",
        "Ń"
      ],
      [
        "e",
        "f"
      ],
      [
        "Ġy",
        "i"
      ],
      [
        "Ġ",
        "T"
      ],
      [
        "l",
        "i"
      ],
      [
        "Ġd",
        "eg"
      ],
      [
        "e",
        "É£"
      ],
      [
        "n",
        "a"
      ],
      [
        "e",
        "s"
      ],
      [
        "e",
        "d"
      ],
      [
        "m",
        "i"
      ],
      [
        "n",
        "i"
      ],
      [
        "a",
        "y"
      ],
      [
        "u",
        "r"
      ],
      [
        "Ġa",
        "ra"
      ],
      [
        "Ġt",
        "i"
      ],
      [
        "r",
        "i"
      ],
      [
        "d",
        "a"
      ],
      [
        "ĠÉ£",
        "er"
      ],
      [
        "Ġa",
        "kk"
      ],
      [
        "i",
        "t"
      ],
      [
        "a",
        "w"
      ],
      [
        "á",
        "º"
      ],
      [
        "e",
        "b"
      ],
      [
        "áº",
        "ĵ"
      ],
      [
        "u",
        "t"
      ],
      [
        "Ġu",
        "r"
      ],
      [
        "e",
        "á¸į"
      ],
      [
        "Ġ",
        "I"
      ],
      [
        "s",
        "s"
      ],
      [
        "Ġ",
        "M"
      ],
      [
        "Ġ",
        "k"
      ],
      [
        "s",
        "en"
      ],
      [
        "i",
        "d"
      ],
      [
        "Ġ",
        "D"
      ],
      [
        "r",
        "u"
      ],
      [
        "a",
        "g"
      ],
      [
        "ĠÉ£",
        "ef"
      ],
      [
        "Ġd",
        "i"
      ],
      [
        "z",
        "i"
      ],
      [
        "u",
        "n"
      ],
      [
        "Ġa",
        "m"
      ],
      [
        "Ç",
        "§"
      ],
      [
        "Ä",
        "į"
      ],
      [
        "Ġt",
        "u"
      ],
      [
        "w",
        "a"
      ],
      [
        "y",
        "en"
      ],
      [
        "Ġ",
        "ma"
      ],
      [
        "Ġw",
        "a"
      ],
      [
        "Ġ",
        "U"
      ],
      [
        "i",
        "w"
      ],
      [
        "e",
        "t"
      ],
      [
        "y",
        "a"
      ],
      [
        "b",
        "a"
      ],
      [
        "e",
        "q"
      ],
      [
        "Ġ",
        "("
      ],
      [
        "u",
        "l"
      ],
      [
        "i",
        "r"
      ],
      [
        "Ġ",
        "-"
      ],
      [
        "Ġ",
        "Y"
      ],
      [
        "Ġt",
        "t"
      ],
      [
        "á¹",
        "Ľ"
      ],
      [
        "á¹",
        "£"
      ],
      [
        "Ġye",
        "tt"
      ],
      [
        "Ġ",
        "S"
      ],
      [
        "m",
        "en"
      ],
      [
        "Ġa",
        "s"
      ],
      [
        "d",
        "d"
      ],
      [
        "ed",
        "d"
      ],
      [
        "Ġye",
        "l"
      ],
      [
        "Ġu",
        "s"
      ],
      [
        "e",
        "tt"
      ],
      [
        "Ġ",
        "L"
      ],
      [
        "m",
        "u"
      ],
      [
        "Ġ",
        ":"
      ],
      [
        "w",
        "en"
      ],
      [
        "á¹Ń",
        "á¹Ń"
      ],
      [
        "i",
        "l"
      ],
      [
        "g",
        "a"
      ],
      [
        "n",
        "ni"
      ],
      [
        "Ġ",
        "Â"
      ],
      [
        "l",
        "an"
      ],
      [
        ".",
        "."
      ],
      [
        "ag",
        "i"
      ],
      [
        "É£",
        "a"
      ],
      [
        "w",
        "al"
      ],
      [
        "Ġakk",
        "en"
      ],
      [
        "e",
        "z"
      ],
      [
        "a",
        "m"
      ],
      [
        "s",
        "a"
      ],
      [
        "Ġ",
        "1"
      ],
      [
        "Ġ",
        "c"
      ],
      [
        "Ġs",
        "eg"
      ],
      [
        "q",
        "q"
      ],
      [
        "a",
        "É£"
      ],
      [
        "r",
        "an"
      ],
      [
        "e",
        "k"
      ],
      [
        "w",
        "i"
      ],
      [
        "Ġ",
        "m"
      ],
      [
        "u",
        "É£"
      ],
      [
        "en",
        "t"
      ],
      [
        "e",
        "kk"
      ],
      [
        "m",
        "an"
      ],
      [
        "eg",
        "g"
      ],
      [
        "Ġi",
        "s"
      ],
      [
        "a",
        "t"
      ],
      [
        "me",
        "k"
      ],
      [
        "Ġa",
        "c"
      ],
      [
        "Ġl",
        "e"
      ],
      [
        "i",
        "m"
      ],
      [
        "Ġ",
        "f"
      ],
      [
        "Ġn",
        "eÉ£"
      ],
      [
        "Ġ",
        "b"
      ],
      [
        "r",
        "en"
      ],
      [
        "u",
        "s"
      ],
      [
        "el",
        "l"
      ],
      [
        "Ġ",
        "B"
      ],
      [
        "Ġy",
        "is"
      ],
      [
        "Ġ",
        "g"
      ],
      [
        "Ġ",
        "la"
      ],
      [
        "m",
        "er"
      ],
      [
        "la",
        "y"
      ],
      [
        "u",
        "f"
      ],
      [
        "ĠÂ",
        "«"
      ],
      [
        "Ġa",
        "n"
      ],
      [
        "Äį",
        "Äį"
      ],
      [
        "ĠU",
        "r"
      ],
      [
        "u",
        "d"
      ],
      [
        "li",
        "t"
      ],
      [
        "e",
        "w"
      ],
      [
        "an",
        "t"
      ],
      [
        "i",
        "É£"
      ],
      [
        "e",
        "c"
      ],
      [
        "el",
        "la"
      ],
      [
        "Ġ",
        "Æ"
      ],
      [
        "Ġye",
        "s"
      ],
      [
        "ĠT",
        "a"
      ],
      [
        "Ġ",
        "N"
      ],
      [
        "Ġa",
        "r"
      ],
      [
        "ÉĽ",
        "a"
      ],
      [
        "Ġt",
        "em"
      ],
      [
        "ur",
        "t"
      ],
      [
        "Ġte",
        "s"
      ],
      [
        "Ġw",
        "ay"
      ],
      [
        "Ġi",
        "d"
      ],
      [
        "e",
        "á¸¥"
      ],
      [
        "Ġ",
        ","
      ],
      [
        "me",
        "z"
      ],
      [
        "Ġk",
        "ra"
      ],
      [
        "c",
        "a"
      ],
      [
        "me",
        "d"
      ],
      [
        "es",
        "s"
      ],
      [
        "Ġyi",
        "wen"
      ],
      [
        "q",
        "b"
      ],
      [
        "me",
        "s"
      ],
      [
        "á¸į",
        "en"
      ],
      [
        "Ġ",
        "2"
      ],
      [
        "d",
        "i"
      ],
      [
        "kk",
        "en"
      ],
      [
        "d",
        "an"
      ],
      [
        "zi",
        "É£"
      ],
      [
        "Ġ",
        "z"
      ],
      [
        "en",
        "na"
      ],
      [
        "y",
        "i"
      ],
      [
        "á¹Ń",
        "as"
      ],
      [
        "Ġte",
        "tt"
      ],
      [
        "al",
        "en"
      ],
      [
        "b",
        "i"
      ],
      [
        "el",
        "li"
      ],
      [
        "Ã",
        "©"
      ],
      [
        "Ġ",
        "r"
      ],
      [
        "Ġyel",
        "la"
      ],
      [
        "t",
        "a"
      ],
      [
        "t",
        "i"
      ],
      [
        "n",
        "eÉ£"
      ],
      [
        "e",
        "ÉĽ"
      ],
      [
        "Ġu",
        "m"
      ],
      [
        "Ġk",
        "an"
      ],
      [
        "Ġa",
        "ma"
      ],
      [
        "as",
        "en"
      ],
      [
        "ĠA",
        "d"
      ],
      [
        "Ġt",
        "al"
      ],
      [
        "Ġ",
        "W"
      ],
      [
        "d",
        "u"
      ],
      [
        "Ġ",
        "mi"
      ],
      [
        "Ġye",
        "m"
      ],
      [
        "Ġye",
        "ss"
      ],
      [
        "Ġ",
        "\""
      ],
      [
        "k",
        "an"
      ],
      [
        "o",
        "n"
      ],
      [
        "n",
        "sen"
      ],
      [
        "Ġi",
        "mi"
      ],
      [
        "Ġa",
        "yen"
      ],
      [
        "Ġy",
        "er"
      ],
      [
        "Ġu",
        "la"
      ],
      [
        "c",
        "i"
      ],
      [
        "x",
        "x"
      ],
      [
        "d",
        "en"
      ],
      [
        "z",
        "al"
      ],
      [
        "ĠM",
        "a"
      ],
      [
        "ma",
        "ziÉ£"
      ],
      [
        "l",
        "en"
      ],
      [
        "Ġn",
        "ett"
      ],
      [
        "Ġ",
        "me"
      ],
      [
        "ĠT",
        "i"
      ],
      [
        "f",
        "a"
      ],
      [
        "w",
        "in"
      ],
      [
        "ar",
        "t"
      ],
      [
        "..",
        "."
      ],
      [
        "Ġw",
        "in"
      ],
      [
        "d",
        "em"
      ],
      [
        "Ġt",
        "s"
      ],
      [
        "s",
        "i"
      ],
      [
        "em",
        "m"
      ],
      [
        "Ġakk",
        "ed"
      ],
      [
        "ar",
        "en"
      ],
      [
        "ut",
        "lay"
      ],
      [
        "k",
        "a"
      ],
      [
        "Ġu",
        "n"
      ],
      [
        "u",
        "ra"
      ],
      [
        "u",
        "á¸¥"
      ],
      [
        "Ġ",
        "R"
      ],
      [
        "Ġs",
        "s"
      ],
      [
        "eq",
        "q"
      ],
      [
        "er",
        "t"
      ],
      [
        "xx",
        "am"
      ],
      [
        "u",
        "m"
      ],
      [
        "Ġu",
        "g"
      ],
      [
        "qb",
        "ay"
      ],
      [
        "Ç§",
        "Ç§"
      ],
      [
        "a",
        "d"
      ],
      [
        "z",
        "en"
      ],
      [
        "maziÉ£",
        "t"
      ],
      [
        "Ġyel",
        "lan"
      ],
      [
        "Ġa",
        "É£"
      ],
      [
        "ĠA",
        "t"
      ],
      [
        "u",
        "g"
      ],
      [
        "a",
        "f"
      ],
      [
        "Ġta",
        "s"
      ],
      [
        "me",
        "É£"
      ],
      [
        "Ġt",
        "utlay"
      ],
      [
        "ĠÆ",
        "Ĳ"
      ],
      [
        "Ġy",
        "al"
      ],
      [
        "y",
        "in"
      ],
      [
        "Â",
        "»"
      ],
      [
        "e",
        "x"
      ],
      [
        "Ġyi",
        "w"
      ],
      [
        "ĠD",
        "eg"
      ],
      [
        "i",
        "á¸į"
      ],
      [
        "is",
        "t"
      ],
      [
        "Ġ",
        "C"
      ],
      [
        "ĠÂ",
        "»"
      ],
      [
        "n",
        "u"
      ],
      [
        "Ġ",
        "x"
      ],
      [
        "ru",
        "á¸¥"
      ],
      [
        "Ġt",
        "en"
      ],
      [
        "Ġa",
        "ss"
      ],
      [
        "Ġte",
        "z"
      ],
      [
        "Ġyi",
        "d"
      ],
      [
        "Ġf",
        "ell"
      ],
      [
        "Ġye",
        "z"
      ],
      [
        "Ġg",
        "ar"
      ],
      [
        "Ġa",
        "g"
      ],
      [
        "Ġu",
        "É£"
      ],
      [
        "w",
        "ar"
      ],
      [
        "Ġn",
        "ni"
      ],
      [
        "m",
        "urt"
      ],
      [
        "t",
        "en"
      ],
      [
        "em",
        "ma"
      ],
      [
        "Ġa",
        "k"
      ],
      [
        "e",
        "h"
      ],
      [
        "Ġs",
        "i"
      ],
      [
        "Ġye",
        "b"
      ],
      [
        "k",
        "u"
      ],
      [
        "ra",
        "w"
      ],
      [
        "Ġ",
        "F"
      ],
      [
        "Ġta",
        "g"
      ],
      [
        "a",
        "k"
      ],
      [
        "ri",
        "d"
      ],
      [
        "Ġs",
        "in"
      ],
      [
        "Ġl",
        "á¸¥"
      ],
      [
        "aw",
        "al"
      ],
      [
        "Ġt",
        "me"
      ],
      [
        "Ġta",
        "ma"
      ],
      [
        "as",
        "s"
      ],
      [
        "Ġu",
        "ma"
      ],
      [
        "ĠA",
        "s"
      ],
      [
        "Ġw",
        "id"
      ],
      [
        "Ġi",
        "l"
      ],
      [
        "Ġa",
        "á¹Ńas"
      ],
      [
        "b",
        "an"
      ],
      [
        "Ġte",
        "f"
      ],
      [
        "b",
        "er"
      ],
      [
        "h",
        "i"
      ],
      [
        "Ġac",
        "u"
      ],
      [
        "c",
        "u"
      ],
      [
        "el",
        "t"
      ],
      [
        "Ġway",
        "en"
      ],
      [
        "Ġ",
        "."
      ],
      [
        "Ġi",
        "m"
      ],
      [
        "Ġa",
        "y"
      ],
      [
        "n",
        "an"
      ],
      [
        "h",
        "a"
      ],
      [
        "Ġd",
        "e"
      ],
      [
        "med",
        "ya"
      ],
      [
        "i",
        "k"
      ],
      [
        "g",
        "al"
      ],
      [
        "f",
        "er"
      ],
      [
        "qbay",
        "lit"
      ],
      [
        "uÉ£",
        "al"
      ],
      [
        "e",
        "á¹Ńá¹Ń"
      ],
      [
        "Ġa",
        "wal"
      ],
      [
        "Ġtutlay",
        "t"
      ],
      [
        "Ġyiw",
        "et"
      ],
      [
        "Ġa",
        "l"
      ],
      [
        "Ġ",
        "K"
      ],
      [
        "Ġi",
        "n"
      ],
      [
        "r",
        "is"
      ],
      [
        "Ġ",
        "ÉĽ"
      ],
      [
        "aÉ£",
        "en"
      ],
      [
        "ez",
        "z"
      ],
      [
        "Ġ",
        "á¸¥"
      ],
      [
        "É£",
        "en"
      ],
      [
        "ef",
        "f"
      ],
      [
        "ÄįÄį",
        "i"
      ],
      [
        "el",
        "ma"
      ],
      [
        "Ġt",
        "in"
      ],
      [
        "ay",
        "en"
      ],
      [
        "Ġ",
        "p"
      ],
      [
        "la",
        "q"
      ],
      [
        "Ġyi",
        "m"
      ],
      [
        "b",
        "u"
      ],
      [
        "Ġye",
        "f"
      ],
      [
        "Ġte",
        "b"
      ],
      [
        "Ġan",
        "da"
      ],
      [
        "Ġa",
        "z"
      ],
      [
        "á¸",
        "¤"
      ],
      [
        "Ġy",
        "in"
      ],
      [
        "t",
        "in"
      ],
      [
        "al",
        "a"
      ],
      [
        "Ġt",
        "er"
      ],
      [
        "Ġtu",
        "ra"
      ],
      [
        "Ġ",
        "?"
      ],
      [
        "ĠÉ£",
        "ur"
      ],
      [
        "e",
        "á¹Ľ"
      ],
      [
        "ĠÆ",
        "Ķ"
      ],
      [
        "n",
        "neÉ£"
      ],
      [
        "dd",
        "art"
      ],
      [
        "b",
        "edd"
      ],
      [
        "e",
        "j"
      ],
      [
        "ga",
        "ra"
      ],
      [
        "Ġt",
        "É£"
      ],
      [
        "Ġt",
        "murt"
      ],
      [
        "Ġw",
        "is"
      ],
      [
        "q",
        "a"
      ],
      [
        "ĠA",
        "m"
      ],
      [
        "i",
        "f"
      ],
      [
        "Ġu",
        "f"
      ],
      [
        "Ġl",
        "lan"
      ],
      [
        "Ġma",
        "ca"
      ],
      [
        "g",
        "en"
      ],
      [
        ")",
        "."
      ],
      [
        "mi",
        "r"
      ],
      [
        "sen",
        "t"
      ],
      [
        "Ġ1",
        "9"
      ],
      [
        "Ġi",
        "É£"
      ],
      [
        "u",
        "q"
      ],
      [
        "Ġta",
        "z"
      ],
      [
        "l",
        "eá¸į"
      ],
      [
        "Ġw",
        "u"
      ],
      [
        "Ġta",
        "É£"
      ],
      [
        "Ġ",
        "Z"
      ],
      [
        "Ġd",
        "aÉ£en"
      ],
      [
        "r",
        "e"
      ],
      [
        "Ġ",
        "3"
      ],
      [
        "in",
        "t"
      ],
      [
        "Ġt",
        "is"
      ],
      [
        "Ġy",
        "enna"
      ],
      [
        "ni",
        "t"
      ],
      [
        "Ġta",
        "ddart"
      ],
      [
        "es",
        "t"
      ],
      [
        "Â»",
        ","
      ],
      [
        "ri",
        "c"
      ],
      [
        "i",
        "yi"
      ],
      [
        "y",
        "ett"
      ],
      [
        "u",
        "b"
      ],
      [
        "iw",
        "in"
      ],
      [
        "b",
        "rid"
      ],
      [
        "Ġw",
        "al"
      ],
      [
        "z",
        "a"
      ],
      [
        "Ġwa",
        "kken"
      ],
      [
        "Ġ2",
        "0"
      ],
      [
        "á¹£",
        "á¹£"
      ],
      [
        "ra",
        "b"
      ],
      [
        "Ġ",
        "á¸¤"
      ],
      [
        "Ġt",
        "an"
      ],
      [
        "Ġa",
        "me"
      ],
      [
        "z",
        "u"
      ],
      [
        "ed",
        "da"
      ],
      [
        "l",
        "is"
      ],
      [
        "Ġa",
        "f"
      ],
      [
        "Ġd",
        "a"
      ],
      [
        "egg",
        "as"
      ],
      [
        "w",
        "an"
      ],
      [
        "É£",
        "i"
      ],
      [
        "Ġ",
        "ba"
      ],
      [
        "Ġt",
        "maziÉ£t"
      ],
      [
        "Ġc",
        "c"
      ],
      [
        "Ġ",
        "!"
      ],
      [
        "á¸į",
        "ris"
      ],
      [
        "Ġd",
        "u"
      ],
      [
        "Ġta",
        "y"
      ],
      [
        "á¹Ńá¹Ń",
        "ut"
      ],
      [
        "w",
        "it"
      ],
      [
        ")",
        ","
      ],
      [
        "Ġa",
        "mek"
      ],
      [
        "g",
        "er"
      ],
      [
        "ra",
        "r"
      ],
      [
        "eb",
        "bi"
      ],
      [
        "Ġn",
        "ekk"
      ],
      [
        "Ġnett",
        "a"
      ],
      [
        "Ġte",
        "w"
      ],
      [
        "Ġte",
        "ss"
      ],
      [
        "in",
        "es"
      ],
      [
        "mez",
        "war"
      ],
      [
        "Ġta",
        "f"
      ],
      [
        "c",
        "t"
      ],
      [
        "Ġta",
        "m"
      ],
      [
        "Ġd",
        "d"
      ],
      [
        "Ġti",
        "d"
      ],
      [
        "Ġta",
        "me"
      ],
      [
        "Ġl",
        "eq"
      ],
      [
        "em",
        "t"
      ],
      [
        "Ġac",
        "ku"
      ],
      [
        "Ġti",
        "k"
      ],
      [
        "ma",
        "wen"
      ],
      [
        "i",
        "li"
      ],
      [
        "al",
        "i"
      ],
      [
        "Ġakk",
        "a"
      ],
      [
        "á¸¥",
        "a"
      ],
      [
        "Ġi",
        "laq"
      ],
      [
        "Ġtu",
        "d"
      ],
      [
        "á¸¥",
        "ric"
      ],
      [
        "f",
        "u"
      ],
      [
        "er",
        "ra"
      ],
      [
        "r",
        "eá¸į"
      ],
      [
        "ga",
        "z"
      ],
      [
        "ĠT",
        "as"
      ],
      [
        "Ġ",
        "qq"
      ],
      [
        "ÉĽ",
        "an"
      ],
      [
        "Ġis",
        "em"
      ],
      [
        "Ġula",
        "c"
      ],
      [
        "Ġa",
        "la"
      ],
      [
        "áºĵ",
        "áºĵ"
      ],
      [
        "mes",
        "lay"
      ],
      [
        "Ġa",
        "zal"
      ],
      [
        "n",
        "en"
      ],
      [
        "o",
        "m"
      ],
      [
        "á¸¥",
        "al"
      ],
      [
        "Ġ",
        "á¹"
      ],
      [
        "Ġu",
        "d"
      ],
      [
        "Ġte",
        "É£"
      ],
      [
        "zi",
        "k"
      ],
      [
        "na",
        "mek"
      ],
      [
        "Ġi",
        "ÉĽ"
      ],
      [
        "Ġt",
        "eg"
      ],
      [
        "ay",
        "t"
      ],
      [
        "na",
        "t"
      ],
      [
        "Ġma",
        "ÄįÄįi"
      ],
      [
        "Ġa",
        "t"
      ],
      [
        "Ġta",
        "r"
      ],
      [
        "Ġye",
        "w"
      ],
      [
        "g",
        "i"
      ],
      [
        "Ġa",
        "ya"
      ],
      [
        "er",
        "ru"
      ],
      [
        "f",
        "en"
      ],
      [
        "a",
        "b"
      ],
      [
        "a",
        "ÉĽ"
      ],
      [
        "Ġu",
        "z"
      ],
      [
        "Ġnni",
        "á¸įen"
      ],
      [
        "ĠM",
        "i"
      ],
      [
        "Ġ",
        "4"
      ],
      [
        "dd",
        "en"
      ],
      [
        "Ġd",
        "É£a"
      ],
      [
        "Ġi",
        "x"
      ],
      [
        "Ġi",
        "z"
      ],
      [
        "ĠI",
        "s"
      ],
      [
        "Ġi",
        "man"
      ],
      [
        "É£",
        "al"
      ],
      [
        "c",
        "en"
      ],
      [
        "l",
        "es"
      ],
      [
        "da",
        "m"
      ],
      [
        "en",
        "d"
      ],
      [
        "ef",
        "k"
      ],
      [
        "Ġi",
        "w"
      ],
      [
        "Ġ",
        "á¹Ńá¹Ń"
      ],
      [
        "y",
        "u"
      ],
      [
        "ew",
        "w"
      ],
      [
        "ur",
        "en"
      ],
      [
        "z",
        "an"
      ],
      [
        "ul",
        "t"
      ],
      [
        "Ġt",
        "ella"
      ],
      [
        "Ġw",
        "awal"
      ],
      [
        "aw",
        "i"
      ],
      [
        "ekk",
        "a"
      ],
      [
        "Ġi",
        "á¸¥"
      ],
      [
        "aw",
        "alen"
      ],
      [
        "Ġ",
        "G"
      ],
      [
        "Ġ",
        "/"
      ],
      [
        "Ġ",
        "ï"
      ],
      [
        "Ġ",
        "zik"
      ],
      [
        "er",
        "r"
      ],
      [
        "f",
        "an"
      ],
      [
        "l",
        "al"
      ],
      [
        "Ġb",
        "elli"
      ],
      [
        "iw",
        "en"
      ],
      [
        "Ġle",
        "á¸¥"
      ],
      [
        "Ġw",
        "ass"
      ],
      [
        "Ġ",
        "H"
      ],
      [
        "Ġti",
        "m"
      ],
      [
        "e",
        "ÄįÄį"
      ],
      [
        "o",
        "u"
      ],
      [
        "Ġt",
        "mu"
      ],
      [
        "É£",
        "er"
      ],
      [
        "in",
        "i"
      ],
      [
        "Ġa",
        "q"
      ],
      [
        "Ġle",
        "ÉĽ"
      ],
      [
        "á¸į",
        "t"
      ],
      [
        "Ġ",
        ";"
      ],
      [
        "Ġtu",
        "g"
      ],
      [
        "q",
        "u"
      ],
      [
        "Ġy",
        "a"
      ],
      [
        "uf",
        "a"
      ],
      [
        "medya",
        "z"
      ],
      [
        "Ġye",
        "qq"
      ],
      [
        "y",
        "an"
      ],
      [
        "áºĵ",
        "ri"
      ],
      [
        "u",
        "k"
      ],
      [
        "i",
        "b"
      ],
      [
        "É£",
        "an"
      ],
      [
        "r",
        "eÉ£"
      ],
      [
        "dan",
        "en"
      ],
      [
        "Ġi",
        "wa"
      ],
      [
        "l",
        "eÉ£"
      ],
      [
        "g",
        "an"
      ],
      [
        "á¸į",
        "a"
      ],
      [
        "un",
        "t"
      ],
      [
        "aw",
        "en"
      ],
      [
        "f",
        "eÉ£"
      ],
      [
        "egg",
        "asen"
      ],
      [
        "ĠA",
        "n"
      ],
      [
        "Ġtud",
        "ert"
      ],
      [
        "Ġus",
        "eggas"
      ],
      [
        "ir",
        "t"
      ],
      [
        "Ġw",
        "ar"
      ],
      [
        "ri",
        "t"
      ],
      [
        "Ġs",
        "nat"
      ],
      [
        "Ġyem",
        "ma"
      ],
      [
        "ur",
        "i"
      ],
      [
        "Ġw",
        "as"
      ],
      [
        "ra",
        "y"
      ],
      [
        "Ġ",
        "â"
      ],
      [
        "tt",
        "i"
      ],
      [
        "w",
        "t"
      ],
      [
        "mu",
        "d"
      ],
      [
        "Ġw",
        "i"
      ],
      [
        "ec",
        "t"
      ],
      [
        "Ġt",
        "f"
      ],
      [
        "qq",
        "ran"
      ],
      [
        "Ġd",
        "in"
      ],
      [
        "Ġ",
        "5"
      ],
      [
        "ar",
        "u"
      ],
      [
        "Ġ",
        "P"
      ],
      [
        "ek",
        "la"
      ],
      [
        "Ġti",
        "ra"
      ],
      [
        "l",
        "u"
      ],
      [
        "s",
        "it"
      ],
      [
        "y",
        "ag"
      ],
      [
        "w",
        "as"
      ],
      [
        "c",
        "em"
      ],
      [
        "Ġ",
        "["
      ],
      [
        "ĠD",
        "i"
      ],
      [
        "Ġw",
        "an"
      ],
      [
        "b",
        "en"
      ],
      [
        "Ġta",
        "qbaylit"
      ],
      [
        "i",
        "tt"
      ],
      [
        "ĠA",
        "mek"
      ],
      [
        "Ġyer",
        "na"
      ],
      [
        "e",
        "y"
      ],
      [
        "e",
        "Ç§Ç§"
      ],
      [
        "r",
        "in"
      ],
      [
        "al",
        "t"
      ],
      [
        "ss",
        "an"
      ],
      [
        "Ġn",
        "es"
      ],
      [
        "n",
        "es"
      ],
      [
        "eb",
        "b"
      ],
      [
        "ĠM",
        "uá¸¥"
      ],
      [
        "Ġ",
        "j"
      ],
      [
        "s",
        "t"
      ],
      [
        "u",
        "dd"
      ],
      [
        "Ġl",
        "eb"
      ],
      [
        "r",
        "es"
      ],
      [
        "Ġl",
        "x"
      ],
      [
        "ĠTi",
        "zi"
      ],
      [
        "x",
        "ef"
      ],
      [
        "Ġyes",
        "ÉĽa"
      ],
      [
        "Ġta",
        "ÉĽ"
      ],
      [
        "Ġi",
        "g"
      ],
      [
        "elma",
        "den"
      ],
      [
        "0",
        "0"
      ],
      [
        "ay",
        "er"
      ],
      [
        "ma",
        "r"
      ],
      [
        "Ġwa",
        "á¹Ńas"
      ],
      [
        "Ġy",
        "en"
      ],
      [
        "á¸į",
        "an"
      ],
      [
        "Ġye",
        "kk"
      ],
      [
        "Ġu",
        "l"
      ],
      [
        "m",
        "ut"
      ],
      [
        "Ġy",
        "uÉ£al"
      ],
      [
        "Ġl",
        "q"
      ],
      [
        "Ġi",
        "r"
      ],
      [
        "leá¸į",
        "t"
      ],
      [
        "Ġu",
        "xxam"
      ],
      [
        "Ġi",
        "f"
      ],
      [
        "mezwar",
        "u"
      ],
      [
        "da",
        "t"
      ],
      [
        "Ġ",
        "q"
      ],
      [
        "Ġi",
        "me"
      ],
      [
        "i",
        "q"
      ],
      [
        "o",
        "r"
      ],
      [
        "Ġz",
        "z"
      ],
      [
        "Ġi",
        "t"
      ],
      [
        "Ġ",
        "á¹£á¹£"
      ],
      [
        "wa",
        "c"
      ],
      [
        "Ġta",
        "w"
      ],
      [
        "y",
        "as"
      ],
      [
        "n",
        "ut"
      ],
      [
        "Ġyi",
        "li"
      ],
      [
        "Ġl",
        "em"
      ],
      [
        "Ġl",
        "ÉĽ"
      ],
      [
        "Ġti",
        "g"
      ],
      [
        "Ġ",
        "X"
      ],
      [
        "b",
        "ay"
      ],
      [
        "l",
        "em"
      ],
      [
        "d",
        "er"
      ],
      [
        "ex",
        "dem"
      ],
      [
        "Ġy",
        "u"
      ],
      [
        "aw",
        "in"
      ],
      [
        "rab",
        "t"
      ],
      [
        "Ġi",
        "hi"
      ],
      [
        "Ġba",
        "ba"
      ],
      [
        "Ġle",
        "x"
      ],
      [
        "Ġte",
        "qbaylit"
      ],
      [
        "á¹Ń",
        "a"
      ],
      [
        "i",
        "g"
      ],
      [
        "m",
        "al"
      ],
      [
        "áºĵ",
        "ar"
      ],
      [
        "Ġ",
        "J"
      ],
      [
        "É£",
        "li"
      ],
      [
        "Ġt",
        "ma"
      ],
      [
        "il",
        "t"
      ],
      [
        "iw",
        "ant"
      ],
      [
        "Ġtal",
        "É£a"
      ],
      [
        "ay",
        "a"
      ],
      [
        "Ġn",
        "ess"
      ],
      [
        "Ġac",
        "á¸¥al"
      ],
      [
        "d",
        "in"
      ],
      [
        "Ġi",
        "yi"
      ],
      [
        "Ġyis",
        "em"
      ],
      [
        "Ġ",
        "6"
      ],
      [
        "Ġa",
        "brid"
      ],
      [
        "k",
        "er"
      ],
      [
        "Ġw",
        "awalen"
      ],
      [
        "Ġwa",
        "k"
      ],
      [
        "y",
        "es"
      ],
      [
        "t",
        "er"
      ],
      [
        "h",
        "an"
      ],
      [
        "Ġu",
        "q"
      ],
      [
        "Ġm",
        "mi"
      ],
      [
        "ÉĽ",
        "na"
      ],
      [
        "Ġa",
        "mezwaru"
      ],
      [
        "Ġi",
        "á¸į"
      ],
      [
        "Ġi",
        "ma"
      ],
      [
        "y",
        "ess"
      ],
      [
        "aw",
        "eá¸į"
      ],
      [
        "ew",
        "wi"
      ],
      [
        "l",
        "in"
      ],
      [
        "x",
        "edd"
      ],
      [
        "Ġ",
        "E"
      ],
      [
        "w",
        "ay"
      ],
      [
        "Ġ",
        "Q"
      ],
      [
        "ÉĽ",
        "i"
      ],
      [
        "Ġyett",
        "wa"
      ],
      [
        "z",
        "z"
      ],
      [
        "emm",
        "el"
      ],
      [
        "Ġyel",
        "li"
      ],
      [
        "Ġw",
        "ul"
      ],
      [
        "á¸¥",
        "en"
      ],
      [
        "y",
        "er"
      ],
      [
        "Ġyes",
        "ÉĽan"
      ],
      [
        "a",
        "á¸į"
      ],
      [
        "me",
        "á¸į"
      ],
      [
        "da",
        "d"
      ],
      [
        "em",
        "mi"
      ],
      [
        "id",
        "ir"
      ],
      [
        "li",
        "É£"
      ],
      [
        "ed",
        "men"
      ],
      [
        "Ġd",
        "du"
      ],
      [
        "na",
        "f"
      ],
      [
        "u",
        "mi"
      ],
      [
        "Ġye",
        "á¹Ńá¹Ń"
      ],
      [
        "y",
        "nut"
      ],
      [
        "Ġtem",
        "na"
      ],
      [
        "er",
        "s"
      ],
      [
        "Ġt",
        "la"
      ],
      [
        "ba",
        "ÉĽ"
      ],
      [
        "Ġiwa",
        "kken"
      ],
      [
        "Ġw",
        "ud"
      ],
      [
        "Ġ",
        "h"
      ],
      [
        "Ġway",
        "a"
      ],
      [
        "z",
        "em"
      ],
      [
        "Ġtag",
        "gara"
      ],
      [
        "ĠT",
        "om"
      ],
      [
        "x",
        "el"
      ],
      [
        "i",
        "yen"
      ],
      [
        "la",
        "yen"
      ],
      [
        "Ġti",
        "kk"
      ],
      [
        "Ġtem",
        "s"
      ],
      [
        "a",
        "c"
      ],
      [
        "e",
        "áºĵ"
      ],
      [
        "ĠU",
        "la"
      ],
      [
        "s",
        "ist"
      ],
      [
        "ri",
        "r"
      ],
      [
        "r",
        "o"
      ],
      [
        "ĠA",
        "kken"
      ],
      [
        "a",
        "ra"
      ],
      [
        "na",
        "di"
      ],
      [
        "ĠA",
        "r"
      ],
      [
        "Ġtu",
        "É£al"
      ],
      [
        "Ġti",
        "li"
      ],
      [
        "is",
        "en"
      ],
      [
        "Ġyi",
        "r"
      ],
      [
        "Ġtme",
        "á¹Ńá¹Ńut"
      ],
      [
        "da",
        "É£"
      ],
      [
        "ĠR",
        "ebbi"
      ],
      [
        "Ġyis",
        "eggasen"
      ],
      [
        "Ġi",
        "c"
      ],
      [
        "ĠB",
        "u"
      ],
      [
        "Ġn",
        "ez"
      ],
      [
        "elma",
        "d"
      ],
      [
        "m",
        "ma"
      ],
      [
        "medyaz",
        "t"
      ],
      [
        "l",
        "e"
      ],
      [
        "q",
        "en"
      ],
      [
        "Ã",
        "¨"
      ],
      [
        "ef",
        "ra"
      ],
      [
        "x",
        "dem"
      ],
      [
        "wa",
        "ra"
      ],
      [
        "Ġtme",
        "tti"
      ],
      [
        "Ġa",
        "w"
      ],
      [
        "id",
        "i"
      ],
      [
        "d",
        "eg"
      ],
      [
        "bay",
        "el"
      ],
      [
        "bedd",
        "el"
      ],
      [
        "Ġa",
        "xxam"
      ],
      [
        "k",
        "en"
      ],
      [
        "h",
        "at"
      ],
      [
        "Ġnett",
        "at"
      ],
      [
        "n",
        "ul"
      ],
      [
        "edd",
        "i"
      ],
      [
        "Ġ",
        "7"
      ],
      [
        "ti",
        "on"
      ],
      [
        "Ġye",
        "g"
      ],
      [
        "Ġar",
        "mi"
      ],
      [
        "ezz",
        "ayer"
      ],
      [
        "nni",
        "á¸įen"
      ],
      [
        "Ġt",
        "n"
      ],
      [
        "men",
        "d"
      ],
      [
        "Ġw",
        "un"
      ],
      [
        "á¹Ľ",
        "a"
      ],
      [
        "wal",
        "i"
      ],
      [
        "sent",
        "el"
      ],
      [
        "Ġqq",
        "aren"
      ],
      [
        "m",
        "t"
      ],
      [
        "Ġt",
        "k"
      ],
      [
        "Ġti",
        "É£"
      ],
      [
        "Ġ",
        "0"
      ],
      [
        "Ġyi",
        "á¸į"
      ],
      [
        "i",
        "on"
      ],
      [
        "g",
        "u"
      ],
      [
        "ci",
        "c"
      ],
      [
        "Ġtal",
        "lit"
      ],
      [
        "d",
        "É£a"
      ],
      [
        "Ġg",
        "er"
      ],
      [
        "qb",
        "el"
      ],
      [
        "h",
        "il"
      ],
      [
        "Ġi",
        "tt"
      ],
      [
        "eg",
        "z"
      ],
      [
        "w",
        "el"
      ],
      [
        "Ġug",
        "ar"
      ],
      [
        "ra",
        "t"
      ],
      [
        "Ġtid",
        "et"
      ],
      [
        "ĠS",
        "i"
      ],
      [
        "Ġme",
        "dden"
      ],
      [
        "É£",
        "eÉ£"
      ],
      [
        "i",
        "á¸¥"
      ],
      [
        "ba",
        "z"
      ],
      [
        "Ġtu",
        "l"
      ],
      [
        "Ġt",
        "el"
      ],
      [
        "Ġt",
        "á¸¥"
      ],
      [
        "Ġte",
        "á¸¥"
      ],
      [
        "Ġid",
        "eg"
      ],
      [
        "Ġyez",
        "mer"
      ],
      [
        "n",
        "ar"
      ],
      [
        "Ġma",
        "zal"
      ],
      [
        "Ġa",
        "ÉĽ"
      ],
      [
        "s",
        "an"
      ],
      [
        "â",
        "µ"
      ],
      [
        "la",
        "m"
      ],
      [
        "Ġyi",
        "man"
      ],
      [
        "Ġte",
        "qq"
      ],
      [
        "Ġtes",
        "ÉĽa"
      ],
      [
        "\"",
        "."
      ],
      [
        "Ġkra",
        "á¸į"
      ],
      [
        "Ġye",
        "á¸¥"
      ],
      [
        "Ġwa",
        "man"
      ],
      [
        "Ġye",
        "ÉĽ"
      ],
      [
        "Ġi",
        "b"
      ],
      [
        "c",
        "c"
      ],
      [
        "É£",
        "ar"
      ],
      [
        "Ġt",
        "ÉĽ"
      ],
      [
        "ma",
        "ÉĽ"
      ],
      [
        "ĠÉ£",
        "as"
      ],
      [
        "Ġu",
        "á¸įris"
      ],
      [
        "raw",
        "t"
      ],
      [
        "Ġtaz",
        "wara"
      ],
      [
        "Ġi",
        "k"
      ],
      [
        "eff",
        "ir"
      ],
      [
        "Ġts",
        "ekla"
      ],
      [
        "Ġt",
        "l"
      ],
      [
        "É£",
        "ur"
      ],
      [
        "Ġa",
        "sen"
      ],
      [
        "Ġum",
        "dan"
      ],
      [
        "Ġye",
        "á¸į"
      ],
      [
        "ef",
        "ru"
      ],
      [
        "Ġu",
        "k"
      ],
      [
        "ĠT",
        "am"
      ],
      [
        "s",
        "u"
      ],
      [
        "ĠI",
        "xef"
      ],
      [
        "Ç§",
        "a"
      ],
      [
        "ĠÂ»",
        "."
      ],
      [
        "Ġ",
        "8"
      ],
      [
        "w",
        "ir"
      ],
      [
        "eb",
        "á¸¥"
      ],
      [
        "Ġ20",
        "1"
      ],
      [
        "mu",
        "s"
      ],
      [
        "il",
        "in"
      ],
      [
        "t",
        "ar"
      ],
      [
        "Ġye",
        "k"
      ],
      [
        "ĠA",
        "y"
      ],
      [
        "Ġte",
        "k"
      ],
      [
        "ĠL",
        "ezzayer"
      ],
      [
        "É£",
        "u"
      ],
      [
        "ru",
        "y"
      ],
      [
        "i",
        "men"
      ],
      [
        "il",
        "en"
      ],
      [
        "eb",
        "ba"
      ],
      [
        "h",
        "em"
      ],
      [
        "Ġd",
        "es"
      ],
      [
        "aw",
        "t"
      ],
      [
        "á¸į",
        "in"
      ],
      [
        "la",
        "f"
      ],
      [
        "á¹Ń",
        "i"
      ],
      [
        "Ġti",
        "ma"
      ],
      [
        "u",
        "ma"
      ],
      [
        "wac",
        "ult"
      ],
      [
        "Ġte",
        "dd"
      ],
      [
        "ĠS",
        "eg"
      ],
      [
        "ra",
        "d"
      ],
      [
        "Ġl",
        "es"
      ],
      [
        "Ġa",
        "á¸¥"
      ],
      [
        "edd",
        "an"
      ],
      [
        "Ġn",
        "n"
      ],
      [
        "Ġi",
        "q"
      ],
      [
        "Ġu",
        "mez"
      ],
      [
        "Ġwud",
        "em"
      ],
      [
        "Ġte",
        "d"
      ],
      [
        "Ġway",
        "eá¸į"
      ],
      [
        "m",
        "el"
      ],
      [
        "Ġyis",
        "mawen"
      ],
      [
        "Ġam",
        "en"
      ],
      [
        "ef",
        "ka"
      ],
      [
        "yen",
        "na"
      ],
      [
        "ĠA",
        "l"
      ],
      [
        "it",
        "en"
      ],
      [
        "t",
        "e"
      ],
      [
        "Ġye",
        "dd"
      ],
      [
        "da",
        "w"
      ],
      [
        "qu",
        "e"
      ],
      [
        "Ġ",
        "ruá¸¥"
      ],
      [
        "Ġu",
        "ÉĽ"
      ],
      [
        "Ġd",
        "effir"
      ],
      [
        "wal",
        "a"
      ],
      [
        "Ġame",
        "qqran"
      ],
      [
        "Ġme",
        "qq"
      ],
      [
        "ĠY",
        "ella"
      ],
      [
        "f",
        "i"
      ],
      [
        "ĠtaÉĽ",
        "rabt"
      ],
      [
        "s",
        "el"
      ],
      [
        "b",
        "la"
      ],
      [
        "r",
        "ef"
      ],
      [
        "k",
        "i"
      ],
      [
        "z",
        "un"
      ],
      [
        "ĠI",
        "É£"
      ],
      [
        "Ġï",
        "Ĥ"
      ],
      [
        "d",
        "eÉ£"
      ],
      [
        "ur",
        "an"
      ],
      [
        "j",
        "a"
      ],
      [
        "d",
        "int"
      ],
      [
        "Ġu",
        "brid"
      ],
      [
        "ĠA",
        "ss"
      ],
      [
        "q",
        "el"
      ],
      [
        "f",
        "el"
      ],
      [
        "ca",
        "h"
      ],
      [
        "ar",
        "i"
      ],
      [
        "b",
        "eá¸¥"
      ],
      [
        "Ġwu",
        "ssan"
      ],
      [
        "ÉĽ",
        "en"
      ],
      [
        "Ġa",
        "x"
      ],
      [
        "ri",
        "f"
      ],
      [
        "n",
        "er"
      ],
      [
        "g",
        "ar"
      ],
      [
        "ya",
        "á¸į"
      ],
      [
        "Ġyi",
        "l"
      ],
      [
        "ĠT",
        "t"
      ],
      [
        "Ġtikk",
        "elt"
      ],
      [
        "c",
        "h"
      ],
      [
        "Ġye",
        "ÄįÄį"
      ],
      [
        "Ġs",
        "ÉĽ"
      ],
      [
        "in",
        "ist"
      ],
      [
        "b",
        "ar"
      ],
      [
        "Ġta",
        "q"
      ],
      [
        "Ġi",
        "ruá¸¥"
      ],
      [
        "ĠA",
        "g"
      ],
      [
        "ran",
        "sist"
      ],
      [
        "d",
        "ud"
      ],
      [
        "Ġ",
        "á¹Ľ"
      ],
      [
        "ĠT",
        "an"
      ],
      [
        "Ġ",
        "'"
      ],
      [
        "Æ",
        "Ĳ"
      ],
      [
        "edd",
        "u"
      ],
      [
        "Ġt",
        "enna"
      ],
      [
        "w",
        "eá¸į"
      ],
      [
        "mez",
        "daÉ£"
      ],
      [
        "n",
        "t"
      ],
      [
        "ĠA",
        "á¹Ńas"
      ],
      [
        "er",
        "baz"
      ],
      [
        "Ġye",
        "c"
      ],
      [
        "Ġtame",
        "á¹Ńá¹Ńut"
      ],
      [
        "mezwar",
        "ut"
      ],
      [
        "Ġ",
        "*"
      ],
      [
        "g",
        "un"
      ],
      [
        "t",
        "eq"
      ],
      [
        "Ġda",
        "xel"
      ],
      [
        "Ġun",
        "gal"
      ],
      [
        "mes",
        "layen"
      ],
      [
        "Ġ",
        "9"
      ],
      [
        "Ġ",
        "á¹Ń"
      ],
      [
        "Ġwa",
        "mek"
      ],
      [
        "Ġddu",
        "nit"
      ],
      [
        "as",
        "t"
      ],
      [
        "b",
        "el"
      ],
      [
        "Ġ",
        "kk"
      ],
      [
        "Ġti",
        "r"
      ],
      [
        "m",
        "is"
      ],
      [
        "n",
        "in"
      ],
      [
        "Ġm",
        "li"
      ],
      [
        "Ġla",
        "dÉ£a"
      ],
      [
        "Ġta",
        "maziÉ£t"
      ],
      [
        "kk",
        "a"
      ],
      [
        "ur",
        "e"
      ],
      [
        "fer",
        "d"
      ],
      [
        "Ġti",
        "f"
      ],
      [
        "ri",
        "É£"
      ],
      [
        "ĠA",
        "z"
      ],
      [
        "di",
        "c"
      ],
      [
        "Ġtay",
        "ri"
      ],
      [
        "men",
        "t"
      ],
      [
        "g",
        "et"
      ],
      [
        "ĠÆĶ",
        "ef"
      ],
      [
        "Ġá¹",
        "¬"
      ],
      [
        "Ġyett",
        "ili"
      ],
      [
        "Ġus",
        "el"
      ],
      [
        "n",
        "uÉ£"
      ],
      [
        "áºĵ",
        "i"
      ],
      [
        "ray",
        "t"
      ],
      [
        "c",
        "e"
      ],
      [
        "Ġye",
        "Ç§Ç§"
      ],
      [
        "g",
        "it"
      ],
      [
        "g",
        "ay"
      ],
      [
        "Ġk",
        "eÄįÄį"
      ],
      [
        "ĠY",
        "ett"
      ],
      [
        "ni",
        "É£"
      ],
      [
        "Ġas",
        "mi"
      ],
      [
        "Ġl",
        "Ç§"
      ],
      [
        "Ġyew",
        "wi"
      ],
      [
        "Ġwun",
        "gal"
      ],
      [
        "É£",
        "iÉ£"
      ],
      [
        "ru",
        "m"
      ],
      [
        "r",
        "em"
      ],
      [
        "eg",
        "ga"
      ],
      [
        "áºĵ",
        "er"
      ],
      [
        "Ġ1",
        "0"
      ],
      [
        "Ġd",
        "ayen"
      ],
      [
        "Ġn",
        "eb"
      ],
      [
        "Ġc",
        "wi"
      ],
      [
        "y",
        "ez"
      ],
      [
        "Ġte",
        "q"
      ],
      [
        "ĠI",
        "hi"
      ],
      [
        "Ġt",
        "z"
      ],
      [
        "ĠA",
        "ma"
      ],
      [
        "ed",
        "É£eÉ£"
      ],
      [
        "ĠA",
        "c"
      ],
      [
        "ĠI",
        "l"
      ],
      [
        "qbay",
        "li"
      ],
      [
        "ĠT",
        "im"
      ],
      [
        "w",
        "lan"
      ],
      [
        "u",
        "c"
      ],
      [
        "Ġta",
        "b"
      ],
      [
        "Ġye",
        "É£"
      ],
      [
        "Ġ20",
        "0"
      ],
      [
        "Ġyi",
        "f"
      ],
      [
        "g",
        "t"
      ],
      [
        "n",
        "nes"
      ],
      [
        "na",
        "w"
      ],
      [
        "á¹Ń",
        "uá¸¥"
      ],
      [
        "Ġá¹",
        "ļ"
      ],
      [
        "Ġn",
        "af"
      ],
      [
        "ĠY",
        "enna"
      ],
      [
        "u",
        "á¸į"
      ],
      [
        "ĠA",
        "k"
      ],
      [
        "y",
        "el"
      ],
      [
        "ĠL",
        "a"
      ],
      [
        "cah",
        "ut"
      ],
      [
        "Ġta",
        "d"
      ],
      [
        "ĠMa",
        "ca"
      ],
      [
        "Ġye",
        "d"
      ],
      [
        "Ġta",
        "mezwarut"
      ],
      [
        "b",
        "eÉĽ"
      ],
      [
        "Ġme",
        "bla"
      ],
      [
        "Ġu",
        "namek"
      ],
      [
        "mer",
        "t"
      ],
      [
        "Ġa",
        "namek"
      ],
      [
        "o",
        "ur"
      ],
      [
        "Ġyeb",
        "É£a"
      ],
      [
        "ra",
        "c"
      ],
      [
        "Ġti",
        "l"
      ],
      [
        "ci",
        "ct"
      ],
      [
        "an",
        "en"
      ],
      [
        "Ġmli",
        "á¸¥"
      ],
      [
        "Ġwas",
        "mi"
      ],
      [
        "h",
        "u"
      ],
      [
        "Ġm",
        "inist"
      ],
      [
        "f",
        "ir"
      ],
      [
        "Ġyi",
        "É£"
      ],
      [
        "Ġti",
        "z"
      ],
      [
        "me",
        "ÉĽ"
      ],
      [
        "mi",
        "l"
      ],
      [
        "n",
        "al"
      ],
      [
        "q",
        "i"
      ],
      [
        "t",
        "u"
      ],
      [
        "Ġlá¸¥",
        "al"
      ],
      [
        "Ġu",
        "c"
      ],
      [
        "Ġam",
        "kan"
      ],
      [
        "eqq",
        "ar"
      ],
      [
        "ura",
        "r"
      ],
      [
        "la",
        "É£"
      ],
      [
        "i",
        "c"
      ],
      [
        "ĠL",
        "eq"
      ],
      [
        "ĠMuá¸¥",
        "end"
      ],
      [
        "ĠA",
        "yen"
      ],
      [
        "Ġyi",
        "ma"
      ],
      [
        "Ġar",
        "gaz"
      ],
      [
        "Ġtay",
        "eá¸į"
      ],
      [
        "Ġtutlay",
        "in"
      ],
      [
        "mi",
        "t"
      ],
      [
        "u",
        "dam"
      ],
      [
        "Ġg",
        "ma"
      ],
      [
        "ĠT",
        "ag"
      ],
      [
        "ĠT",
        "aw"
      ],
      [
        "Ġti",
        "la"
      ],
      [
        "f",
        "ar"
      ],
      [
        "Ġta",
        "á¸¥"
      ],
      [
        "Ġuma",
        "ta"
      ],
      [
        "É£",
        "iá¸į"
      ],
      [
        "Ġu",
        "sen"
      ],
      [
        "y",
        "ar"
      ],
      [
        "an",
        "i"
      ],
      [
        "ĠF",
        "ran"
      ],
      [
        "ba",
        "d"
      ],
      [
        "Ġ",
        "Ç"
      ],
      [
        "al",
        "ay"
      ],
      [
        "er",
        "d"
      ],
      [
        "sa",
        "b"
      ],
      [
        "Ġl",
        "qa"
      ],
      [
        "Ġal",
        "mi"
      ],
      [
        "á¸į",
        "i"
      ],
      [
        "Ġl",
        "w"
      ],
      [
        "k",
        "el"
      ],
      [
        "Ġt",
        "g"
      ],
      [
        "na",
        "m"
      ],
      [
        "Ġa",
        "ni"
      ],
      [
        "eb",
        "d"
      ],
      [
        "ĠS",
        "idi"
      ],
      [
        "en",
        "f"
      ],
      [
        "Ġta",
        "k"
      ],
      [
        "ru",
        "s"
      ],
      [
        "Ġle",
        "h"
      ],
      [
        "Ġb",
        "u"
      ],
      [
        "u",
        "kk"
      ],
      [
        "ĠN",
        "ekk"
      ],
      [
        "Ġyer",
        "zan"
      ],
      [
        "eqq",
        "a"
      ],
      [
        "q",
        "t"
      ],
      [
        "Ġw",
        "em"
      ],
      [
        "Ġta",
        "murt"
      ],
      [
        "z",
        "er"
      ],
      [
        "ĠA",
        "wal"
      ],
      [
        "Ġt",
        "ent"
      ],
      [
        "eww",
        "eá¸į"
      ],
      [
        "aw",
        "sa"
      ],
      [
        "ebá¸¥",
        "it"
      ],
      [
        "wa",
        "É£"
      ],
      [
        "ĠTa",
        "z"
      ],
      [
        "w",
        "urt"
      ],
      [
        "Ġye",
        "xdem"
      ],
      [
        "É£",
        "el"
      ],
      [
        "Ġu",
        "dem"
      ],
      [
        "b",
        "ir"
      ],
      [
        "Ġt",
        "wacult"
      ],
      [
        "nsen",
        "t"
      ],
      [
        "ci",
        "x"
      ],
      [
        "Ġa",
        "hat"
      ],
      [
        "xedd",
        "im"
      ],
      [
        "i",
        "á¸įen"
      ],
      [
        "Ġcwi",
        "á¹Ń"
      ],
      [
        "É",
        "Ļ"
      ],
      [
        "á¸¥",
        "t"
      ],
      [
        "á¹£",
        "a"
      ],
      [
        "Ġn",
        "ufa"
      ],
      [
        "Ġam",
        "dan"
      ],
      [
        "Ġam",
        "s"
      ],
      [
        "n",
        "as"
      ],
      [
        "en",
        "s"
      ],
      [
        "wa",
        "Ç§"
      ],
      [
        "1",
        "9"
      ],
      [
        "eb",
        "ÉĽa"
      ],
      [
        "áº",
        "Ĵ"
      ],
      [
        "Ġiw",
        "umi"
      ],
      [
        "Ã",
        "ª"
      ],
      [
        "áºĵ",
        "ra"
      ],
      [
        "y",
        "irt"
      ],
      [
        "Ã",
        "¢"
      ],
      [
        "ĠW",
        "in"
      ],
      [
        "ĠIs",
        "em"
      ],
      [
        "ĠD",
        "É£a"
      ],
      [
        "Ġta",
        "á¹£"
      ],
      [
        "ĠtÉ£",
        "iwant"
      ],
      [
        "Ġleq",
        "dic"
      ],
      [
        "d",
        "it"
      ],
      [
        "s",
        "ut"
      ],
      [
        "k",
        "ayt"
      ],
      [
        "Ġt",
        "medyazt"
      ],
      [
        "w",
        "ura"
      ],
      [
        "na",
        "g"
      ],
      [
        "em",
        "res"
      ],
      [
        "Ġta",
        "mu"
      ],
      [
        "Ġyel",
        "han"
      ],
      [
        "Ġtu",
        "f"
      ],
      [
        "Ġaf",
        "us"
      ],
      [
        "Ġwa",
        "d"
      ],
      [
        "Ġam",
        "an"
      ],
      [
        "Ġu",
        "á¸į"
      ],
      [
        "á¹Ľ",
        "en"
      ],
      [
        "ĠuÉ£",
        "erbaz"
      ],
      [
        "Ġt",
        "ruá¸¥"
      ],
      [
        "ĠI",
        "m"
      ],
      [
        "Ġt",
        "x"
      ],
      [
        "Ġyef",
        "ka"
      ],
      [
        "Ġu",
        "ga"
      ],
      [
        "Ġyett",
        "was"
      ],
      [
        "n",
        "un"
      ],
      [
        "\"",
        ","
      ],
      [
        "uf",
        "t"
      ],
      [
        "r",
        "eá¸¥"
      ],
      [
        "maziÉ£",
        "en"
      ],
      [
        "Ġyim",
        "danen"
      ],
      [
        "ra",
        "s"
      ],
      [
        "b",
        "al"
      ],
      [
        "Ġ",
        "et"
      ],
      [
        "Ġte",
        "c"
      ],
      [
        "Ġti",
        "me"
      ],
      [
        "Ġuf",
        "us"
      ],
      [
        "Ġ",
        "áºĵ"
      ],
      [
        "Ġleq",
        "bayel"
      ],
      [
        "edd",
        "em"
      ],
      [
        "lis",
        "en"
      ],
      [
        "ni",
        "win"
      ],
      [
        "at",
        "ion"
      ],
      [
        "Ġyid",
        "les"
      ],
      [
        "Ġ",
        "+"
      ],
      [
        "ez",
        "zi"
      ],
      [
        "in",
        "u"
      ],
      [
        "Ġw",
        "er"
      ],
      [
        "dd",
        "it"
      ],
      [
        "ga",
        "zen"
      ],
      [
        "Ġya",
        "kk"
      ],
      [
        "em",
        "ren"
      ],
      [
        "a",
        "á¹Ń"
      ],
      [
        "â",
        "´"
      ],
      [
        "Ġs",
        "em"
      ],
      [
        "Ġwa",
        "zal"
      ],
      [
        "in",
        "a"
      ],
      [
        "Ġu",
        "qbel"
      ],
      [
        "j",
        "j"
      ],
      [
        "q",
        "ran"
      ],
      [
        "ezz",
        "u"
      ],
      [
        "c",
        "id"
      ],
      [
        "Ġu",
        "me"
      ],
      [
        "Ġ1",
        "8"
      ],
      [
        "d",
        "ec"
      ],
      [
        "Ġag",
        "i"
      ],
      [
        "ĠI",
        "n"
      ],
      [
        "ÉĽ",
        "aw"
      ],
      [
        "ir",
        "e"
      ],
      [
        "t",
        "ett"
      ],
      [
        "ma",
        "s"
      ],
      [
        "Ġuma",
        "wal"
      ],
      [
        "as",
        "sen"
      ],
      [
        "Ġw",
        "ag"
      ],
      [
        "á¸įris",
        "en"
      ],
      [
        "eff",
        "eÉ£"
      ],
      [
        "Ġs",
        "dat"
      ],
      [
        "ri",
        "b"
      ],
      [
        "Ġam",
        "zun"
      ],
      [
        "k",
        "ar"
      ],
      [
        "l",
        "alen"
      ],
      [
        "Ġyin",
        "elmaden"
      ],
      [
        "Ġimi",
        "r"
      ],
      [
        "Ġu",
        "áºĵ"
      ],
      [
        "Ġn",
        "em"
      ],
      [
        "Ġamen",
        "zu"
      ],
      [
        "Ġnez",
        "mer"
      ],
      [
        "n",
        "em"
      ],
      [
        "Ġ",
        "v"
      ],
      [
        "Ġtemna",
        "á¸įt"
      ],
      [
        "Ġu",
        "á¸¥ric"
      ],
      [
        "Ġta",
        "j"
      ],
      [
        "bi",
        "b"
      ],
      [
        "ĠU",
        "n"
      ],
      [
        "eá¹Ńá¹Ń",
        "a"
      ],
      [
        "du",
        "k"
      ],
      [
        "gara",
        "den"
      ],
      [
        "Ġya",
        "kan"
      ],
      [
        "Ġ",
        "O"
      ],
      [
        "Ġu",
        "ss"
      ],
      [
        "Ġz",
        "dat"
      ],
      [
        "2",
        "0"
      ],
      [
        "Ġt",
        "áºĵ"
      ],
      [
        "s",
        "in"
      ],
      [
        "Ġk",
        "ul"
      ],
      [
        "Ġs",
        "É£ur"
      ],
      [
        "Ġur",
        "gaz"
      ],
      [
        "Ġn",
        "ek"
      ],
      [
        "Ġy",
        "uÉ£"
      ],
      [
        "Ġi",
        "j"
      ],
      [
        "eq",
        "da"
      ],
      [
        "al",
        "it"
      ],
      [
        "ĠM",
        "o"
      ],
      [
        "ĠTa",
        "f"
      ],
      [
        "Ġwu",
        "mi"
      ],
      [
        "ra",
        "m"
      ],
      [
        "aw",
        "it"
      ],
      [
        "Ġt",
        "mer"
      ],
      [
        "Ġyi",
        "g"
      ],
      [
        "Ġwi",
        "yaá¸į"
      ],
      [
        "ĠFran",
        "sa"
      ],
      [
        "Ġte",
        "kk"
      ],
      [
        "Ġl",
        "ba"
      ],
      [
        "ĠÆĶ",
        "er"
      ],
      [
        "Ġï",
        "ĥ"
      ],
      [
        "Ġk",
        "em"
      ],
      [
        "l",
        "us"
      ],
      [
        "Ġwa",
        "m"
      ],
      [
        "h",
        "en"
      ],
      [
        "Ġwak",
        "ud"
      ],
      [
        "la",
        "s"
      ],
      [
        "Ġi",
        "cu"
      ],
      [
        "ĠT",
        "al"
      ],
      [
        "Ġu",
        "á¸¥"
      ],
      [
        "elli",
        "d"
      ],
      [
        "Ġ",
        "ÄįÄį"
      ],
      [
        "Ġyem",
        "mut"
      ],
      [
        "Ġtima",
        "wit"
      ],
      [
        "Ġyeqq",
        "im"
      ],
      [
        "eb",
        "bu"
      ],
      [
        "ĠL",
        "lan"
      ],
      [
        "Ġn",
        "ut"
      ],
      [
        "Ġ",
        "mu"
      ],
      [
        "Ġi",
        "men"
      ],
      [
        "ĠA",
        "q"
      ],
      [
        "Ġi",
        "ban"
      ],
      [
        "Ġx",
        "as"
      ],
      [
        "ĠB",
        "en"
      ],
      [
        "Ġs",
        "yin"
      ],
      [
        "Ġt",
        "c"
      ],
      [
        "h",
        "er"
      ],
      [
        "Ġ1",
        "1"
      ],
      [
        "Ġd",
        "agi"
      ],
      [
        "u",
        "ss"
      ],
      [
        "Ġs",
        "en"
      ],
      [
        "li",
        "l"
      ],
      [
        "Ġt",
        "q"
      ],
      [
        "Ġi",
        "ss"
      ],
      [
        "á¸į",
        "u"
      ],
      [
        "ĠT",
        "ett"
      ],
      [
        "Ġum",
        "yag"
      ],
      [
        "Ġm",
        "erra"
      ],
      [
        "á¸į",
        "al"
      ],
      [
        "Ġ",
        "..."
      ],
      [
        "ĠT",
        "ala"
      ],
      [
        "n",
        "ect"
      ],
      [
        "as",
        "ent"
      ],
      [
        "Ġllan",
        "t"
      ],
      [
        "Ġtaá¹£",
        "ebá¸¥it"
      ],
      [
        "ĠS",
        "a"
      ],
      [
        "ĠA",
        "á¸¥ric"
      ],
      [
        "Ġwal",
        "len"
      ],
      [
        "r",
        "Ã©"
      ],
      [
        "s",
        "as"
      ],
      [
        "ĠY",
        "u"
      ],
      [
        "e",
        "á¹£"
      ],
      [
        "Ġd",
        "daw"
      ],
      [
        "c",
        "á¹Ńuá¸¥"
      ],
      [
        "ĠÂ»",
        ","
      ],
      [
        "Ġ1",
        "5"
      ],
      [
        "Ġawal",
        "en"
      ],
      [
        "Ġyef",
        "feÉ£"
      ],
      [
        "y",
        "eÇ§Ç§"
      ],
      [
        "eá¹Ľ",
        "á¹Ľ"
      ],
      [
        "ay",
        "ri"
      ],
      [
        "o",
        "l"
      ],
      [
        "Ġ",
        "á¸į"
      ],
      [
        "Ġn",
        "exdem"
      ],
      [
        "Ġyer",
        "ra"
      ],
      [
        "i",
        "z"
      ],
      [
        "Ġil",
        "mend"
      ],
      [
        "y",
        "t"
      ],
      [
        "Ġx",
        "edmen"
      ],
      [
        "ÉĽ",
        "u"
      ],
      [
        "ĠY",
        "al"
      ],
      [
        "ga",
        "d"
      ],
      [
        "meÉ£",
        "ra"
      ],
      [
        "ĠïĤ",
        "·"
      ],
      [
        "gay",
        "et"
      ],
      [
        "Ġte",
        "j"
      ],
      [
        "er",
        "f"
      ],
      [
        "ĠÇ",
        "¦"
      ],
      [
        "Ġ1",
        "2"
      ],
      [
        "eq",
        "t"
      ],
      [
        "Ġtem",
        "dint"
      ],
      [
        "Ġl",
        "f"
      ],
      [
        "Ġtla",
        "ta"
      ],
      [
        "Ġa",
        "na"
      ],
      [
        "Ġw",
        "eá¸¥"
      ],
      [
        "ÉĽ",
        "id"
      ],
      [
        "Ġi",
        "h"
      ],
      [
        "Ġwa",
        "cu"
      ],
      [
        "s",
        "er"
      ],
      [
        "wal",
        "t"
      ],
      [
        "Ġl",
        "l"
      ],
      [
        "Ġy",
        "ura"
      ],
      [
        "eá¸į",
        "ru"
      ],
      [
        "teq",
        "si"
      ],
      [
        "Ġas",
        "eggas"
      ],
      [
        "Ġte",
        "á¸į"
      ],
      [
        "edd",
        "un"
      ],
      [
        "x",
        "al"
      ],
      [
        "y",
        "ef"
      ],
      [
        "Ġ",
        "Ã"
      ],
      [
        "Ġla",
        "wan"
      ],
      [
        "Ġu",
        "sentel"
      ],
      [
        "Ġw",
        "ug"
      ],
      [
        "Ġtal",
        "É£"
      ],
      [
        "ĠY",
        "iwen"
      ],
      [
        "e",
        "Ç§"
      ],
      [
        "eÉ£",
        "t"
      ],
      [
        "Ġs",
        "b"
      ],
      [
        "el",
        "mi"
      ],
      [
        "eq",
        "dec"
      ],
      [
        "e",
        "ur"
      ],
      [
        "ma",
        "d"
      ],
      [
        "Ġi",
        "bedd"
      ],
      [
        "g",
        "ir"
      ],
      [
        "Ġu",
        "mi"
      ],
      [
        "Ġleb",
        "É£i"
      ],
      [
        "Ġtal",
        "a"
      ],
      [
        "bad",
        "ut"
      ],
      [
        "a",
        "men"
      ],
      [
        "Ġt",
        "w"
      ],
      [
        "ul",
        "en"
      ],
      [
        "edd",
        "men"
      ],
      [
        "g",
        "ur"
      ],
      [
        "r",
        "eb"
      ],
      [
        "s",
        "eÉ£"
      ],
      [
        "l",
        "et"
      ],
      [
        "r",
        "ur"
      ],
      [
        "s",
        "ul"
      ],
      [
        "k",
        "em"
      ],
      [
        "Ġda",
        "kken"
      ],
      [
        "Ġw",
        "e"
      ],
      [
        "ru",
        "n"
      ],
      [
        "y",
        "ekk"
      ],
      [
        "ĠT",
        "in"
      ],
      [
        "Ġ",
        "%"
      ],
      [
        "Ġte",
        "á¹Ńá¹Ń"
      ],
      [
        "Ġtu",
        "dd"
      ],
      [
        "u",
        "x"
      ],
      [
        "wa",
        "dem"
      ],
      [
        "ir",
        "em"
      ],
      [
        "Ġba",
        "b"
      ],
      [
        "neÉ£",
        "laf"
      ],
      [
        "me",
        "áºĵ"
      ],
      [
        "á¸¥",
        "u"
      ],
      [
        "ĠI",
        "mi"
      ],
      [
        "m",
        "in"
      ],
      [
        "zi",
        "z"
      ],
      [
        "Ġtt",
        "ar"
      ],
      [
        "Ġdin",
        "na"
      ],
      [
        "ĠS",
        "s"
      ],
      [
        "wa",
        "á¸¥"
      ],
      [
        "Ġumez",
        "ruy"
      ],
      [
        "k",
        "ant"
      ],
      [
        "t",
        "es"
      ],
      [
        "ra",
        "á¸¥"
      ],
      [
        "Ġy",
        "ug"
      ],
      [
        "Ġtug",
        "et"
      ],
      [
        "ra",
        "á¸į"
      ],
      [
        "ÉĽ",
        "t"
      ],
      [
        "Ġ",
        ")"
      ],
      [
        "ĠN",
        "ett"
      ],
      [
        "a",
        "z"
      ],
      [
        "ĠUla",
        "c"
      ],
      [
        "n",
        "e"
      ],
      [
        "Ġa",
        "j"
      ],
      [
        "Ġama",
        "ru"
      ],
      [
        "ĠB",
        "gayet"
      ],
      [
        "Ġyi",
        "z"
      ],
      [
        "r",
        "ew"
      ],
      [
        "s",
        "iwin"
      ],
      [
        "Ġte",
        "ÄįÄį"
      ],
      [
        "Ġte",
        "ÉĽ"
      ],
      [
        "Ġ1",
        "4"
      ],
      [
        "Ø",
        "§"
      ],
      [
        "ĠT",
        "aÉ£"
      ],
      [
        "Ã¨",
        "re"
      ],
      [
        "Ġmeqq",
        "ren"
      ],
      [
        "ĠY",
        "i"
      ],
      [
        "emma",
        "st"
      ],
      [
        "ĠZ",
        "z"
      ],
      [
        "a",
        "h"
      ],
      [
        "Ġa",
        "b"
      ],
      [
        "ĠA",
        "xxam"
      ],
      [
        "Ġ19",
        "9"
      ],
      [
        "ferd",
        "isen"
      ],
      [
        "ul",
        "in"
      ],
      [
        "u",
        "á¹Ľ"
      ],
      [
        "Ġtef",
        "ransist"
      ],
      [
        "Ġtam",
        "s"
      ],
      [
        "Ġ",
        "á¹£"
      ],
      [
        "Ġla",
        "ÉĽ"
      ],
      [
        "Ġass",
        "aÉ£"
      ],
      [
        "ej",
        "dan"
      ],
      [
        "Ġnut",
        "ni"
      ],
      [
        "li",
        "man"
      ],
      [
        "ed",
        "meÉ£"
      ],
      [
        "ĠM",
        "ar"
      ],
      [
        "ĠMa",
        "ÄįÄįi"
      ],
      [
        "Ġama",
        "ynut"
      ],
      [
        "w",
        "et"
      ],
      [
        "em",
        "mu"
      ],
      [
        "Ġ1",
        "3"
      ],
      [
        "ĠA",
        "b"
      ],
      [
        "Ġtu",
        "É£"
      ],
      [
        "Ġcc",
        "na"
      ],
      [
        "Ġwa",
        "t"
      ],
      [
        "Ġ19",
        "8"
      ],
      [
        "wi",
        "É£"
      ],
      [
        "er",
        "na"
      ],
      [
        "us",
        "t"
      ],
      [
        "Ġyi",
        "xef"
      ],
      [
        "Ġani",
        "da"
      ],
      [
        "ĠM",
        "d"
      ],
      [
        "d",
        "im"
      ],
      [
        "Ġá¹",
        "¢"
      ],
      [
        "ÉĽa",
        "d"
      ],
      [
        "Ġi",
        "ni"
      ],
      [
        "Ġyeb",
        "da"
      ],
      [
        "nul",
        "fu"
      ],
      [
        "Ġn",
        "iá¸įen"
      ],
      [
        "Ġum",
        "kan"
      ],
      [
        "Ġp",
        "ro"
      ],
      [
        "n",
        "eá¸į"
      ],
      [
        "Ġta",
        "t"
      ],
      [
        "Ġtu",
        "ss"
      ],
      [
        "á¹Ńi",
        "j"
      ],
      [
        "ĠLeq",
        "bayel"
      ],
      [
        "s",
        "eá¸į"
      ],
      [
        "ĠT",
        "ura"
      ],
      [
        "ĠTa",
        "me"
      ],
      [
        "Ġtemna",
        "á¸įin"
      ],
      [
        "f",
        "iÉ£"
      ],
      [
        "ĠiÉ£",
        "ef"
      ],
      [
        "Ġs",
        "ÉĽan"
      ],
      [
        "il",
        "eÉ£"
      ],
      [
        "Ġi",
        "ger"
      ],
      [
        "af",
        "en"
      ],
      [
        "ĠtaÉ£",
        "iwant"
      ],
      [
        "Ġ",
        "áºĴ"
      ],
      [
        "ĠÆĶ",
        "as"
      ],
      [
        "Ġwam",
        "mud"
      ],
      [
        "er",
        "b"
      ],
      [
        "Ġis",
        "eggasen"
      ],
      [
        "Ġala",
        "mma"
      ],
      [
        "ÉĽ",
        "ed"
      ],
      [
        "Ġyeá¹Ńá¹Ń",
        "ef"
      ],
      [
        "ra",
        "É£"
      ],
      [
        "ĠY",
        "es"
      ],
      [
        "e",
        "á¹£á¹£"
      ],
      [
        "l",
        "ent"
      ],
      [
        "in",
        "e"
      ],
      [
        "á¹Ńá¹Ń",
        "an"
      ],
      [
        "ni",
        "l"
      ],
      [
        "Ġus",
        "efru"
      ],
      [
        "Ġwar",
        "raw"
      ],
      [
        "ĠI",
        "laq"
      ],
      [
        "ĠiÉĽ",
        "eddan"
      ],
      [
        "Ġr",
        "r"
      ],
      [
        "ĠA",
        "É£"
      ],
      [
        "ĠÆĲ",
        "li"
      ],
      [
        "Ġu",
        "neÉ£laf"
      ],
      [
        "Ġtik",
        "li"
      ],
      [
        "y",
        "ant"
      ],
      [
        "Ġa",
        "áºĵ"
      ],
      [
        "ell",
        "u"
      ],
      [
        "ber",
        "dan"
      ],
      [
        "ri",
        "men"
      ],
      [
        "emm",
        "ur"
      ],
      [
        "Ġlw",
        "eqt"
      ],
      [
        "a",
        "q"
      ],
      [
        "uÉ£",
        "en"
      ],
      [
        "uq",
        "ilt"
      ],
      [
        "u",
        "h"
      ],
      [
        "Ġi",
        "mu"
      ],
      [
        "ĠL",
        "á¸¥"
      ],
      [
        "meÉ£",
        "ri"
      ],
      [
        "z",
        "É£a"
      ],
      [
        "iw",
        "elt"
      ],
      [
        "ĠTa",
        "ma"
      ],
      [
        "Ġl",
        "liÉ£"
      ],
      [
        "ĠI",
        "I"
      ],
      [
        "Ġtaf",
        "at"
      ],
      [
        "as",
        "i"
      ],
      [
        "ĠB",
        "el"
      ],
      [
        "Ġteb",
        "É£iá¸į"
      ],
      [
        "me",
        "t"
      ],
      [
        "ĠT",
        "u"
      ],
      [
        "ĠTa",
        "maziÉ£t"
      ],
      [
        "Ġtmu",
        "É£li"
      ],
      [
        "Ġye",
        "x"
      ],
      [
        "ma",
        "ten"
      ],
      [
        "áºĵri",
        "É£"
      ],
      [
        "l",
        "ist"
      ],
      [
        "á¹Ľ",
        "an"
      ],
      [
        "ek",
        "cem"
      ],
      [
        "al",
        "len"
      ],
      [
        "Ġb",
        "É£iÉ£"
      ],
      [
        "Ġc",
        "on"
      ],
      [
        "cu",
        "ha"
      ],
      [
        "k",
        "t"
      ],
      [
        "á¸į",
        "iq"
      ],
      [
        "Ġa",
        "á¸¥ric"
      ],
      [
        "Ġá¹Ľ",
        "á¹Ľ"
      ],
      [
        "ug",
        "en"
      ],
      [
        "iw",
        "eá¸į"
      ],
      [
        "nt",
        "eÉ£"
      ],
      [
        "s",
        "b"
      ],
      [
        "Ġud",
        "lis"
      ],
      [
        "Ġwe",
        "xxam"
      ],
      [
        ")",
        ":"
      ],
      [
        "d",
        "ay"
      ],
      [
        "in",
        "iÉ£"
      ],
      [
        "ec",
        "men"
      ],
      [
        "Ġti",
        "c"
      ],
      [
        "du",
        "kk"
      ],
      [
        "Ġu",
        "ssan"
      ],
      [
        "Ġt",
        "y"
      ],
      [
        "É£",
        "art"
      ],
      [
        "ran",
        "t"
      ],
      [
        "Ġyekk",
        "a"
      ],
      [
        "Ġt",
        "j"
      ],
      [
        "d",
        "e"
      ],
      [
        "Ġ",
        "<"
      ],
      [
        "á¸¥ric",
        "en"
      ],
      [
        "Ġu",
        "men"
      ],
      [
        "Ġa",
        "mez"
      ],
      [
        "Â»",
        "."
      ],
      [
        "i",
        "x"
      ],
      [
        "ma",
        "t"
      ],
      [
        "ĠA",
        "ÉĽ"
      ],
      [
        "g",
        "in"
      ],
      [
        "ĠU",
        "s"
      ],
      [
        "baÉĽ",
        "t"
      ],
      [
        "Ġyi",
        "me"
      ],
      [
        "ell",
        "al"
      ],
      [
        "s",
        "ay"
      ],
      [
        "s",
        "eb"
      ],
      [
        "ra",
        "f"
      ],
      [
        "o",
        "o"
      ],
      [
        "uf",
        "an"
      ],
      [
        "Ġte",
        "áºĵ"
      ],
      [
        "Ġte",
        "áºĵri"
      ],
      [
        "ĠTa",
        "ÉĽ"
      ],
      [
        "ĠA",
        "f"
      ],
      [
        "Ġle",
        "w"
      ],
      [
        "Ġil",
        "elli"
      ],
      [
        "li",
        "f"
      ],
      [
        "Ġtla",
        "win"
      ],
      [
        "Ġwas",
        "sa"
      ],
      [
        "f",
        "É£en"
      ],
      [
        "r",
        "ek"
      ],
      [
        "Ġtik",
        "wal"
      ],
      [
        "Ġw",
        "agi"
      ],
      [
        "es",
        "sa"
      ],
      [
        "mil",
        "t"
      ],
      [
        "e",
        "á¹Ń"
      ],
      [
        "Ġtew",
        "wi"
      ],
      [
        "Ġw",
        "ur"
      ],
      [
        "ar",
        "ut"
      ],
      [
        "rir",
        "t"
      ],
      [
        "gara",
        "d"
      ],
      [
        "Ġte",
        "x"
      ],
      [
        "Ġm",
        "gal"
      ],
      [
        "á¸į",
        "eÉ£"
      ],
      [
        "Ġum",
        "s"
      ],
      [
        "Ġtas",
        "leá¸įt"
      ],
      [
        "Ġ1",
        "6"
      ],
      [
        "u",
        "j"
      ],
      [
        "Ġn",
        "neÉ£"
      ],
      [
        "Ġtes",
        "leá¸įt"
      ],
      [
        "t",
        "ent"
      ],
      [
        "mez",
        "wura"
      ],
      [
        "Ġt",
        "ant"
      ],
      [
        "r",
        "t"
      ],
      [
        "h",
        "el"
      ],
      [
        "Ġyi",
        "É£er"
      ],
      [
        "Ġa",
        "á¸įris"
      ],
      [
        "ul",
        "ud"
      ],
      [
        "Ġis",
        "mawen"
      ],
      [
        "egz",
        "awal"
      ],
      [
        "a",
        "á¸¥"
      ],
      [
        "Ġá¹ļ",
        "ebbi"
      ],
      [
        "li",
        "lit"
      ],
      [
        "Ġtug",
        "na"
      ],
      [
        "Ġnni",
        "É£"
      ],
      [
        "eá¹Ńá¹Ń",
        "ef"
      ],
      [
        "ĠT",
        "ar"
      ],
      [
        "Ġad",
        "eg"
      ],
      [
        "ir",
        "in"
      ],
      [
        "z",
        "zu"
      ],
      [
        "iw",
        "el"
      ],
      [
        "Ġtes",
        "ÉĽ"
      ],
      [
        "Ġlx",
        "ir"
      ],
      [
        "Ġb",
        "erra"
      ],
      [
        "ĠIÉ£",
        "il"
      ],
      [
        "sa",
        "tin"
      ],
      [
        "ĠuÉ£",
        "alen"
      ],
      [
        "ĠA",
        "namek"
      ],
      [
        "ir",
        "en"
      ],
      [
        "r",
        "ez"
      ],
      [
        "Ġl",
        "mut"
      ],
      [
        "ĠY",
        "ewweá¸į"
      ],
      [
        "Ġc",
        "i"
      ],
      [
        "ert",
        "it"
      ],
      [
        "n",
        "wen"
      ],
      [
        "Ġt",
        "elli"
      ],
      [
        "Ġa",
        "medya"
      ],
      [
        "ĠTas",
        "leá¸įt"
      ],
      [
        "Ġtig",
        "awt"
      ],
      [
        "y",
        "eá¸į"
      ],
      [
        "lay",
        "t"
      ],
      [
        "Ġwa",
        "deg"
      ],
      [
        "Ġminist",
        "re"
      ],
      [
        "n",
        "ess"
      ],
      [
        "á¹Ń",
        "an"
      ],
      [
        "xxam",
        "t"
      ],
      [
        "Ġyez",
        "mir"
      ],
      [
        "Ġtmu",
        "ra"
      ],
      [
        "Ġ",
        "áºĵriÉ£"
      ],
      [
        "mi",
        "d"
      ],
      [
        "Ġnni",
        "g"
      ],
      [
        "ber",
        "kan"
      ],
      [
        "Ġyeá¸į",
        "ran"
      ],
      [
        "Ġa",
        "áºĵar"
      ],
      [
        "an",
        "in"
      ],
      [
        "Ġu",
        "nadi"
      ],
      [
        "mek",
        "ti"
      ],
      [
        "f",
        "ali"
      ],
      [
        "Ġwak",
        "al"
      ],
      [
        "Ç§",
        "u"
      ],
      [
        "Ġtamu",
        "É£li"
      ],
      [
        "en",
        "ni"
      ],
      [
        "Ġim",
        "danen"
      ],
      [
        "ef",
        "ren"
      ],
      [
        "ĠM",
        "ass"
      ],
      [
        "uq",
        "el"
      ],
      [
        "me",
        "ÉĽna"
      ],
      [
        "Ġter",
        "gal"
      ],
      [
        "ut",
        "er"
      ],
      [
        "Ġtag",
        "nit"
      ],
      [
        "gen",
        "ni"
      ],
      [
        "Ġweá¸¥",
        "d"
      ],
      [
        "ÉĽ",
        "er"
      ],
      [
        "ĠA",
        "á¸¥"
      ],
      [
        "Ġk",
        "emm"
      ],
      [
        "Ġss",
        "uq"
      ],
      [
        "ÉĽ",
        "in"
      ],
      [
        "ĠleÉĽ",
        "mer"
      ],
      [
        "b",
        "ed"
      ],
      [
        "Ġuma",
        "á¸įal"
      ],
      [
        "'",
        "'"
      ],
      [
        "c",
        "um"
      ],
      [
        "q",
        "ay"
      ],
      [
        "si",
        "f"
      ],
      [
        "Ġy",
        "ufa"
      ],
      [
        "Ġtt",
        "em"
      ],
      [
        "Ġti",
        "b"
      ],
      [
        "h",
        "al"
      ],
      [
        "Ç§",
        "in"
      ],
      [
        "ĠK",
        "ra"
      ],
      [
        "Ġl",
        "k"
      ],
      [
        "Ġti",
        "w"
      ],
      [
        "Ġïĥ",
        "ĺ"
      ],
      [
        "Ġn",
        "sen"
      ],
      [
        "Ġu",
        "b"
      ],
      [
        "Ġu",
        "áºĵar"
      ],
      [
        "la",
        "tin"
      ],
      [
        "aw",
        "siwin"
      ],
      [
        "uf",
        "eÉ£"
      ],
      [
        "lan",
        "t"
      ],
      [
        "s",
        "um"
      ],
      [
        "Ġ",
        "en"
      ],
      [
        "Ġyek",
        "cem"
      ],
      [
        "a",
        "ma"
      ],
      [
        "da",
        "men"
      ],
      [
        "ĠC",
        "cix"
      ],
      [
        "i",
        "ma"
      ],
      [
        "E",
        "R"
      ],
      [
        "Ġta",
        "c"
      ],
      [
        "ĠT",
        "es"
      ],
      [
        "É£",
        "unt"
      ],
      [
        "me",
        "á¸¥"
      ],
      [
        "e",
        "áºĵáºĵ"
      ],
      [
        "y",
        "efk"
      ],
      [
        "na",
        "wen"
      ],
      [
        "sent",
        "al"
      ],
      [
        "Ġyiw",
        "udam"
      ],
      [
        "..",
        ".."
      ],
      [
        "Ġi",
        "mezdaÉ£"
      ],
      [
        "Ġz",
        "edÉ£eÉ£"
      ],
      [
        "Ġ1",
        "7"
      ],
      [
        "Ġá¸¤",
        "med"
      ],
      [
        "z",
        "t"
      ],
      [
        "Ġn",
        "eÉĽ"
      ],
      [
        "ĠS",
        "aÉĽ"
      ],
      [
        "Ġta",
        "men"
      ],
      [
        "ba",
        "á¸¥"
      ],
      [
        "ak",
        "in"
      ],
      [
        "Ġyem",
        "garaden"
      ],
      [
        "Ġa",
        "sentel"
      ],
      [
        "Æ",
        "Ķ"
      ],
      [
        "y",
        "em"
      ],
      [
        "al",
        "u"
      ],
      [
        "Ġt",
        "É£a"
      ],
      [
        "Ġun",
        "ti"
      ],
      [
        "Ġ",
        "V"
      ],
      [
        "ra",
        "ren"
      ],
      [
        "b",
        "eÉ£"
      ],
      [
        "Ġu",
        "dd"
      ],
      [
        "ri",
        "rit"
      ],
      [
        "xedd",
        "em"
      ],
      [
        "s",
        "ayen"
      ],
      [
        "k",
        "it"
      ],
      [
        "Ġan",
        "wa"
      ],
      [
        "Ġicu",
        "dden"
      ],
      [
        "r",
        "ut"
      ],
      [
        "ri",
        "qt"
      ],
      [
        "la",
        "t"
      ],
      [
        "Ġtar",
        "rayt"
      ],
      [
        "s",
        "e"
      ],
      [
        "ru",
        "d"
      ],
      [
        "ĠyeÉĽ",
        "nan"
      ],
      [
        "Ġam",
        "alay"
      ],
      [
        "Ġay",
        "agi"
      ],
      [
        "Ġt",
        "mes"
      ],
      [
        "ner",
        "ni"
      ],
      [
        "n",
        "eb"
      ],
      [
        "ĠA",
        "cu"
      ],
      [
        "b",
        "es"
      ],
      [
        "ĠY",
        "ess"
      ],
      [
        "xx",
        "amen"
      ],
      [
        "ĠS",
        "liman"
      ],
      [
        "Ĺ",
        "ı"
      ],
      [
        "Ġyeqq",
        "ar"
      ],
      [
        "d",
        "el"
      ],
      [
        "Ġa",
        "qbayli"
      ],
      [
        "Ġtef",
        "yirt"
      ],
      [
        "ĠD",
        "da"
      ],
      [
        "á¹£",
        "er"
      ],
      [
        "Ġyez",
        "ga"
      ],
      [
        "ĠT",
        "iÉ£"
      ],
      [
        "Ġyew",
        "weá¸į"
      ],
      [
        "ed",
        "É£en"
      ],
      [
        "k",
        "ul"
      ],
      [
        "ĠS",
        "al"
      ],
      [
        "á¹£",
        "el"
      ],
      [
        "uÉ£",
        "alen"
      ],
      [
        "w",
        "es"
      ],
      [
        "Ġ",
        "$"
      ],
      [
        "á¹Ń",
        "el"
      ],
      [
        "eqq",
        "im"
      ],
      [
        "Ġyett",
        "w"
      ],
      [
        "Ġima",
        "wlan"
      ],
      [
        "h",
        "ed"
      ],
      [
        "n",
        "ini"
      ],
      [
        "Ġtila",
        "wt"
      ],
      [
        "y",
        "ul"
      ],
      [
        "el",
        "d"
      ],
      [
        "Ġl",
        "u"
      ],
      [
        "da",
        "wit"
      ],
      [
        "q",
        "ed"
      ],
      [
        "emma",
        "t"
      ],
      [
        "b",
        "in"
      ],
      [
        "h",
        "wa"
      ],
      [
        "ez",
        "mer"
      ],
      [
        "rar",
        "t"
      ],
      [
        "s",
        "is"
      ],
      [
        "em",
        "ent"
      ],
      [
        "Ġusel",
        "med"
      ],
      [
        "Ġwad",
        "dad"
      ],
      [
        "t",
        "ess"
      ],
      [
        "Ġal",
        "len"
      ],
      [
        "la",
        "h"
      ],
      [
        "meslay",
        "t"
      ],
      [
        "aÉ£",
        "t"
      ],
      [
        "Ġtaw",
        "sit"
      ],
      [
        "Ġteqq",
        "im"
      ],
      [
        "zem",
        "reá¸į"
      ],
      [
        "b",
        "ur"
      ],
      [
        "eá¹Ńá¹Ń",
        "al"
      ],
      [
        "em",
        "mer"
      ],
      [
        "i",
        "á¹Ľ"
      ],
      [
        "Ġyi",
        "mu"
      ],
      [
        "Ġyis",
        "efra"
      ],
      [
        "eá¸įru",
        "yen"
      ],
      [
        "Ġakk",
        "in"
      ],
      [
        "Ġnes",
        "ÉĽi"
      ],
      [
        "al",
        "eÉ£"
      ],
      [
        "Ġti",
        "mu"
      ],
      [
        "Ġt",
        "wal"
      ],
      [
        "Ġama",
        "ziÉ£"
      ],
      [
        "ec",
        "c"
      ],
      [
        "n",
        "ek"
      ],
      [
        "Ġuma",
        "ru"
      ],
      [
        "Ġc",
        "a"
      ],
      [
        "á¸¥",
        "er"
      ],
      [
        "udd",
        "em"
      ],
      [
        "f",
        "eá¸į"
      ],
      [
        "egg",
        "aru"
      ],
      [
        "ĠteÉ£",
        "zi"
      ],
      [
        "da",
        "k"
      ],
      [
        "c",
        "tion"
      ],
      [
        "ey",
        "y"
      ],
      [
        "Ġtma",
        "cahut"
      ],
      [
        "Ġyem",
        "danen"
      ],
      [
        "Ġyett",
        "idir"
      ],
      [
        "Ġye",
        "t"
      ],
      [
        "O",
        "U"
      ],
      [
        "Ġtez",
        "rawt"
      ],
      [
        "Ġtik",
        "elt"
      ],
      [
        "eg",
        "zi"
      ],
      [
        "im",
        "t"
      ],
      [
        "ĠAk",
        "li"
      ],
      [
        "É£",
        "aren"
      ],
      [
        "ĠZz",
        "edÉ£eÉ£"
      ],
      [
        "A",
        "L"
      ],
      [
        "qa",
        "mu"
      ],
      [
        "Ġyi",
        "mi"
      ],
      [
        "n",
        "et"
      ],
      [
        "Ġuf",
        "ella"
      ],
      [
        "Ġteg",
        "nit"
      ],
      [
        "Ġt",
        "un"
      ],
      [
        "Ġtul",
        "list"
      ],
      [
        "Ġas",
        "uf"
      ],
      [
        "Ġl",
        "ek"
      ],
      [
        "aw",
        "á¸įen"
      ],
      [
        "Ġt",
        "ur"
      ],
      [
        "Ġwar",
        "rac"
      ],
      [
        "i",
        "ÉĽ"
      ],
      [
        "r",
        "ent"
      ],
      [
        "a",
        "u"
      ],
      [
        "Ġumez",
        "gun"
      ],
      [
        "la",
        "ya"
      ],
      [
        "Ġyess",
        "en"
      ],
      [
        "Ġye",
        "q"
      ],
      [
        "eq",
        "s"
      ],
      [
        "Ġts",
        "edd"
      ],
      [
        "ĠT",
        "is"
      ],
      [
        "Ġtu",
        "s"
      ],
      [
        "Ġix",
        "eddem"
      ],
      [
        "ĠQ",
        "q"
      ],
      [
        "Ġuq",
        "erru"
      ],
      [
        "z",
        "in"
      ],
      [
        "Ġtez",
        "ga"
      ],
      [
        "Ġin",
        "es"
      ],
      [
        "medya",
        "ten"
      ],
      [
        "Ç§Ç§",
        "a"
      ],
      [
        "Ġyi",
        "mezdaÉ£"
      ],
      [
        "qqran",
        "t"
      ],
      [
        "em",
        "med"
      ],
      [
        "Ġuga",
        "fa"
      ],
      [
        "eqda",
        "c"
      ],
      [
        "Â",
        "«"
      ],
      [
        "sul",
        "É£a"
      ],
      [
        "yag",
        "en"
      ],
      [
        "tt",
        "a"
      ],
      [
        "aá¹Ń",
        "er"
      ],
      [
        "E",
        "N"
      ],
      [
        "á¸",
        "Į"
      ],
      [
        "ĠA",
        "kka"
      ],
      [
        "eb",
        "du"
      ],
      [
        "Ã",
        "®"
      ],
      [
        "Ġlá¸¥",
        "if"
      ],
      [
        "yin",
        "i"
      ],
      [
        "raw",
        "la"
      ],
      [
        "Ġteá¸¥",
        "kayt"
      ],
      [
        "Ġn",
        "nan"
      ],
      [
        "mir",
        "t"
      ],
      [
        "Ġlex",
        "la"
      ],
      [
        "ĠY",
        "idir"
      ],
      [
        "Ġag",
        "ejdan"
      ],
      [
        "Ġu",
        "kk"
      ],
      [
        "á¹Ľ",
        "uá¸¥"
      ],
      [
        "Ç§Ç§",
        "an"
      ],
      [
        "ad",
        "er"
      ],
      [
        "na",
        "wt"
      ],
      [
        "o",
        "p"
      ],
      [
        "á¸¥",
        "i"
      ],
      [
        "z",
        "it"
      ],
      [
        "f",
        "ed"
      ],
      [
        "ra",
        "k"
      ],
      [
        "f",
        "alit"
      ],
      [
        "h",
        "egg"
      ],
      [
        "s",
        "ef"
      ],
      [
        "ĠMar",
        "y"
      ],
      [
        "áºĵ",
        "ul"
      ],
      [
        "emm",
        "leÉ£"
      ],
      [
        "l",
        "ec"
      ],
      [
        "ra",
        "q"
      ],
      [
        "Ġn",
        "er"
      ],
      [
        "Ġaz",
        "ekka"
      ],
      [
        "Ġaq",
        "erru"
      ],
      [
        "yel",
        "lan"
      ],
      [
        "Ġi",
        "áºĵ"
      ],
      [
        "Ġ",
        "áºĵáºĵ"
      ],
      [
        "ĠAs",
        "mi"
      ],
      [
        "aw",
        "an"
      ],
      [
        "Ġtim",
        "s"
      ],
      [
        "na",
        "É£"
      ],
      [
        "Ġan",
        "nect"
      ],
      [
        "Ġruá¸¥",
        "eÉ£"
      ],
      [
        "Ġl",
        "ma"
      ],
      [
        "Ġyez",
        "rin"
      ],
      [
        "Ġta",
        "gara"
      ],
      [
        "Ġtew",
        "wurt"
      ],
      [
        "Ĩ",
        "Ĵ"
      ],
      [
        "Ġu",
        "mu"
      ],
      [
        "Ġs",
        "ur"
      ],
      [
        "dd",
        "uk"
      ],
      [
        "A",
        "s"
      ],
      [
        "y",
        "ew"
      ],
      [
        "Ġt",
        "wi"
      ],
      [
        "Ġt",
        "men"
      ],
      [
        "iw",
        "t"
      ],
      [
        "Ġn",
        "t"
      ],
      [
        "eb",
        "tar"
      ],
      [
        "k",
        "in"
      ],
      [
        "al",
        "e"
      ],
      [
        "ĠÆĲ",
        "ebd"
      ],
      [
        "T",
        "a"
      ],
      [
        "uf",
        "i"
      ],
      [
        "Ġnekk",
        "ni"
      ],
      [
        "n",
        "Ã©"
      ],
      [
        "Ġn",
        "e"
      ],
      [
        "am",
        "ul"
      ],
      [
        "Ġtl",
        "emmast"
      ],
      [
        "fer",
        "á¸¥"
      ],
      [
        "w",
        "er"
      ],
      [
        "er",
        "á¸¥"
      ],
      [
        "Ġyett",
        "a"
      ],
      [
        "Ġx",
        "edmeÉ£"
      ],
      [
        "Ġ",
        "{"
      ],
      [
        "Ġtett",
        "ili"
      ],
      [
        "yef",
        "kan"
      ],
      [
        "Ġle",
        "c"
      ],
      [
        "ÉĽ",
        "edda"
      ],
      [
        "Ġs",
        "sa"
      ],
      [
        "Ġad",
        "lis"
      ],
      [
        "ĠT",
        "ef"
      ],
      [
        "Ġtame",
        "qqrant"
      ],
      [
        "y",
        "it"
      ],
      [
        "Ġu",
        "j"
      ],
      [
        "ĠT",
        "maziÉ£t"
      ],
      [
        "Ġl",
        "wi"
      ],
      [
        "Ġt",
        "m"
      ],
      [
        "ul",
        "fan"
      ],
      [
        "Ġtt",
        "wa"
      ],
      [
        "Ġlqa",
        "ÉĽa"
      ],
      [
        "uf",
        "feÉ£"
      ],
      [
        "ra",
        "wen"
      ],
      [
        "dam",
        "men"
      ],
      [
        "M",
        "A"
      ],
      [
        "na",
        "á¸įt"
      ],
      [
        "Ġteb",
        "É£a"
      ],
      [
        "Ù",
        "Ħ"
      ],
      [
        "ĠuÉ£",
        "lif"
      ],
      [
        "el",
        "á¸¥"
      ],
      [
        "ba",
        "á¸¥a"
      ],
      [
        "li",
        "b"
      ],
      [
        "Ġtt",
        "wal"
      ],
      [
        "emma",
        "s"
      ],
      [
        "aw",
        "a"
      ],
      [
        "mek",
        "t"
      ],
      [
        "Ġâ",
        "Ĺı"
      ],
      [
        "Ġis",
        "efra"
      ],
      [
        "Ġme",
        "ÉĽna"
      ],
      [
        "Ġyer",
        "nu"
      ],
      [
        "Ġl",
        "É£a"
      ],
      [
        "Ġzz",
        "it"
      ],
      [
        "l",
        "el"
      ],
      [
        "Ġ",
        "ha"
      ],
      [
        "Ġn",
        "eg"
      ],
      [
        "Ġti",
        "á¹Ń"
      ],
      [
        "Ġin",
        "elmaden"
      ],
      [
        "Ġf",
        "ella"
      ],
      [
        "Ġak",
        "ud"
      ],
      [
        "Ġá¹£á¹£",
        "enf"
      ],
      [
        "R",
        "A"
      ],
      [
        "Ġa",
        "á¸į"
      ],
      [
        "ra",
        "g"
      ],
      [
        "wa",
        "t"
      ],
      [
        "y",
        "ya"
      ],
      [
        "gir",
        "ed"
      ],
      [
        "Ġa",
        "tt"
      ],
      [
        "Ġlá¸¥",
        "a"
      ],
      [
        "ey",
        "ya"
      ],
      [
        "ra",
        "win"
      ],
      [
        "ar",
        "in"
      ],
      [
        "ed",
        "ma"
      ],
      [
        "Ġb",
        "edd"
      ],
      [
        "Ġyenna",
        "yer"
      ],
      [
        "mu",
        "q"
      ],
      [
        "ĠAc",
        "á¸¥al"
      ],
      [
        "l",
        "ul"
      ],
      [
        "Ġ",
        "Ã©"
      ],
      [
        "nni",
        "g"
      ],
      [
        "Ġx",
        "eddmen"
      ],
      [
        "Ġta",
        "medyazt"
      ],
      [
        "Ġyi",
        "á¸įrisen"
      ],
      [
        "x",
        "edmen"
      ],
      [
        "ra",
        "z"
      ],
      [
        "á¹£",
        "ib"
      ],
      [
        "Ġu",
        "beddel"
      ],
      [
        "ss",
        "a"
      ],
      [
        "i",
        "ban"
      ],
      [
        "Ġs",
        "ek"
      ],
      [
        "Ġtew",
        "satin"
      ],
      [
        "Ġu",
        "xeddim"
      ],
      [
        "un",
        "in"
      ],
      [
        "Ġyeb",
        "É£an"
      ],
      [
        "q",
        "er"
      ],
      [
        "ar",
        "ren"
      ],
      [
        "Ġ'",
        "'"
      ],
      [
        "Ġtmer",
        "na"
      ],
      [
        "s",
        "em"
      ],
      [
        "y",
        "eg"
      ],
      [
        "is",
        "a"
      ],
      [
        "eá¹Ńá¹Ń",
        "alen"
      ],
      [
        "Ġm",
        "elmi"
      ],
      [
        "1",
        "0"
      ],
      [
        "Ġtud",
        "rin"
      ],
      [
        "ĠteÉ£",
        "ri"
      ],
      [
        "r",
        "emt"
      ],
      [
        "á¹Ń",
        "u"
      ],
      [
        "Ġyima",
        "wlan"
      ],
      [
        "wi",
        "ÉĽt"
      ],
      [
        "ekk",
        "er"
      ],
      [
        "Ġil",
        "em"
      ],
      [
        "Ġtef",
        "sut"
      ],
      [
        "in",
        "ek"
      ],
      [
        "Ġme",
        "áºĵáºĵ"
      ],
      [
        "j",
        "i"
      ],
      [
        "ĠTi",
        "li"
      ],
      [
        "t",
        "ut"
      ],
      [
        "y",
        "ewwi"
      ],
      [
        "Ġw",
        "en"
      ],
      [
        "Ġtt",
        "aw"
      ],
      [
        "Ġ",
        "Ø"
      ],
      [
        "Ġam",
        "yag"
      ],
      [
        "utlay",
        "t"
      ],
      [
        "ĠtÉ£",
        "awsa"
      ],
      [
        "ferd",
        "is"
      ],
      [
        "y",
        "us"
      ],
      [
        "Ġr",
        "nu"
      ],
      [
        "ak",
        "en"
      ],
      [
        "ĠleÉĽ",
        "qel"
      ],
      [
        "ĠB",
        "a"
      ],
      [
        "r",
        "et"
      ],
      [
        "á¹Ń",
        "eq"
      ],
      [
        "ch",
        "e"
      ],
      [
        "Ġtf",
        "ekka"
      ],
      [
        "Ġis",
        "wi"
      ],
      [
        "g",
        "el"
      ],
      [
        "ĠT",
        "ub"
      ],
      [
        "ekk",
        "es"
      ],
      [
        "r",
        "eq"
      ],
      [
        "Ġu",
        "na"
      ],
      [
        "Ġak",
        "in"
      ],
      [
        "u",
        "z"
      ],
      [
        "r",
        "est"
      ],
      [
        "Ġak",
        "al"
      ],
      [
        "emma",
        "d"
      ],
      [
        "u",
        "ct"
      ],
      [
        "y",
        "al"
      ],
      [
        "Ġt",
        "h"
      ],
      [
        "Ġw",
        "eb"
      ],
      [
        "t",
        "as"
      ],
      [
        "Ġruá¸¥",
        "en"
      ],
      [
        "b",
        "as"
      ],
      [
        "b",
        "eá¸į"
      ],
      [
        "eÉ£",
        "li"
      ],
      [
        "Ġ2",
        "5"
      ],
      [
        "an",
        "eÉ£"
      ],
      [
        "Ġma",
        "á¸įi"
      ],
      [
        "Ġy",
        "uran"
      ],
      [
        "ĠA",
        "áºĵar"
      ],
      [
        "g",
        "alen"
      ],
      [
        "Ġl",
        "mu"
      ],
      [
        "ĠT",
        "eb"
      ],
      [
        "Ġil",
        "in"
      ],
      [
        "zi",
        "zen"
      ],
      [
        "h",
        "ar"
      ],
      [
        "ĠT",
        "ug"
      ],
      [
        "ĠM",
        "as"
      ],
      [
        "egg",
        "arut"
      ],
      [
        "f",
        "un"
      ],
      [
        "ĠM",
        "en"
      ],
      [
        "Ġtems",
        "alt"
      ],
      [
        "Ġam",
        "ur"
      ],
      [
        "Ġtt",
        "a"
      ],
      [
        "ĠW",
        "ezzu"
      ],
      [
        "Ġi",
        "fa"
      ],
      [
        "ĠA",
        "medya"
      ],
      [
        "ĠG",
        "ar"
      ],
      [
        "yeÇ§Ç§",
        "an"
      ],
      [
        "Ġi",
        "mes"
      ],
      [
        "Ġi",
        "fer"
      ],
      [
        "egga",
        "É£"
      ],
      [
        "na",
        "tin"
      ],
      [
        "da",
        "bu"
      ],
      [
        "ĠIs",
        "mawen"
      ],
      [
        "e",
        "v"
      ],
      [
        "na",
        "yen"
      ],
      [
        "Ġminist",
        "Ã¨re"
      ],
      [
        "meáºĵ",
        "yen"
      ],
      [
        "A",
        "d"
      ],
      [
        "ef",
        "t"
      ],
      [
        "at",
        "en"
      ],
      [
        "ĠyeÇ§Ç§",
        "a"
      ],
      [
        "Ġye",
        "É£li"
      ],
      [
        "ĠN",
        "niÉ£"
      ],
      [
        "Ġs",
        "rid"
      ],
      [
        "Ġat",
        "an"
      ],
      [
        "ri",
        "m"
      ],
      [
        "Ġama",
        "tu"
      ],
      [
        "mir",
        "eÉ£"
      ],
      [
        "id",
        "en"
      ],
      [
        "Ġas",
        "el"
      ],
      [
        "Ġan",
        "eggaru"
      ],
      [
        "la",
        "á¸¥"
      ],
      [
        "Ġyett",
        "uÉ£al"
      ],
      [
        "udd",
        "es"
      ],
      [
        "s",
        "ub"
      ],
      [
        "uÉ£",
        "er"
      ],
      [
        "ell",
        "e"
      ],
      [
        "Ġr",
        "ray"
      ],
      [
        "Ġtal",
        "wit"
      ],
      [
        "iá¸¥",
        "ala"
      ],
      [
        "s",
        "iwen"
      ],
      [
        "Ġiá¸¥",
        "emmel"
      ],
      [
        "al",
        "let"
      ],
      [
        "Ġte",
        "xxamt"
      ],
      [
        "Ġtik",
        "ti"
      ],
      [
        "Ġ",
        "e"
      ],
      [
        "Ġta",
        "mi"
      ],
      [
        "Ġ19",
        "5"
      ],
      [
        "ĠM",
        "ÉĽ"
      ],
      [
        "Ġdi",
        "É£en"
      ],
      [
        "ĠS",
        "yin"
      ],
      [
        "l",
        "eb"
      ],
      [
        "ĠT",
        "ella"
      ],
      [
        "y",
        "eqq"
      ],
      [
        "Ġa",
        "xeddim"
      ],
      [
        "Ġy",
        "ak"
      ],
      [
        "er",
        "ri"
      ],
      [
        "n",
        "eg"
      ],
      [
        "n",
        "ett"
      ],
      [
        "n",
        "us"
      ],
      [
        "ĠT",
        "id"
      ],
      [
        "Ġp",
        "ar"
      ],
      [
        "ĠtaÉ£",
        "ult"
      ],
      [
        "Ġif",
        "assen"
      ],
      [
        "or",
        "t"
      ],
      [
        "Ġ",
        "}"
      ],
      [
        "emm",
        "len"
      ],
      [
        "ass",
        "in"
      ],
      [
        "Ġwal",
        "laÉ£"
      ],
      [
        "Ġtew",
        "sit"
      ],
      [
        "ĠtalÉ£",
        "iwin"
      ],
      [
        "2",
        "00"
      ],
      [
        "ent",
        "al"
      ],
      [
        "Ġyess",
        "efk"
      ],
      [
        "ni",
        "á¸į"
      ],
      [
        "ĠI",
        "d"
      ],
      [
        "Ġleb",
        "ni"
      ],
      [
        "Ġi",
        "nu"
      ],
      [
        "l",
        "emt"
      ],
      [
        "Ġn",
        "s"
      ],
      [
        "á¹Ń",
        "ar"
      ],
      [
        "Ġame",
        "qran"
      ],
      [
        "Ġ19",
        "6"
      ],
      [
        "Ġ",
        "="
      ],
      [
        "em",
        "reÉ£"
      ],
      [
        "Ġtame",
        "ddit"
      ],
      [
        "Ġw",
        "eg"
      ],
      [
        "ynut",
        "en"
      ],
      [
        "y",
        "ura"
      ],
      [
        "et",
        "ma"
      ],
      [
        "s",
        "ant"
      ],
      [
        "t",
        "iwin"
      ],
      [
        "y",
        "un"
      ],
      [
        "Ġw",
        "ala"
      ],
      [
        "ĠI",
        "f"
      ],
      [
        "u",
        "v"
      ],
      [
        "ĠtaÉ£",
        "awsa"
      ],
      [
        "Ġseg",
        "mi"
      ],
      [
        "tin",
        "iá¸į"
      ],
      [
        "h",
        "am"
      ],
      [
        "h",
        "im"
      ],
      [
        "Ġtes",
        "dawit"
      ],
      [
        "Ġuf",
        "iÉ£"
      ],
      [
        "Ġteá¹Ńá¹Ń",
        "ef"
      ],
      [
        "Ġlwi",
        "laya"
      ],
      [
        "Ġa",
        "ru"
      ],
      [
        "win",
        "t"
      ],
      [
        "ĠN",
        "na"
      ],
      [
        "ĠH",
        "a"
      ],
      [
        "li",
        "win"
      ],
      [
        "Ġtu",
        "m"
      ],
      [
        "t",
        "sen"
      ],
      [
        "Ġï",
        "ģ"
      ],
      [
        "at",
        "g"
      ],
      [
        "Ġiwa",
        "ta"
      ],
      [
        "Ġtaw",
        "wurt"
      ],
      [
        "o",
        "un"
      ],
      [
        "er",
        "fan"
      ],
      [
        "Ġt",
        "r"
      ],
      [
        "Ġle",
        "á¹£"
      ],
      [
        "ru",
        "f"
      ],
      [
        "Ġâ",
        "µ"
      ],
      [
        "z",
        "ut"
      ],
      [
        "<",
        "/"
      ],
      [
        "Ġi",
        "na"
      ],
      [
        "is",
        "em"
      ],
      [
        "ĠA",
        "la"
      ],
      [
        "ed",
        "meá¸į"
      ],
      [
        "Ġteq",
        "cict"
      ],
      [
        "Ġtett",
        "wa"
      ],
      [
        "Ġtaq",
        "cict"
      ],
      [
        "ug",
        "an"
      ],
      [
        "ĠtÉ£",
        "awsiwin"
      ],
      [
        "Ġt",
        "mez"
      ],
      [
        "ella",
        "á¸¥t"
      ],
      [
        "y",
        "awi"
      ],
      [
        "ef",
        "hem"
      ],
      [
        "ĠY",
        "eb"
      ],
      [
        "Ġz",
        "emren"
      ],
      [
        "e",
        "la"
      ],
      [
        "Ġtef",
        "feÉ£"
      ],
      [
        "Ġima",
        "ynuten"
      ],
      [
        "Ġtat",
        "rart"
      ],
      [
        "Ġt",
        "sen"
      ],
      [
        "Ġti",
        "q"
      ],
      [
        "ba",
        "t"
      ],
      [
        "dd",
        "urt"
      ],
      [
        "mes",
        "t"
      ],
      [
        "Ġs",
        "akin"
      ],
      [
        "Ġn",
        "eqqar"
      ],
      [
        "Ġts",
        "iwelt"
      ],
      [
        "ĠÆĲ",
        "in"
      ],
      [
        "Ġyeb",
        "na"
      ],
      [
        "Ġi",
        "wala"
      ],
      [
        "it",
        "eddun"
      ],
      [
        "ili",
        "f"
      ],
      [
        "p",
        "p"
      ],
      [
        "Ġa",
        "h"
      ],
      [
        "egg",
        "ura"
      ],
      [
        "ĠtÉ£",
        "uri"
      ],
      [
        "á¸¥a",
        "Ç§"
      ],
      [
        "Ġl",
        "wel"
      ],
      [
        "Ġyel",
        "ha"
      ],
      [
        "Ġtag",
        "i"
      ],
      [
        "us",
        "em"
      ],
      [
        "ĠteÉ£",
        "ra"
      ],
      [
        "ma",
        "ra"
      ],
      [
        "ĠA",
        "hat"
      ],
      [
        "Ġc",
        "om"
      ],
      [
        "y",
        "ur"
      ],
      [
        "Ġs",
        "a"
      ],
      [
        "Ġyec",
        "ban"
      ],
      [
        "beÉĽ",
        "d"
      ],
      [
        "mu",
        "zÉ£a"
      ],
      [
        "Ġle",
        "j"
      ],
      [
        "ĠTi",
        "g"
      ],
      [
        "Ġl",
        "mal"
      ],
      [
        "er",
        "ma"
      ],
      [
        "ur",
        "u"
      ],
      [
        "Ġteb",
        "da"
      ],
      [
        "1",
        "2"
      ],
      [
        "d",
        "iÉ£"
      ],
      [
        "Ġl",
        "iá¸¥ala"
      ],
      [
        "Ġk",
        "en"
      ],
      [
        "Ġas",
        "ek"
      ],
      [
        "Ġl",
        "eÉ£"
      ],
      [
        "ĠTi",
        "k"
      ],
      [
        "ĠC",
        "c"
      ],
      [
        "Ġtez",
        "mer"
      ],
      [
        "i",
        "h"
      ],
      [
        "m",
        "un"
      ],
      [
        "Ġwug",
        "uren"
      ],
      [
        "w",
        "u"
      ],
      [
        "dd",
        "ukk"
      ],
      [
        "ĠSaÉĽ",
        "id"
      ],
      [
        "ra",
        "ya"
      ],
      [
        "yew",
        "win"
      ],
      [
        "n",
        "ej"
      ],
      [
        "Ġ19",
        "7"
      ],
      [
        "Ġyekk",
        "er"
      ],
      [
        "ĠsÉĽ",
        "iÉ£"
      ],
      [
        "Ġamaru",
        "z"
      ],
      [
        "ĠlÉ£a",
        "ci"
      ],
      [
        "ĠS",
        "b"
      ],
      [
        "Ġuma",
        "hil"
      ],
      [
        "00",
        "0"
      ],
      [
        "1",
        "8"
      ],
      [
        "da",
        "É£en"
      ],
      [
        "i",
        "yin"
      ],
      [
        "y",
        "eb"
      ],
      [
        "Ġal",
        "lal"
      ],
      [
        "Ġusel",
        "way"
      ],
      [
        "q",
        "im"
      ],
      [
        "Ġdd",
        "in"
      ],
      [
        "Ġtuss",
        "na"
      ],
      [
        "neb",
        "der"
      ],
      [
        "i",
        "mi"
      ],
      [
        "Ġl",
        "ferá¸¥"
      ],
      [
        "Ġ3",
        "0"
      ],
      [
        "erru",
        "mt"
      ],
      [
        "Ġwan",
        "da"
      ],
      [
        "Ġt",
        "meÉ£ra"
      ],
      [
        "uf",
        "f"
      ],
      [
        "teqsi",
        "yen"
      ],
      [
        "Ġw",
        "w"
      ],
      [
        "Ġter",
        "ra"
      ],
      [
        "aw",
        "el"
      ],
      [
        "Ġal",
        "emmas"
      ],
      [
        "Ġuá¸į",
        "ar"
      ],
      [
        "Ġyett",
        "war"
      ],
      [
        "Ġtug",
        "niwin"
      ],
      [
        "á¹Ńa",
        "á¸¥"
      ],
      [
        "ĠY",
        "iÉ£"
      ],
      [
        "n",
        "ant"
      ],
      [
        "na",
        "wi"
      ],
      [
        "Ġteb",
        "na"
      ],
      [
        "uÉ£",
        "t"
      ],
      [
        "ĠTi",
        "z"
      ],
      [
        "y",
        "uÉ£al"
      ],
      [
        "ra",
        "sen"
      ],
      [
        "Ġw",
        "es"
      ],
      [
        "á¸¥",
        "end"
      ],
      [
        "Ġta",
        "áºĵ"
      ],
      [
        "Ġyi",
        "ÉĽ"
      ],
      [
        "ra",
        "l"
      ],
      [
        "rab",
        "en"
      ],
      [
        "Ġame",
        "cá¹Ńuá¸¥"
      ],
      [
        "Ġtek",
        "cem"
      ],
      [
        "Ġu",
        "mes"
      ],
      [
        "al",
        "aÉ£"
      ],
      [
        "Î",
        "¸"
      ],
      [
        "ĠT",
        "ez"
      ],
      [
        "ya",
        "f"
      ],
      [
        "Ġyis",
        "elmaden"
      ],
      [
        "Ġyes",
        "ÉĽi"
      ],
      [
        "ĠA",
        "h"
      ],
      [
        "emma",
        "á¸į"
      ],
      [
        "Ġyekk",
        "es"
      ],
      [
        "ĠL",
        "wen"
      ],
      [
        "Ġz",
        "mireÉ£"
      ],
      [
        "o",
        "ud"
      ],
      [
        "u",
        "mer"
      ],
      [
        "v",
        "i"
      ],
      [
        "Ġa",
        "mes"
      ],
      [
        "ĠA",
        "w"
      ],
      [
        "a",
        "di"
      ],
      [
        "Ġlwel",
        "ha"
      ],
      [
        "Ġn",
        "uÉ£al"
      ],
      [
        "ay",
        "in"
      ],
      [
        "dem",
        "t"
      ],
      [
        "Ġun",
        "ebdu"
      ],
      [
        "Ġu",
        "x"
      ],
      [
        "Ġyis",
        "ental"
      ],
      [
        "Ġkul",
        "lec"
      ],
      [
        "Ġi",
        "mezwura"
      ],
      [
        "z",
        "ayri"
      ],
      [
        "Ġan",
        "ect"
      ],
      [
        "Ġlá¸¥",
        "eb"
      ],
      [
        "un",
        "efk"
      ],
      [
        "ir",
        "et"
      ],
      [
        "ĠTa",
        "qbaylit"
      ],
      [
        "Ġtez",
        "mir"
      ],
      [
        "Ġtif",
        "rat"
      ],
      [
        "ma",
        "m"
      ],
      [
        "á¸¥",
        "an"
      ],
      [
        "ÉĽ",
        "edd"
      ],
      [
        "u",
        "la"
      ],
      [
        "Ġs",
        "m"
      ],
      [
        "áºĵ",
        "ur"
      ],
      [
        "ĠU",
        "zzu"
      ],
      [
        "y",
        "eff"
      ],
      [
        "Ġ",
        "o"
      ],
      [
        "Ġba",
        "c"
      ],
      [
        "Ġud",
        "rar"
      ],
      [
        "Ġta",
        "sa"
      ],
      [
        "Ġl",
        "ef"
      ],
      [
        "Ġu",
        "w"
      ],
      [
        "ĠI",
        "g"
      ],
      [
        "mu",
        "m"
      ],
      [
        "Ġw",
        "ed"
      ],
      [
        "ya",
        "É£"
      ],
      [
        "ĠAq",
        "l"
      ],
      [
        "Ġyi",
        "á¹Ńij"
      ],
      [
        "Ġta",
        "man"
      ],
      [
        "Ġid",
        "rimen"
      ],
      [
        "ĠIl",
        "ul"
      ],
      [
        "Ġix",
        "ef"
      ],
      [
        "u",
        "áºĵ"
      ],
      [
        "Ġ",
        "ed"
      ],
      [
        "Ġi",
        "sen"
      ],
      [
        "y",
        "emm"
      ],
      [
        "Ġf",
        "a"
      ],
      [
        "g",
        "ra"
      ],
      [
        "eb",
        "ter"
      ],
      [
        "ĠyeÇ§Ç§",
        "an"
      ],
      [
        "egg",
        "en"
      ],
      [
        "Ġar",
        "raw"
      ],
      [
        "ta",
        "b"
      ],
      [
        "á¸į",
        "eb"
      ],
      [
        "Ġme",
        "urt"
      ],
      [
        "tt",
        "ant"
      ],
      [
        "li",
        "m"
      ],
      [
        "ex",
        "damen"
      ],
      [
        "em",
        "mirt"
      ],
      [
        "Ġdi",
        "É£"
      ],
      [
        "me",
        "á¹Ľ"
      ],
      [
        "Ġyi",
        "ferdisen"
      ],
      [
        "Ġla",
        "man"
      ],
      [
        "ĠE",
        "l"
      ],
      [
        "nil",
        "est"
      ],
      [
        "Ġtwi",
        "layt"
      ],
      [
        "Ġlec",
        "É£al"
      ],
      [
        "ĠMa",
        "zal"
      ],
      [
        "Ġf",
        "kan"
      ],
      [
        "Ġtan",
        "eggarut"
      ],
      [
        "Ġta",
        "wacult"
      ],
      [
        "li",
        "yin"
      ],
      [
        "Ġus",
        "wir"
      ],
      [
        "Ġuz",
        "emmur"
      ],
      [
        "er",
        "wes"
      ],
      [
        "ĠneÉĽ",
        "reá¸į"
      ],
      [
        "s",
        "ayt"
      ],
      [
        "ĠM",
        "ari"
      ],
      [
        "Ġyid",
        "lisen"
      ],
      [
        "Ġyett",
        "ban"
      ],
      [
        "Ġaq",
        "cic"
      ],
      [
        "Ġ2",
        "4"
      ],
      [
        "ber",
        "ran"
      ],
      [
        "ĠAn",
        "da"
      ],
      [
        "ĠX",
        "as"
      ],
      [
        "er",
        "á¸į"
      ],
      [
        "Ġyi",
        "x"
      ],
      [
        "er",
        "q"
      ],
      [
        "Ġumen",
        "nuÉ£"
      ],
      [
        "Ġaz",
        "amul"
      ],
      [
        "ĠLwen",
        "nas"
      ],
      [
        "o",
        "t"
      ],
      [
        "áºĵ",
        "a"
      ],
      [
        "us",
        "in"
      ],
      [
        "Ġime",
        "á¹Ńá¹Ń"
      ],
      [
        "M",
        "a"
      ],
      [
        "ud",
        "ert"
      ],
      [
        "Ġtaz",
        "rawt"
      ],
      [
        "Ġun",
        "nar"
      ],
      [
        "f",
        "k"
      ],
      [
        "er",
        "fi"
      ],
      [
        "Ġ",
        "Ù"
      ],
      [
        "Ġug",
        "ur"
      ],
      [
        "o",
        "c"
      ],
      [
        "Ġi",
        "beddel"
      ],
      [
        "Ġs",
        "ya"
      ],
      [
        "ass",
        "assin"
      ],
      [
        "Ġnekk",
        "ini"
      ],
      [
        "É£",
        "est"
      ],
      [
        ".",
        "\""
      ],
      [
        "ar",
        "ra"
      ],
      [
        "Ġd",
        "rus"
      ],
      [
        "Ġa",
        "wadem"
      ],
      [
        "el",
        "wit"
      ],
      [
        "Ġn",
        "nu"
      ],
      [
        "g",
        "aren"
      ],
      [
        "y",
        "eá¸¥"
      ],
      [
        "Ġr",
        "ebbi"
      ],
      [
        "Ġimen",
        "si"
      ],
      [
        "á¹Ľ",
        "u"
      ],
      [
        "ĠTaÉĽ",
        "rabt"
      ],
      [
        "1",
        "1"
      ],
      [
        "est",
        "ant"
      ],
      [
        "Ġl",
[...]
